003D
000B
FFE7
003B
000A
002B
FFFA
000F
0014
FFF2
0034
0027
0007
0009
FFF1
0000
0034
001E
0038
0026
FFEA
003B
001E
0024
0039
0018
FFED
FFC2
FFC6
0030
FFFE
0001
0007
FFC9
0014
0037
0002
001B
0040
0038
0012
0007
FFBB
FFCF
FFBE
003F
FFEF
FFD0
0020
FFB8
000F
0000
FFD2
0029
FFFB
0033
001F
002F
FFEB
FFEC
0018
FFF7
002F
FFC6
0007
001A
FFFC
FFFD
000C
0032
0006
003B
