FFD8
FFDA
001E
FFE4
FFD4
FFFE
FFEE
0033
003B
0000
000D
FFE9
FFEB
FFD3
FFCC
FFE0
0009
002A
002D
0021
002F
000C
FFF7
0021
FFF0
FFF9
0035
0001
0032
FFBA
002E
0012
FFE1
000E
0035
FFE9
FFFD
000A
003B
003D
0037
FFFE
0025
FFF8
FFF5
FFEE
0019
000E
000A
002C
0036
000A
FFFC
0021
001A
0014
0018
003B
0027
0018
0023
003B
001F
001C
003B
003A
0010
FFF6
0006
0029
0022
0002
