0030
002A
0021
0022
FFFF
000B
FFCB
FFFA
0016
FFFD
FFE8
000D
0027
0017
001B
0026
002D
0013
FFC9
FFBD
FFC1
FFE2
FFFE
0004
0047
002D
FFED
FFFA
002E
001F
0012
0033
FFF9
001C
002B
FFF8
0015
0009
0024
0036
0028
0039
0024
002A
002E
002F
0001
FFDE
001E
FFD8
FFE1
003A
FFD4
001D
001F
000E
002B
0029
003B
0005
FFF8
001E
001E
001C
0021
001C
0037
0013
002D
FFC9
FFC5
FFF2
