FFFE
FFFE
FFFF
0001
0000
FFFA
FFF9
FFF9
FFF9
FFFB
0002
FFFD
0000
FFFF
0003
FFFD
FFF9
FFFD
FFFC
FFFC
0002
0001
FFF8
FFF8
FFF9
FFFA
FFFE
0002
FFFD
FFFF
FFF7
FFF9
FFF6
FFFC
0000
FFFF
FFFE
FFF5
FFF8
FFF8
FFFB
FFFA
FFFF
FFF7
FFF8
FFF8
FFF5
FFFC
FFFB
FFFF
0007
0000
FFFC
FFFB
FFF3
FFF2
0000
FFF8
FFF9
FFF7
FFF9
FFFC
FFFF
0003
000B
000B
0002
0000
FFFB
FFEE
FFFF
FFF7
FFFB
FFF6
FFFB
FFFC
0003
0002
000B
000A
0006
0002
0000
FFEF
FFFD
FFF5
FFFB
FFFC
FFFF
0003
0000
FFF3
FFF4
FFFB
0001
0008
0006
FFF5
FFFD
FFF9
0003
0000
0003
0001
FFF1
FFEB
FFEF
FFF5
FFFF
0007
000C
0002
FFFF
FFFA
0002
0005
0009
FFFC
FFF2
FFEA
FFF2
FFFC
0002
0003
0008
FFF9
FFFD
FFFD
0001
0006
0008
0002
FFF1
FFEF
FFF8
0005
FFFF
0002
0002
FFF9
FFFC
FFF7
0003
0003
0007
0006
0000
FFFE
FFFD
0002
0003
0005
FFFA
FFFA
FFFE
FFF7
0000
0001
0006
000D
0006
0007
0000
0000
FFFE
FFFB
FFFC
FFFC
0002
FFF7
FFFA
0001
0005
0009
0009
0006
0002
FFFE
FFF4
FFFA
FFFA
0002
0001
FFFF
FFF7
FFF6
FFF2
FFF0
FFF0
FFEE
FFF2
FFF3
FFF4
FFF5
0000
FFFE
FFFE
0004
FFFE
FFFB
FFF6
FFFA
FFF5
FFF7
FFF4
FFF7
FFF7
FFFA
FFFD
0001
0001
FFFE
FFF7
FFF9
FFFA
FFFB
FFF8
0000
FFFA
FFF7
FFFA
FFF8
FFF9
FFF8
FFFB
FFF5
FFFA
FFFA
FFF9
0000
0001
0006
0006
0002
0000
FFFE
FFF5
FFF1
FFFB
FFF6
FFF7
FFFB
FFFB
FFFC
FFFE
0003
0005
0008
0004
0004
FFFF
FFEC
FFFF
FFF6
FFF7
FFFF
FFFD
0000
0006
0003
0001
000A
000A
0004
000A
FFE7
FFFB
FFF7
0000
FFFF
FFFD
0003
FFFA
FFF3
FFEF
FFF9
0007
0008
0008
FFF6
FFFD
FFF3
0002
0001
0008
0004
FFF8
FFE7
FFEF
FFF6
0003
0009
000A
FFFC
0000
FFF6
0005
0006
0008
0003
FFEE
FFE7
FFF2
FFFB
0001
0006
0006
FFF9
FFF8
FFF0
FFFD
0002
0008
0000
FFEF
FFEC
FFFC
0006
FFFC
FFFB
0000
FFF7
FFFD
FFF0
FFF9
FFFC
0005
0009
0003
0006
0002
FFFC
FFF7
FFF7
FFF8
FFF8
FFFA
FFF7
FFF6
FFFB
0005
0007
0008
0005
0000
FFFE
FFF9
FFFC
FFF6
FFF9
FFFE
FFF3
FFFA
FFFF
0004
000A
000F
0009
0000
FFFF
FFFB
FFF7
FFF8
FFFE
FFFC
FFF2
FFF9
FFED
FFF0
FFEE
FFF2
FFF3
FFF1
FFEB
FFEE
FFF4
FFF9
FFFF
0002
FFFB
FFF8
FFED
FFE8
FFE6
FFEF
FFF2
FFF1
FFF0
FFF3
FFF5
FFFD
0000
FFFD
0000
FFFE
0002
0002
0001
0001
FFFF
FFFD
0001
FFFE
FFFE
FFFC
0002
0002
FFFE
FFFC
FFFF
0000
0000
0000
0002
0004
0001
FFFD
FFFF
FFFD
FFFF
FFFD
FFFD
FFFE
0002
0002
0004
0000
FFFF
0007
0004
0000
0004
FFFF
FFFC
FFFF
0000
0003
FFFF
FFFD
FFFD
FFF7
FFF6
0001
0002
0003
FFFF
FFFF
0001
FFFD
FFFC
0002
FFFC
FFF9
FFF6
FFF8
FFF6
FFF0
FFFF
FFFF
FFFF
FFFD
0000
FFFF
0002
FFFE
FFFC
FFF9
FFF3
FFF4
FFF4
FFEF
FFED
FFF6
FFF7
FFFF
0001
FFFE
0000
FFFA
FFFD
FFF8
FFF4
FFF8
0005
FFFD
FFE9
FFF4
FFF6
FFFE
FFFE
FFFE
0000
FFFE
FFF6
FFEE
FFF0
FFFE
0005
0000
FFF1
FFF9
FFF3
FFF9
0001
FFFE
0001
FFFB
FFF4
FFEB
FFF4
0007
000D
0002
FFF0
FFF6
FFFB
FFFD
0000
FFFD
0000
FFFE
FFF9
FFF2
FFF7
000A
0007
FFFB
FFF9
FFF8
FFFD
FFFC
0000
0002
FFFD
0000
FFFF
FFF8
FFF4
0003
0007
0002
0001
0001
FFFC
FFFE
0001
0000
FFFF
FFFE
FFFB
FFFA
FFFB
FFFA
0003
0004
FFFF
FFFD
FFFE
FFFF
FFFF
0000
0002
0001
0000
0002
0001
FFFD
0001
0003
0002
0002
FFFD
FFFC
FFFE
0002
0000
0001
FFFE
0000
FFFF
FFFF
0002
FFFE
FFFE
0000
FFFD
FFFE
FFFD
0001
FFFE
FFFC
0002
FFFF
0001
0002
FFFE
0001
0000
0002
0001
FFFF
FFFD
0000
0000
FFFE
FFFE
FFFD
FFFD
FFFD
0000
FFFD
FFFD
FFFF
0001
0002
FFFE
0000
FFFF
FFFF
FFFF
FFFC
FFFF
0003
0000
0001
FFFE
0001
FFFE
FFFD
FFFC
0000
FFFD
0001
FFFF
FFFD
0001
FFFE
0004
0007
0005
0002
0003
FFFC
FFFE
FFFC
0002
0000
FFFD
FFFC
0000
0003
0007
0004
0005
0001
0006
0002
FFFB
0000
0002
FFFD
FFFE
FFFB
0003
0003
FFFC
FFFB
FFFF
0002
0005
0001
FFFF
0002
0000
0001
0001
0001
0008
0002
FFF4
FFF1
FFFD
0006
0007
0006
FFFC
FFFF
FFFD
0000
0000
0009
0009
FFF6
FFEB
FFF7
0000
0003
0005
0007
FFFF
FFFE
FFFE
0005
0002
000C
0002
FFF3
FFF1
FFFD
0006
0003
0005
FFFF
0000
FFFF
FFFC
FFFF
0001
0007
0004
FFFA
FFFB
0003
0005
FFFF
0001
0000
FFFC
FFFF
0001
0001
0001
0005
0009
FFFE
0000
0000
FFFF
0000
FFFF
FFFE
FFFE
FFFE
0001
FFFD
0002
0001
0006
0006
0005
0000
FFFA
FFFD
FFFD
FFFF
0000
FFFE
0001
0002
FFFD
FFFE
0003
0000
0001
FFFB
FFF9
FFFF
0000
FFFC
FFFE
0001
FFFF
FFFC
0001
0000
FFFF
FFF9
FFF9
FFFC
FFFE
FFFC
FFFE
0002
FFFC
0001
0000
FFFF
FFFE
0002
FFFE
FFFF
FFFB
FFFC
FFFE
0000
FFFC
FFFF
FFFE
0001
FFFD
FFFD
FFFE
FFFF
FFFF
FFFF
FFFF
FFF9
FFF9
FFFA
0000
FFFC
0001
FFFF
0001
FFFF
FFFB
FFFC
FFFD
0001
0005
0005
0003
0002
FFFF
FFFA
0001
0000
FFFC
0000
FFFE
FFFE
0001
0000
0004
0007
0008
0000
0000
FFFE
FFFD
0000
FFFF
FFFA
FFFD
0001
FFFE
0005
0007
0004
0009
0005
0006
FFFF
FFFF
FFFF
FFFF
FFFE
0003
0002
0007
FFFF
FFF8
FFFA
0001
0004
0003
0007
FFFE
0001
FFFC
0006
0002
0005
0003
FFF7
FFF6
FFF4
FFFC
0008
0007
0007
0000
0001
FFFC
0005
0006
0005
0001
FFF7
FFF5
FFFA
FFFD
0002
0005
0008
FFFF
FFFE
FFFF
0001
0005
0009
0000
FFF3
FFF7
FFFE
0006
0001
0004
0005
FFFF
0002
FFFD
0003
0006
0008
0004
FFFE
FFFD
FFFF
0004
0000
0001
0000
0001
FFFF
FFFD
FFFF
0000
0004
0007
0005
0001
0003
0000
0001
FFFD
FFFE
FFFF
FFFD
FFFD
FFFD
0001
0006
000B
0005
0002
FFFE
FFFE
FFFD
FFFC
FFFC
FFFD
FFFC
FFFD
FFFF
FFFA
FFFC
FFFD
FFFC
FFFD
FFFD
FFFB
FFFF
FFFE
0000
0000
0002
FFFD
FFFE
FFFF
FFFC
FFFC
FFFC
FFFA
FFFD
FFFC
FFFE
FFFE
FFFF
0000
FFFD
FFFE
FFFE
0001
0002
0000
FFFE
FFFF
FFFD
0000
FFFE
0001
FFFE
0000
0001
0001
FFFE
FFFC
FFFE
FFFF
0001
0003
FFFF
FFFF
FFFE
0001
FFFD
0001
FFFC
FFFD
0000
FFFC
FFFC
0000
0001
0006
0003
0004
0001
0001
0000
FFFE
0002
FFFF
FFFD
FFFC
FFFC
FFFE
FFFF
0002
0003
0005
0000
0000
0006
FFF9
FFFE
FFFF
FFFE
FFFE
FFFD
0002
FFFE
FFFE
FFFC
0003
0004
0003
0007
FFFE
FFFD
0001
0001
0001
0004
FFFF
0000
FFFB
FFF9
FFFE
0005
0000
000B
FFFC
FFFE
FFFF
0004
0009
0007
FFFE
0003
FFFC
FFF3
FFFA
0002
0005
0008
0000
FFFF
FFFD
0001
0009
0002
000A
0008
FFF6
FFED
0000
0002
0004
0007
0001
0000
FFFD
FFFF
0005
0005
000D
0006
FFF8
FFF6
0002
0001
0004
0003
0001
FFFF
FFFE
FFFF
FFFC
0003
0010
000D
FFFB
FFFA
0003
FFFF
0002
0001
FFFD
0001
FFFC
FFFC
FFFC
FFFB
0007
000A
FFFF
FFFC
FFFE
FFFF
0001
0000
0001
FFFD
0001
0000
FFFB
FFFB
FFFA
FFFD
FFFF
FFFF
FFFF
FFFA
FFFF
0001
FFFD
FFFE
FFFF
0001
FFFE
FFFC
0002
0001
0002
0000
FFFE
FFFE
FFFB
FFFC
FFFF
0000
FFFC
0001
FFFC
0001
FFFF
FFF8
FFF9
FFFB
FFFE
FFFF
0001
0001
0002
0003
0001
0001
FFFF
FFF9
FFF8
FFF9
FFF7
FFF5
FFF9
FFF8
0001
FFFD
0003
0001
FFFC
FFFB
FFF6
FFF5
FFFB
FFFC
FFF9
FFF7
FFF5
FFF6
FFF6
FFF9
0001
0001
FFFC
FFF6
FFFB
FFF8
FFFF
0005
0002
0004
0001
0001
0000
FFF9
FFF7
FFFE
FFFA
FFF7
FFFB
FFF9
0001
0002
0002
0007
0003
0003
0001
FFF9
FFEF
FFFE
FFF9
FFFB
FFFD
FFFC
FFFF
0005
0003
000D
000B
0004
0003
FFFF
FFEA
FFFF
FFF5
FFFE
0000
0001
0003
0003
FFF8
FFFB
000A
0006
0005
0007
FFEE
FFFC
FFF7
0001
0000
0007
0006
FFFB
FFEF
FFF5
FFFE
0005
000A
000B
FFF7
FFFC
FFF9
0004
0007
000D
0006
FFF6
FFEC
FFF7
FFFC
0006
0009
000C
0001
FFF8
FFFB
0000
0005
000E
0003
FFF0
FFEE
FFF8
0001
0003
0004
0006
FFFB
FFF9
FFF7
0000
0007
000C
0007
FFF5
FFF7
FFFF
0000
0003
0006
0002
FFFA
FFF9
FFFA
0004
0005
0006
000B
0006
0003
0002
0000
FFFD
0002
FFFA
FFF9
FFFB
FFFA
0004
0006
0004
0008
0009
0006
0004
0000
0000
FFFC
FFFD
FFFE
FFFD
FFF3
FFF9
FFFC
0000
0003
0008
0001
FFFA
FFF7
FFF4
FFF4
FFFB
FFFD
FFFE
FFFA
FFF4
FFF4
FFF3
FFEE
FFED
FFF4
FFEF
FFF0
FFF7
FFF3
0000
FFFE
0005
0003
0002
FFFE
0003
FFFD
FFFE
0005
FFFE
FFFF
0001
0007
0007
0005
0004
0000
FFFB
FFFD
FFF6
FFF8
FFF9
FFFC
FFF5
FFF5
FFF0
FFF9
FFFF
0000
0000
FFFC
FFF5
FFF4
FFF4
FFF4
FFF9
0000
FFFC
FFF7
FFF8
FFF9
FFFA
FFF4
FFFD
FFF7
FFF8
FFF5
FFF2
FFF9
FFFF
0002
0002
0003
FFFA
FFF8
FFF3
FFF3
FFFC
FFF6
FFF5
FFF7
FFF5
FFF5
FFFB
0002
000B
0009
FFFE
FFF7
FFF4
FFE6
0000
FFF6
FFFA
FFF6
FFF4
FFFB
0003
0005
0008
0008
0000
FFF8
FFFB
FFE8
FFFD
FFF5
FFFD
FFF3
FFF7
FFFD
FFFB
FFEE
FFEF
FFF6
FFFF
0005
0009
FFF4
FFFF
FFF9
FFFC
FFFA
FFF9
FFF7
FFEF
FFE8
FFF0
FFF4
FFFE
0004
000D
FFFC
FFFB
0000
0001
0004
0001
FFF7
FFE9
FFEB
FFEF
FFF9
0006
0001
0007
FFFC
FFF9
FFF9
FFFC
0005
0005
FFFE
FFEB
FFEF
FFF9
0007
FFFD
FFFE
0000
FFF9
FFFA
FFFD
FFFE
0002
0005
0005
FFFB
FFFF
0002
FFFC
0002
0000
FFFB
FFFB
FFFA
FFF7
0001
0005
0008
0007
000B
0008
0007
0003
FFFF
FFFA
FFFA
FFFD
FFFD
FFF4
FFF5
FFFD
0004
0003
0009
0002
0001
FFFB
FFF6
FFF6
FFF4
FFFE
0005
0000
FFF4
FFF2
FFEE
FFEC
FFEF
FFEC
FFF0
FFF2
FFF1
FFF1
FFF8
0005
0004
0005
0003
0003
0000
FFFF
0007
0003
FFFE
FFFD
0001
0003
0005
0000
0000
0001
0005
FFFA
0000
0008
0009
0008
0003
0002
FFFD
FFFC
FFFE
0004
0005
0006
0001
FFF5
FFFB
FFFE
FFFF
FFFF
FFF9
FFF8
0003
0002
FFFF
FFFA
FFFF
0000
FFFB
FFF7
FFF4
FFF9
FFF7
FFEF
FFEC
FFF5
0006
0002
FFF8
FFF0
0001
FFFA
FFF9
FFF8
FFF9
FFF4
FFFB
FFF6
FFF0
FFF7
FFFC
FFF8
FFF4
FFEF
FFFE
FFFA
FFFB
FFFD
FFF7
FFF5
0004
0005
0002
FFFA
FFF6
FFF0
FFEA
FFEE
0000
FFFE
FFF8
FFFD
FFF6
FFF3
0000
000F
0007
FFF6
FFFA
FFF8
FFF6
FFF8
0004
0000
FFF7
FFFC
FFF3
FFF1
FFFF
0007
FFFF
FFF6
FFF6
FFF5
FFF6
FFFE
0003
FFF9
FFF0
FFF7
FFF3
FFF4
0000
000C
FFFB
FFF0
FFF2
FFF7
FFFC
FFFB
0001
FFF2
FFEF
FFF3
FFF6
FFF8
000A
000D
FFF5
FFF4
FFFA
FFFB
FFF9
FFFF
0002
FFFD
FFFA
FFFC
FFFA
FFF8
0009
0002
FFF6
FFFC
0000
FFFE
FFFB
FFFF
0002
FFFB
0004
0000
0003
FFF9
FFF9
FFFD
FFFE
0003
FFFB
FFF9
FFFB
0006
0002
FFFC
0002
0009
0008
FFFE
FFFD
FFFF
0007
0004
FFFA
FFFA
FFFF
0005
0004
FFFC
FFF0
FFED
FFED
FFF0
FFEC
FFF0
FFF5
FFF7
FFFB
0000
0000
0005
0003
0002
0002
FFFB
FFFB
FFF9
FFFD
FFFF
FFFF
FFF7
FFF2
FFF5
FFFC
FFFF
0002
0003
0001
FFF7
FFF8
FFFB
FFFE
0002
FFF7
FFFA
0001
0003
FFF9
FFF9
FFFE
FFFF
FFFB
FFF8
FFF6
FFF8
FFFC
FFFC
FFFA
0000
0007
0005
FFFF
FFF1
FFFC
FFFD
FFF5
FFF3
FFF6
FFF6
FFFA
FFF7
FFF5
FFF9
FFFB
FFFA
FFF1
FFE8
FFFD
FFF9
FFF4
FFF6
FFFA
FFF6
FFFB
000D
000B
FFF9
FFF7
FFF2
FFEC
FFE9
FFFE
FFFC
FFF8
FFF7
FFFB
FFF0
FFFE
0010
0009
FFF9
FFF2
FFF0
FFEF
FFF4
FFFF
0000
FFFE
FFF9
FFF3
FFF0
0000
000C
0003
FFF7
FFF8
FFF8
FFF8
FFFA
0003
FFFF
FFF3
FFF1
FFF4
FFF6
0004
0008
FFFC
FFF0
FFF6
FFF4
FFF7
FFF9
0003
FFF9
FFEB
FFEE
FFFA
FFFB
0006
000A
FFF2
FFF2
FFF6
FFFD
FFF7
FFF8
0000
FFF3
FFEF
FFF6
FFFC
FFFE
0004
FFFB
FFF8
FFFA
FFFE
FFFA
FFFA
FFFD
FFFE
FFFD
0007
0005
0000
FFFB
FFF5
FFF7
0001
0005
0001
FFFE
FFF9
FFFF
FFFF
FFFD
0006
000C
0004
FFF5
FFF1
FFF7
000B
0006
0000
FFFA
FFFB
0007
0004
FFFD
FFF7
FFEF
FFE7
FFE8
FFE4
FFEB
FFF1
FFF6
FFF8
FFF8
FFFE
0005
0000
FFFF
FFF3
FFEC
FFE8
FFEE
FFE4
FFEC
FFEF
FFF4
FFFB
0003
0001
0006
0008
0007
0004
0006
0003
0002
0006
0008
0008
0001
0005
0003
0003
0002
0006
0007
0005
0004
0005
0007
0007
0006
0004
0006
0004
0007
0004
0004
0002
0003
0003
0003
0006
0005
0002
FFFF
FFFF
FFFC
0001
0006
0003
0006
0007
0004
0002
0006
0003
0002
FFFD
FFF7
FFEC
FFF2
FFF3
0000
0000
0006
0005
0003
0004
0004
000A
0007
0000
FFF9
0001
FFFA
FFFD
0004
0004
0006
0005
0005
0004
0007
000A
000A
FFFA
FFF4
FFFB
FFFF
0007
0005
0005
0005
0004
0008
0004
0004
0004
000D
FFEF
FFE9
FFF6
0000
0002
0003
0005
0002
0007
0002
0003
0007
0007
000E
FFEE
FFE6
FFFD
0003
0003
0004
0003
0007
0006
0003
0004
0003
0007
0004
FFF1
FFEA
0005
0006
0008
0004
0005
0007
0007
0002
0009
0003
0002
FFFD
FFF5
FFF8
0009
0006
0007
0003
0003
0004
0005
0003
0008
0003
0002
0001
FFF7
FFFD
0007
0003
0002
0004
0001
0003
0002
0004
0001
0003
0001
0008
000B
0001
0000
0000
0004
0004
0005
0005
0002
0007
0008
0006
0007
000A
000B
0006
0004
0008
0002
0007
0003
0002
0003
0003
0004
0006
0007
0008
0004
0006
0005
0005
0007
0007
0004
0007
0001
0006
0006
0005
0007
0007
0003
0008
0006
0003
0003
0002
0006
0007
0005
0007
0006
0002
0002
0006
0002
0009
0003
0000
0006
0007
0004
0004
0006
0003
0002
0002
FFFF
0003
0006
0006
0003
0005
0006
0006
0001
0004
0001
0001
0007
FFFF
FFFE
FFFC
FFFB
0002
FFFD
0003
0005
0001
0002
0006
0003
0006
0004
0001
FFFA
FFFD
FFFA
0009
0005
FFFD
FFFE
FFFA
FFFF
0006
0004
0002
0006
0001
FFFA
FFF7
FFFD
0010
0004
FFFB
FFFE
FFFB
0001
0006
0001
0004
0001
FFFF
FFFD
FFF3
0007
000D
0005
FFF9
FFFB
0001
0004
0004
0007
0005
0003
0002
FFF7
FFF4
0006
0009
FFFF
FFF4
FFF9
FFFF
0005
0004
0007
0004
0004
FFFC
FFF7
FFF8
0005
000C
FFF5
FFF6
FFFE
0001
0002
0005
0004
0007
FFFE
FFFF
0001
FFFF
0009
0007
FFF6
FFF9
0001
0006
0006
0004
0005
0007
0005
0005
0004
0005
0003
FFFC
FFFB
0005
0006
0005
0005
0003
0007
0003
0005
0007
0006
0000
FFFC
0003
0005
0004
0002
0004
0004
0004
0002
0003
0003
0002
0003
FFFD
0000
0001
0002
0005
0006
0005
0007
0007
0007
0002
0002
0005
FFFE
FFFD
FFFE
0002
0000
0004
0001
0004
0003
0007
0002
0002
0001
0002
0003
0004
0005
0004
0006
0005
0005
0002
0007
0005
0003
0005
0005
0004
0004
0003
0004
0001
FFFF
0002
0004
0005
0003
0007
0003
0004
0007
FFFE
FFFC
0000
0005
0003
0000
0005
0009
0008
0006
0002
0001
0006
0003
FFFC
FFFA
FFF7
FFFD
FFFF
FFFC
FFFC
0003
FFFF
0000
0004
0007
0004
FFFF
FFFD
FFFA
FFF8
0000
000B
0008
FFFF
FFFC
FFF8
FFF9
FFFF
0007
0002
FFFF
FFFE
FFFB
FFFA
0005
000D
0006
FFFD
FFFD
FFF9
FFFC
0001
0004
0004
FFFE
FFFE
FFFA
FFF6
0008
0009
0003
FFF8
FFF7
FFFA
0002
0005
0004
0003
0001
FFFA
FFF9
FFF6
000C
0009
FFFB
FFF6
FFF6
FFFE
0003
0004
0007
0003
FFF7
FFF7
FFF9
0000
000A
0008
FFF6
FFF9
FFF8
FFFC
0001
0003
0004
0004
FFFD
FFFB
0000
0005
0008
0004
FFF7
FFFB
FFFE
0001
0001
0001
0004
0004
0005
0000
0001
0002
0002
FFFD
FFFF
FFFF
FFFD
0001
0005
0005
0006
0002
0006
0008
0006
FFFF
FFFC
0004
0006
0003
0003
0004
0001
0003
0004
0007
0003
0005
FFFF
FFF7
FFF7
FFFD
FFFF
0000
0005
0007
0005
0006
0006
0002
0002
0002
0002
0002
FFFE
FFFD
0004
0001
0003
0006
0004
0005
0006
0006
0004
0004
0005
0004
0004
0004
0005
0003
0004
0006
0002
0003
0007
0004
0006
0006
0001
0006
0004
0006
0006
0003
0005
0007
0002
0006
0003
0006
0006
0000
FFFC
0002
FFFF
0007
0003
FFFD
0004
0003
0004
0005
0001
0001
0004
FFFD
FFF8
FFF9
FFFC
0005
0001
FFFA
FFFF
0001
FFFF
FFFE
0004
0000
0004
FFFD
FFF8
FFF2
FFFE
FFFF
0001
FFFB
FFFD
FFFD
FFFE
0002
0006
0001
0003
FFFD
FFF6
FFF6
FFFE
FFF4
0007
FFFD
FFFC
FFFE
FFFB
0005
0005
0004
0000
0000
FFF8
FFFD
FFF3
FFF7
000D
FFFD
FFF7
FFFF
0000
0004
0006
0002
0003
FFFE
FFFC
FFFE
FFEE
0006
000C
FFF7
FFF9
FFFD
0001
0005
0007
0003
0000
FFFA
FFFE
FFFE
FFF2
0007
0007
FFF0
FFF9
0000
0001
0005
0007
0004
0002
0002
FFFC
FFF7
FFF7
0007
FFFD
FFF7
0000
0002
0006
0003
0001
0004
0006
0005
FFFF
FFFD
FFFE
0002
FFFB
0003
FFFF
0006
0005
0002
0002
0006
0001
0006
FFFF
0003
FFFD
FFFA
0001
0006
0006
0001
0000
0002
0003
0006
0001
0008
0009
0008
FFFF
FFFF
0003
0003
0005
0005
0004
0002
0001
0006
0002
0002
0003
0000
0000
0000
0001
0001
0004
0005
0003
0006
0002
0001
0005
0001
FFFB
FFF8
FFFE
0000
FFF8
FFF8
FFFB
0002
0005
0004
0002
0003
FFFC
FFFC
FFFB
FFFA
FFFF
FFFC
FFFA
FFF6
FFF9
FFF6
FFF6
0002
0003
0000
FFFA
FFF6
FFF6
FFFC
0004
0007
0001
0003
000A
0009
FFFE
FFFA
0003
FFFB
FFF8
FFF6
FFF9
FFFB
FFFA
FFFC
FFFB
FFFA
0001
0000
FFF5
FFEE
0000
FFFD
FFFA
FFF8
FFF8
FFF7
FFFB
0008
0003
FFFD
FFFE
FFF5
FFEE
FFED
0002
FFFD
FFFB
FFFA
FFF8
FFF6
0005
000F
0005
FFFA
FFF8
FFF2
FFEA
FFEF
FFFE
FFFB
FFFA
FFFB
FFFA
FFF4
000C
000C
0004
FFFB
FFF7
FFFC
FFF3
FFFA
0003
0000
FFFB
FFF8
FFF6
FFF6
000D
000C
FFFC
FFF3
FFF9
FFF9
FFF8
FFFD
0004
FFF9
FFF1
FFF4
FFFB
FFF9
000A
000B
FFF5
FFF3
FFF8
FFFC
FFF9
FFF9
FFFE
FFF7
FFF0
FFF8
FFFC
0004
000B
000A
FFF7
FFF8
0000
FFFC
FFFE
0000
FFFC
FFFA
FFFE
0000
0001
0002
0001
0002
FFFE
FFFE
FFFD
FFFC
FFFB
0001
FFFD
FFFF
0008
0004
0002
FFFA
FFF9
FFFE
0003
0004
FFFB
FFFA
FFFD
0001
0004
FFFE
0001
0001
FFFB
FFF8
FFF1
FFFB
0004
FFFE
FFF9
FFF6
FFFD
0001
0005
0000
FFF1
FFF0
FFF1
FFF2
FFEC
FFED
FFF5
FFF5
FFFD
FFFE
0004
0006
0003
0005
0007
0001
0004
0001
0004
0002
0004
0001
0003
0002
0005
0005
0008
0002
0004
FFF9
FFF4
FFF2
FFF6
FFFA
FFFB
FFEF
FFEE
FFF6
FFF9
FFFC
000A
0004
0000
FFF8
FFF9
FFF9
FFF5
FFF1
FFED
FFF1
FFFA
0000
FFFE
FFF8
FFFF
FFFB
FFFB
FFF3
FFF4
FFF4
FFF1
FFE8
FFE7
FFF0
FFFF
0000
FFF5
FFED
FFFB
FFF5
FFF6
FFF6
FFF6
FFF6
FFF5
FFEE
FFEE
FFF6
FFF8
FFF4
FFEA
FFE9
FFFA
FFF9
FFF5
FFFC
FFF6
FFFB
FFFD
FFFC
FFFD
FFF2
FFF7
FFEC
FFEA
FFEC
0002
FFFC
FFFC
FFF8
FFF3
FFEF
FFFD
0004
FFFF
FFF4
FFF6
FFF7
FFEF
FFF3
0000
FFFE
FFF7
FFFD
FFF4
FFEF
FFF8
0001
FFFB
FFF4
FFF5
FFF5
FFF3
FFF4
0001
FFF4
FFF0
FFF1
FFF4
FFF1
FFFE
FFFE
FFF3
FFEA
FFF3
FFF9
FFF7
FFEF
FFFB
FFF1
FFE8
FFED
FFF5
FFF8
0006
0004
FFF2
FFF0
FFFB
FFFF
FFF8
FFFD
FFFC
FFF8
FFF8
FFFC
FFF7
FFFB
0002
FFF5
FFF4
FFFE
FFFF
FFFD
FFFA
FFFF
FFFC
FFFF
0004
0008
0000
FFF7
FFFA
FFF8
0005
0002
FFFD
FFF9
FFF8
FFFF
0005
FFF6
0005
0006
FFFC
FFF6
FFF4
FFF8
0005
0002
FFFB
FFF8
FFFB
0003
0009
FFF8
FFEF
FFEE
FFE9
FFEC
FFEE
FFEC
FFED
FFF3
FFF7
FFFE
0004
0006
FFFF
0001
0000
FFFC
0000
FFFD
FFFD
FFFE
FFFA
FFF9
FFFD
0003
FFFF
FFFF
0000
0000
FFFF
0004
0003
0005
0004
0000
FFFC
FFF0
FFF3
FFF5
0000
FFFF
FFFE
FFFD
0004
0008
0006
0007
000B
000B
0004
FFFF
FFFC
FFF0
FFF3
FFFF
FFFF
0005
0006
0005
0007
0004
0005
0003
0006
0001
0000
FFF4
FFED
FFF6
FFFF
0000
0004
0008
0007
0006
0009
0004
0004
0000
FFFC
FFFA
FFF4
FFF3
0002
FFFC
FFFE
0005
0004
FFFF
0000
FFFE
0001
FFFF
FFF8
FFFA
FFF4
FFF9
FFFC
FFF6
FFF2
FFF1
FFF1
FFEF
FFEF
FFEB
FFF4
FFF8
FFFB
FFFA
FFFA
000B
FFFC
FFFB
FFEC
FFEA
FFF5
FFFB
FFF6
FFF6
FFFA
FFFA
FFFE
FFFC
0005
000B
FFFA
0005
FFFF
FFF8
FFFC
0006
0003
0006
0001
FFFE
0000
0000
000A
0014
FFFC
000A
0005
0003
FFFF
0006
000B
0005
0008
0005
0007
0009
000D
0012
FFFB
0004
0006
0004
0004
0008
0003
0002
0007
0006
0005
0008
000B
0007
FFFF
0001
0004
0007
0007
0006
0000
FFFF
FFFD
0007
000B
0006
0007
0008
0001
FFFC
0000
0002
FFFF
FFFD
FFFE
FFFE
FFFE
0002
0001
0003
0004
0000
FFFF
FFFD
FFF4
FFF1
FFE9
FFEF
FFF3
FFF6
FFF3
FFF3
FFF1
FFF5
FFF8
0000
0000
FFFB
FFFF
FFF8
FFFB
FFF9
FFFB
0002
FFFF
FFF9
FFF5
FFF5
FFFB
FFFE
FFFD
FFFA
0000
0004
0007
0009
0004
0006
0002
0000
FFF9
FFF8
FFF0
FFFE
FFFB
FFFE
0003
0003
0004
0003
0009
0005
0007
0001
FFFF
FFFA
FFF3
FFF8
0003
0000
0001
0005
0006
0002
0000
FFFE
FFFE
FFFF
FFFF
FFFF
FFEF
FFF1
0000
FFFF
0007
FFFC
FFFD
0000
FFFB
FFFB
FFFF
FFFF
0001
FFFE
FFF4
FFF1
FFF9
FFFF
FFF7
FFF1
FFF2
FFF0
FFEA
FFF1
FFF4
FFFB
FFFF
FFF6
FFF4
0003
FFF9
FFF6
FFE9
FFEE
FFF4
FFF4
FFF8
FFF7
FFF8
FFFA
FFFC
FFF5
0000
000C
FFFA
0002
0001
0004
0005
000B
000A
0008
0005
FFFC
FFFD
0002
0007
0013
FFF7
0007
000C
0009
0005
0006
000C
000A
0004
0005
0002
0007
000D
0016
FFF6
0005
000B
000A
0007
0006
0003
0002
0002
0006
0009
0006
000F
0010
FFF7
0005
0005
0005
0008
0005
FFF9
FFFD
FFFE
000B
000B
0009
000C
0007
FFFC
FFFA
FFFC
FFFC
0002
FFFC
FFFB
FFF6
FFFD
0003
0008
000A
0005
0001
FFFF
FFFA
FFF0
FFEC
FFEA
FFED
FFF2
FFF5
FFF7
FFF4
FFF8
FFF7
FFFB
FFFE
FFFF
FFFC
FFF6
FFE8
FFE7
FFEF
FFF2
FFEA
FFE9
FFEE
FFF2
FFFA
0000
FFFE
FFFF
FFFD
FFFC
FFFF
FFFF
FFFE
FFFF
0001
FFFF
0000
FFFC
FFFF
0001
0001
FFFF
0001
FFFF
FFFD
0001
FFFE
FFFF
0002
0004
FFFD
0001
FFFD
0002
FFFD
FFFE
0001
0002
FFFE
FFFC
FFFD
FFFB
FFFF
FFFD
0002
0004
0002
FFFF
FFFC
FFFE
0000
0001
0000
FFFE
FFFD
0005
0005
0003
0001
0001
FFFC
FFFB
FFFF
0000
FFFD
FFFD
0004
0008
0006
0004
0004
0005
FFFF
FFFC
FFFE
FFFD
FFFE
FFFE
FFFD
0002
0006
0008
000C
000B
0000
FFF4
FFF1
FFF1
FFF8
0002
0001
FFFD
0001
0002
000E
0015
0012
0014
000B
FFF8
FFEB
FFF2
FFFB
0001
0001
FFFF
FFFF
0002
0009
0007
0006
0004
0009
0002
FFF6
0000
0002
0003
0004
0002
FFFF
FFFE
FFF7
FFF6
FFF5
FFF2
FFF6
FFF7
FFFF
0006
0007
0007
0002
FFFF
0000
FFFA
FFF5
FFF5
FFF4
FFF3
FFFF
0006
000F
0010
000C
0007
0000
FFFF
FFFF
FFFB
FFF8
FFF3
FFF6
FFFD
000A
000B
000B
0009
0007
0000
FFFD
0000
FFFF
FFFE
FFFA
FFF8
FFF9
FFFE
0001
0001
0001
0002
0001
FFFE
FFFF
FFFD
FFFE
0001
0001
FFFF
0001
0002
FFFE
0001
0002
0002
0003
0001
0002
FFFC
0001
0001
0002
FFFD
FFFD
0003
FFFF
FFFE
FFFF
FFFD
0000
0000
0000
0002
0001
FFFD
FFFF
0001
0001
0000
0002
FFFF
0002
FFFD
0000
FFFD
FFFC
0001
FFFD
FFFD
FFFE
FFFF
FFFE
0000
0003
0000
FFFD
FFFC
FFFD
0001
0002
0000
FFFF
FFFE
0003
0001
0001
0002
0005
0000
0000
FFFD
0000
FFFB
0000
FFFC
FFFE
FFFF
0001
0001
0000
0005
FFFF
FFFE
FFFE
FFFF
FFFE
FFF9
FFFD
0001
FFFE
0001
FFFF
0001
0001
FFFB
FFFD
0002
0000
0002
0001
FFFA
FFFF
FFFC
FFFE
FFFE
FFFA
FFFC
FFFA
FFF1
FFF6
0000
0001
0005
FFFD
FFFF
0000
FFFE
0001
FFFC
FFF7
FFF7
FFF3
FFF5
FFFA
FFFE
0001
0002
FFFD
FFFF
0004
0000
0001
FFFD
FFF8
FFFC
FFFB
0001
0002
FFFF
FFFF
FFFB
FFFC
0005
0005
FFFC
FFFF
0006
0001
0000
0005
0005
0002
0001
FFFE
FFFB
FFFD
0009
0003
0000
0003
0005
0008
0002
0009
0003
0004
FFFE
FFFD
0000
0002
0006
0001
0003
0002
0005
0004
0004
0006
FFFE
FFFD
FFFD
0002
0000
0003
0000
0000
FFFD
0000
0002
0002
0004
0003
FFFF
FFFC
FFFF
0004
0003
0002
0001
0002
FFFE
FFFF
0001
FFFF
FFFE
FFFE
FFF9
FFFF
FFFE
0002
FFFD
FFFE
0000
FFFD
FFFF
FFFF
FFFC
FFFC
0000
FFFC
FFFF
FFFD
FFFE
0000
FFFE
FFFD
0001
0001
FFFF
FFFF
0002
0002
FFFD
FFFD
0003
0000
FFFC
FFFC
0001
FFFC
0002
0002
FFFF
0001
FFFE
FFFE
0005
0004
0003
0002
0000
FFFF
FFFA
FFFB
FFFD
FFFF
0001
FFFF
0003
0003
0007
0006
0003
0004
0006
0003
0000
FFFB
FFFC
FFFF
0002
FFFF
0000
0003
0001
0002
0004
0001
FFFE
FFFF
FFFC
FFFF
FFFC
FFFD
FFFD
0002
0000
FFFE
FFFF
FFFD
FFFF
FFFC
0001
0001
FFFE
FFFC
FFF8
FFFD
FFFD
FFFE
FFFD
FFF4
FFF9
FFF8
FFF7
FFFA
FFFD
0002
FFFE
FFFC
FFFA
FFFD
0001
FFFD
FFF8
FFF6
FFF6
FFF3
FFFA
FFFA
FFFD
FFFD
0001
FFFB
FFFC
0004
0001
FFFD
FFFF
FFFB
FFFB
0002
0005
0002
FFFC
0001
FFFD
FFFC
0002
0003
0001
0003
0007
0005
FFFF
0005
0005
0005
FFFF
0001
FFFD
0001
0005
0004
0002
0001
0003
0008
0008
0007
0005
0005
0001
FFFF
0003
0009
0007
0006
FFFE
0004
0007
0003
0005
0007
0002
FFFB
0001
0002
0004
0005
0006
0002
0002
FFFE
0005
0003
0002
0002
FFFB
FFFB
FFFD
0001
0003
0006
0003
0002
0001
FFFF
FFFE
FFFA
FFFC
FFFA
FFFB
FFF8
FFFA
0000
FFFC
FFFF
0003
FFFF
FFFE
0000
FFFD
FFFB
FFFF
FFFE
FFFB
FFFC
FFFB
FFFE
0000
FFFE
FFFF
FFFE
FFFE
0002
FFFF
FFFE
0001
0000
FFFD
0001
FFFF
FFFF
FFFE
FFFF
0003
FFFD
0002
FFFD
0002
0003
0000
0006
0003
0002
0001
FFFF
FFFA
FFFF
FFFB
FFFF
0000
FFFD
FFFD
FFFF
FFFD
FFFB
FFFB
FFFE
FFFB
FFFB
FFFC
0001
FFFD
0000
0000
0002
0003
0001
FFFC
FFF9
FFFF
FFFF
FFFC
FFFD
0000
0000
FFFB
0000
0001
FFFF
FFFE
FFFC
FFFA
FFF6
FFF6
FFFC
0001
0001
0005
0004
FFFE
FFFD
0002
FFFD
FFFA
FFF7
FFEE
FFF2
FFF5
FFF7
FFFC
FFFF
0006
0005
FFFD
0004
0002
0002
0002
FFFE
FFF5
FFF5
FFFC
FFFB
0000
FFFF
0000
0001
FFFB
0002
FFFF
0002
0004
0001
FFFA
FFFA
0001
0009
0001
0000
FFFE
FFFE
FFFC
0008
FFFD
0003
0002
0005
0002
FFFF
0003
0000
FFFE
0002
FFFC
FFFE
0000
000B
FFFF
0000
0001
0005
0004
0001
FFFE
0002
0000
0000
FFFF
0001
0005
0004
0002
0003
0000
0000
0004
0002
0001
FFFD
FFFC
FFFC
0004
FFFF
0006
0000
0000
FFFF
0001
0002
0000
0004
FFFD
FFFA
FFFA
FFFC
FFFF
0005
0004
0000
0002
0001
0000
0000
0000
FFFC
FFF9
FFFD
FFFC
0000
FFFD
FFFE
0002
0000
0002
0000
FFFD
0000
FFFF
FFFC
FFFF
FFFE
FFFF
FFFB
FFFB
FFFF
FFFD
0002
0001
0000
0000
FFFE
FFF9
FFF8
FFFE
FFFC
FFFE
FFF6
FFF5
FFFC
0002
FFFE
0002
FFFC
0003
0005
0004
0008
0004
0003
FFFF
FFFC
FFF7
FFF5
FFF9
0000
FFFD
0002
0004
0003
0006
0004
0006
0007
0008
0001
FFFD
FFFB
FFED
FFFE
0001
0002
0002
0006
0007
0002
0006
0007
0006
0001
0003
FFFD
FFEC
FFF6
FFFB
0003
0006
0000
0002
0001
FFFE
0003
0004
0004
FFFE
FFFF
FFF0
FFF3
FFFE
FFFF
FFFD
FFF4
FFF7
FFF8
FFF4
FFF5
FFFE
0000
0001
FFFA
FFF7
FFFA
FFFE
FFF7
FFEF
FFF1
FFF0
FFF2
FFF4
FFF4
FFFC
0000
FFFB
FFF8
FFFA
000D
FFFB
FFFC
FFF8
FFF3
FFF7
FFFB
0003
FFFF
FFFC
FFFE
FFFA
FFFB
0003
000D
FFFB
0002
0008
0006
0004
0003
0007
0006
0001
0000
FFFE
0002
000D
0011
FFFB
0008
0009
0005
0005
0007
000A
0006
0001
0000
0002
0007
000B
000F
FFF8
0004
0006
0006
0009
0006
0004
FFFE
0000
0005
0006
0007
000E
000D
0000
0006
0002
0007
0006
0004
FFFC
FFFA
0000
0007
0008
0006
0009
0009
0001
FFFC
FFF8
FFF5
FFF9
FFF9
FFFD
FFF9
FFF9
FFFC
FFFD
0000
FFFF
0006
0002
FFF7
FFF4
FFEF
FFED
FFF0
FFF6
FFF4
FFF8
FFF0
FFF4
FFF4
FFFE
FFFF
FFFF
0000
0000
FFFD
FFFC
FFF6
FFFA
0001
FFFB
FFFE
FFF8
0004
0005
0003
FFFF
FFFD
FFF9
0001
0007
000A
000A
0006
FFFC
FFF2
FFF2
FFF3
FFF8
FFFE
FFFE
FFFC
0000
0008
0011
000D
000B
0008
000A
0001
FFFA
FFEE
FFED
FFFB
FFFD
0004
0006
0009
000A
000A
0007
0005
0004
FFFE
FFF7
FFEF
FFEB
FFF5
FFFC
0004
0009
0009
000C
0009
0008
0008
0002
FFF7
FFF8
FFF5
FFF2
FFEA
FFFF
0002
0007
0006
0006
0007
FFFC
FFFE
FFFB
FFF8
FFF5
FFF6
FFF7
FFF7
FFFB
FFFA
FFF2
FFF0
FFF4
FFF3
FFED
FFEF
FFEF
FFF5
FFFC
0000
0005
000D
FFFA
FFF3
FFE8
FFF2
FFFB
FFFB
FFFC
FFF7
FFF5
FFFC
FFFB
0002
000C
000E
FFFD
0003
FFF9
FFF9
FFFE
0005
0005
0005
0003
0000
0002
000A
0013
0016
FFF4
0006
0006
0002
0003
0004
000A
0006
000B
0007
000D
0010
0011
0012
FFF8
0006
0007
0006
0008
0003
0007
0004
0009
0007
000A
000A
000C
000D
FFF9
0002
0004
0008
0006
0005
FFFE
FFFD
0001
0006
0009
0008
0008
0004
FFFE
FFF8
FFF8
FFF6
FFFC
FFF9
FFFC
FFF8
FFF9
FFFF
FFFD
0001
0002
0004
0000
FFFA
FFED
FFEB
FFEC
FFED
FFF2
FFF6
FFF2
FFF0
FFF0
FFF0
FFF7
0001
FFFF
FFFE
FFFB
FFFC
FFFA
0001
FFFC
FFFA
FFFC
FFFC
FFFA
FFFE
FFFD
FFFE
FFFC
FFFE
0008
0000
FFFD
0003
FFFB
0002
FFF9
FFF9
FFF5
FFF9
FFFE
FFFF
0001
0008
0007
000A
0007
0007
0007
0006
0000
FFFA
FFF7
FFF2
FFED
FFFF
0000
000F
0008
0005
0007
0005
0008
0007
FFFF
FFFE
FFF8
FFED
FFF0
FFF6
0003
000C
000C
0006
0009
0002
0008
0007
0003
FFFF
FFFE
FFFC
FFEE
FFF6
0001
000F
000E
0003
FFFB
FFF1
FFF6
0002
0007
0005
0006
0000
FFF1
FFF5
0001
0003
FFFA
FFF6
FFF3
FFF6
0002
000A
0006
0007
0001
FFF5
FFF0
FFFC
0002
0001
FFF6
FFF1
FFFC
0005
0008
0006
0007
0001
FFFB
FFF5
FFF1
FFF9
0006
000C
0002
FFF9
FFF6
FFFF
0002
0006
FFFF
0001
0002
FFFF
FFFA
FFF2
000B
0013
000B
0001
FFF9
FFF3
FFF7
FFF7
FFFF
0002
0001
0001
FFFB
FFF2
0004
0011
000E
000C
FFFD
FFFB
FFF5
FFFB
0003
0009
0007
0002
FFF6
FFF6
0003
000F
0007
0007
0005
0001
FFFD
0001
0005
0006
0001
FFF8
FFF6
FFFB
0003
0008
0008
0007
0006
0007
0003
FFFF
0003
0003
FFF8
FFF8
FFF6
FFF9
FFFE
FFFE
0004
0008
0009
000E
000B
0006
FFFE
FFFF
FFFD
FFFA
FFFA
0000
FFFC
FFFA
FFFC
FFFB
FFFB
FFFE
FFFC
FFFB
FFF7
FFF8
FFF7
FFF5
FFFD
FFFA
0000
0001
000A
0004
0005
0005
0006
0008
0000
FFFE
FFF8
FFF6
FFF2
FFFD
FFFA
0009
000C
0008
0006
0003
0005
0005
0002
0000
FFFB
FFF1
FFF2
FFF4
0003
000B
000F
000A
0009
0005
0001
0002
0001
FFFF
FFFF
FFFC
FFEE
FFF0
0000
0010
000E
0003
FFF6
FFEF
FFFA
000C
000E
0009
0002
FFFD
FFF1
FFED
FFFE
0006
FFFF
FFF7
FFF0
FFF6
0006
000A
0008
0006
FFFE
FFF2
FFEE
FFF5
0002
0001
FFF7
FFF2
FFFD
0005
000B
0006
0007
0004
FFFB
FFF7
FFF4
FFF4
0007
0008
0000
FFF7
FFF6
FFF7
FFFC
FFFD
0000
0002
0004
0004
FFFD
FFF4
0007
0011
000E
FFFE
FFF7
FFF4
FFF5
FFF7
0003
0007
0005
0006
FFFD
FFED
0009
000F
000B
000B
0002
FFFA
FFF4
0003
0007
0008
0003
FFFC
FFF4
FFEF
0008
000D
000D
000B
0004
0002
0002
0002
0003
0003
FFFC
FFF5
FFF0
FFF7
0006
000C
000B
0005
0008
0002
0001
0003
FFFD
0001
FFFA
FFF0
FFF2
FFFB
0000
0008
0008
000B
000F
000C
000E
000E
0001
FFFE
FFF8
FFF5
FFF9
FFFB
FFFF
FFFF
FFFD
FFFF
FFFE
0005
FFFA
FFFC
FFFA
FFFF
FFFC
FFFD
FFFF
FFFD
FFFC
0001
0000
FFFF
FFFB
FFFD
FFFC
FFFA
FFFD
FFFD
FFFB
FFFB
FFFB
0001
FFFF
0000
FFFB
FFFE
0000
FFFD
0001
FFFD
0001
FFFD
FFFE
FFFA
FFFD
0000
FFFC
0000
FFFB
FFFF
FFF9
FFFF
0000
FFFF
0002
FFFF
FFFD
FFFD
FFFB
0000
FFFE
FFFC
FFFC
FFFF
0005
0008
0009
0005
0000
FFF9
FFFE
FFFC
FFFC
FFFE
FFFC
FFFC
0000
0001
0005
000C
0004
FFF5
FFF4
FFEF
FFF2
FFFC
FFFE
FFFB
FFFC
0000
0000
0000
000C
0018
000A
FFFA
FFF7
FFFA
FFF9
FFF9
0000
FFFC
FFFD
FFFD
0003
0006
000D
0007
0002
FFFC
0003
000B
0008
0005
FFFF
FFFC
FFFE
FFFE
0000
0008
0009
0006
0000
0007
0007
000C
000C
0004
FFFC
FFFC
FFFB
FFFB
FFFE
0006
0011
0010
000F
0010
000C
FFFF
0000
0000
FFFF
0000
FFFC
FFFE
FFFE
0008
000D
0011
0016
000E
FFFB
FFFA
FFFB
FFFB
FFFB
FFFA
FFFD
FFFA
FFFA
FFFD
0000
0005
0007
0000
FFF8
FFF7
FFFB
FFFB
FFFD
FFFB
FFFD
FFFD
FFFE
FFFC
0000
0002
0004
0004
0002
FFFF
FFFD
FFFD
0000
0000
FFFF
FFFC
FFFF
FFFA
0000
FFFA
FFFC
0000
FFFD
0000
0001
0001
0001
FFFD
FFFF
0001
0000
FFFD
FFFB
FFFF
FFFF
FFFF
0000
FFFC
FFFB
FFFF
FFFB
FFFE
FFFE
FFFC
FFFF
FFFC
FFFD
FFFF
FFFF
FFFF
FFFB
FFFF
0001
FFFD
FFFF
FFFB
0000
0000
FFFC
0001
FFFD
FFFD
FFFE
FFFF
FFFF
0001
FFFB
FFFB
FFFF
0000
FFFE
FFFF
0002
0003
0001
0002
FFFE
FFFF
FFFE
FFFC
FFFB
FFFE
FFF9
FFFE
0000
FFFD
0003
0002
0000
0001
FFFF
0002
FFFE
FFFD
FFFD
FFFF
FFF9
FFFF
FFFF
0003
0003
0002
FFFF
FFF9
FFFB
0001
0009
0005
0004
FFFD
FFF7
FFFF
FFFD
0002
0004
FFFB
FFF7
FFF6
FFFB
000A
0005
0004
0000
FFFB
FFFC
FFFF
0001
FFFE
FFFE
FFF9
FFF6
FFFD
0004
000A
0000
0000
FFFC
FFF6
FFFE
0000
FFFE
FFFD
FFFB
FFFA
FFFC
FFFF
0004
FFFF
FFF9
FFFC
FFFB
FFFB
FFFF
FFFB
FFFF
FFFE
0001
FFFE
FFFA
FFF7
FFFA
FFFA
FFFE
0003
0000
0001
FFFC
FFFD
0001
0000
0005
FFFE
FFF7
FFF2
FFF6
FFFB
0002
0007
0003
FFFE
FFFC
FFFD
FFFE
0002
0004
0004
FFFB
FFF8
FFFA
FFFE
0005
0004
0003
FFFB
FFFD
FFFD
FFFE
0001
0000
0006
0002
FFFF
FFFD
0001
0001
0002
FFFE
FFFA
0000
FFFC
0001
0000
0004
0005
0004
0000
0004
FFFD
FFFD
0002
FFFB
FFFA
FFFE
FFFE
FFFF
FFFC
0002
0000
0002
0003
0004
FFFD
FFFE
0001
FFFC
FFFB
FFFD
0000
FFFC
FFFF
0000
FFFC
FFFC
FFFF
FFFF
FFFC
0001
0000
FFFC
0000
FFFE
FFFB
FFFD
FFFB
0001
FFFD
0001
0002
0003
0001
0001
0000
FFFF
FFFA
FFFB
FFFB
FFFC
0002
0000
0004
0000
0003
0002
0002
0001
FFFE
FFFF
FFFB
FFFD
FFFF
FFFE
0004
0008
0003
0005
0002
0003
0001
0005
FFFF
FFFD
FFFA
FFF6
0000
FFFF
0002
0006
0000
FFFC
FFF9
FFFB
0005
0008
0003
0003
FFFD
FFFC
FFFA
FFFF
0004
FFFF
FFF7
FFF7
FFF4
0000
0006
0003
0004
FFFD
FFF8
FFF9
0000
FFFB
FFFE
FFF8
FFF7
FFF7
FFFE
0009
0004
0005
0002
FFFB
FFF7
FFFE
0000
FFFE
FFFF
FFFB
FFF7
FFF6
0000
0000
0001
0001
0000
0001
FFFC
FFFE
0000
FFFE
0004
0002
FFFB
FFF5
FFF6
FFF8
FFFC
FFFE
0005
0005
FFFF
FFFC
FFFD
FFFE
0009
0005
0002
FFFC
FFF8
FFF8
FFFD
0000
0005
0000
0000
FFFB
0000
FFFE
0004
0009
0008
0004
FFFF
FFFB
0002
0005
0007
0004
FFFB
FFFC
0001
0000
0003
0005
0006
0001
0005
0003
0001
0000
FFFE
FFFF
FFFC
FFFC
FFFF
0000
0001
0004
0006
0007
0006
0002
0003
FFFF
FFFF
FFFE
FFFE
FFFC
FFFB
FFFB
0000
FFFE
FFFF
0001
0002
0000
FFFF
FFFD
FFFB
0001
0001
FFFD
FFFE
FFFE
FFFF
FFFD
FFFC
0000
0000
FFFF
FFFB
FFFC
FFFB
FFFF
FFFC
FFFD
FFFC
FFFF
0001
FFFF
0000
0002
FFFE
FFFE
FFFD
FFFD
FFFF
FFFE
FFFB
FFFB
FFFB
0001
FFFD
0003
0005
0002
0004
FFFF
0000
0002
FFFE
FFFC
FFFC
FFFB
FFFB
FFFD
0005
0001
0004
FFFA
FFFC
FFF6
FFF8
FFFE
0000
0002
FFFE
FFF6
FFFF
FFFC
0002
0001
FFFE
FFFA
FFF4
FFF3
FFFB
0008
0002
0004
0000
FFFB
FFFB
FFFD
FFFD
FFFF
FFFC
0000
FFF8
FFF0
FFFB
0002
FFFE
FFFF
FFFC
FFFB
FFFB
FFFE
FFFF
FFFE
0002
FFFE
FFFC
FFF2
FFFB
0000
FFFF
FFFE
FFFA
FFFB
0000
FFFD
FFFE
0000
0000
FFFE
FFF5
FFF7
0001
FFFB
FFFE
0000
FFFF
FFFA
FFFE
0001
0004
0004
FFFF
FFF9
FFF2
FFF3
FFF7
FFF7
0002
0004
0000
FFFF
FFFD
FFFE
0004
0001
FFFF
FFFE
FFF9
FFF9
FFF7
FFFA
0006
0001
0005
0000
FFFF
FFFF
0002
0003
0001
FFFE
FFFE
FFFA
FFF7
FFFB
0004
0005
0004
FFFA
0000
0001
FFFD
0001
0004
0001
FFFC
FFFC
FFFC
0001
0002
0003
FFFC
FFFF
0001
FFFE
0000
FFFD
0005
0005
FFFF
0002
0002
0001
0001
0000
FFFE
FFFD
0001
FFFB
0000
0001
FFFF
0002
FFFE
0005
0000
0001
0001
FFFC
0001
0001
0000
0001
0000
FFFA
FFFB
FFFA
FFFC
FFFE
FFFC
FFF7
FFF7
FFFB
FFFA
0001
FFFB
FFFC
0000
000A
0004
0005
0004
0008
0003
0004
FFFF
FFFC
FFF2
FFF9
0000
0001
0008
000E
0007
0005
0002
0006
0002
0003
0000
FFFC
FFEE
FFF3
FFFB
FFFD
0009
0009
0007
0007
0003
0006
0005
0004
0001
0001
FFF9
FFEF
FFF4
0000
000D
000A
0005
FFFE
FFF7
FFFD
0006
0008
0002
0003
FFFC
FFEB
FFEF
FFFE
000E
0003
FFF8
FFF2
FFF3
FFFC
0006
000B
0005
0002
FFFC
FFF1
FFF5
FFFF
0003
FFFA
FFF2
FFF6
FFFE
0009
0008
0004
0000
FFFA
FFF4
FFF3
FFF8
0006
0006
FFFB
FFF3
FFF7
FFFE
0006
0005
FFFF
0004
FFFB
FFF8
FFFA
FFF6
0007
000E
0002
FFF7
FFF8
FFF4
FFFB
FFFB
0002
0006
0005
0002
FFFC
FFF3
0008
000C
000B
0000
FFF6
FFF7
FFF3
FFF9
0007
0004
0004
FFFF
FFF7
FFF1
0006
000A
000E
0006
0003
FFFA
FFF8
FFFD
0003
0005
0003
0000
FFF4
FFF8
0007
000B
0007
0004
0003
0005
0001
0003
0001
0001
0000
FFF8
FFF0
FFFB
0005
0006
000B
0008
0005
0005
0002
0004
0002
FFFE
FFF9
FFF3
FFF8
FFFF
0000
0003
0004
0005
0007
0009
0005
0004
FFFD
FFFF
FFFF
FFFC
FFFF
FFFE
FFF9
FFFD
FFFC
FFFC
FFFB
FFFC
FFF9
FFFA
FFFA
FFFD
FFF9
FFFA
FFF8
FFFE
FFFB
FFF7
FFFA
0000
FFFD
0006
0007
0005
FFFD
FFFA
FFF7
FFF5
FFFA
FFF8
FFFE
0008
000A
000B
0009
000B
0008
0005
FFFF
FFF8
FFF0
FFEA
FFED
FFF6
0001
000C
000C
0007
000B
0008
000A
0004
0002
FFFA
FFF6
FFED
FFEE
FFF0
0003
0010
0011
000F
0009
000C
0008
0004
0003
FFFF
FFFF
FFFB
FFEF
FFED
FFFD
0009
000B
0004
FFFB
FFF5
FFFA
0004
000C
000A
000C
0003
FFF1
FFF2
FFFF
0000
FFFA
FFF2
FFF1
FFF8
000B
000C
0009
0007
0001
FFF3
FFEF
FFFB
0004
0002
FFF5
FFF9
0000
0009
0006
000B
000B
0007
FFF5
FFF3
FFF2
FFF6
000A
000B
0000
FFF8
FFFC
0003
0009
0007
0005
0006
0004
FFF9
FFF9
FFEF
000C
000D
000B
0001
FFF6
FFF0
FFF7
FFFE
FFFF
0007
0001
0002
FFF8
FFF0
000B
000F
0011
000F
0006
FFF9
FFF9
FFFD
0007
0004
0001
0001
FFF3
FFF0
0005
0009
0009
0006
0007
0006
0002
0004
0002
0002
FFFF
FFF3
FFF0
FFF9
0002
000E
000D
000C
0008
0005
0004
0003
FFFF
FFFF
FFFB
FFF4
FFF7
FFFD
FFFD
FFFF
0006
0005
0007
000B
0008
0002
0003
0002
FFFF
FFFB
FFF2
FFFB
0004
0001
FFFE
FFF8
FFF3
FFEE
FFF6
FFF9
FFF6
FFFD
FFF9
0001
0004
0000
0000
0003
FFFF
FFF4
FFED
FFE9
FFED
FFF6
FFFD
FFFB
FFF9
FFFE
FFF9
FFFE
0003
FFFF
0000
FFFE
FFFA
FFF7
FFF9
FFFC
0001
0001
0002
0008
0004
0000
0003
0002
0002
0000
FFFD
FFFB
FFF6
FFF4
FFF3
FFF2
FFFE
0009
000F
0004
FFFD
FFFD
FFFF
FFFA
FFF7
FFF8
FFEC
FFF0
FFEF
FFED
FFFC
0002
0003
FFFD
FFF8
FFF1
FFF6
FFFA
FFFC
FFFC
FFF6
FFF1
FFF3
FFF7
FFFA
FFFA
FFF7
FFF4
FFF8
FFF6
FFF8
0003
000B
000B
FFFF
FFF5
FFFC
0001
FFFA
FFFC
FFF6
FFF4
FFFC
FFFC
0007
0009
000B
000B
0006
FFFF
0005
0008
0007
0002
FFFC
FFFD
0003
FFF8
0007
0007
000B
0005
0008
000B
000E
000D
0006
0005
FFFA
FFF6
FFFD
FFF2
FFFC
0002
0004
FFFF
0007
000E
000B
0001
FFFA
FFF6
FFF4
FFF5
FFFD
FFF0
FFEE
FFEF
FFF3
FFEF
FFF7
FFFE
FFF9
FFF5
FFF9
FFF3
FFEF
FFFB
0004
FFF6
FFF4
FFF2
FFF7
FFF4
FFFB
FFF7
FFF8
0000
0001
FFFF
FFF8
FFFB
0001
FFFB
FFF1
FFF7
FFFC
FFFC
0001
FFFF
0004
0008
0007
0002
FFFD
0002
0004
0001
FFFB
FFF4
FFF5
FFF6
FFED
FFF0
FFEE
FFEF
FFF4
FFF5
FFFD
0000
FFFF
0001
FFFA
FFF5
FFF2
FFEA
FFEB
FFEF
FFF1
FFF4
FFEF
FFF1
FFFC
FFFF
0000
0002
FFFD
FFF6
FFF0
FFEC
FFF1
FFF7
FFFA
FFF7
FFFE
0000
FFFF
FFFF
FFFD
FFFE
0004
0003
0002
FFFD
FFFB
FFF9
FFFA
0002
0006
000B
000D
0004
FFFA
FFFC
FFFE
FFFD
FFFA
FFF9
FFF4
FFEE
FFEF
FFFA
FFFB
0005
0005
0001
FFFB
FFF5
FFF7
FFF8
FFFC
FFFE
FFF9
FFEC
FFF7
0001
FFFC
FFF6
FFF6
FFF4
FFF4
FFF3
FFF2
0001
000C
000F
FFFE
FFEF
0005
0007
FFF9
FFF5
FFEE
FFF4
FFFA
FFF5
FFFF
000B
000E
0013
0007
FFFF
0009
0007
0002
0000
FFF9
FFF8
FFFB
FFFA
0007
000F
000E
0009
0009
0009
000E
000F
000A
FFFF
FFFA
FFF4
FFFD
FFF3
FFF6
FFFE
FFFC
FFFD
0007
000B
0004
FFFA
FFFB
FFF9
FFF5
FFF1
FFFB
FFEE
FFEE
FFEF
FFF1
FFF6
FFF6
FFFD
FFF9
FFF4
FFF5
FFF3
FFF5
FFF5
FFFE
FFEE
FFEE
FFEB
FFF1
FFF7
FFFB
FFF7
FFFA
FFFA
FFFF
FFFE
FFFB
FFFC
FFFF
FFF3
FFEB
FFF2
FFFD
FFFC
FFFB
FFF7
FFFF
0003
0008
0004
FFFF
0000
0000
FFF8
FFF6
FFF6
FFFC
FFF6
FFEF
FFEE
FFF1
FFF3
FFF1
FFF5
0000
0005
0000
FFFA
FFF9
FFF2
FFEF
FFE1
FFE1
FFDF
FFE5
FFE7
FFEA
FFF5
FFFE
FFFE
0002
0003
0001
0003
0003
FFFD
FFFE
0001
FFFD
0001
0001
FFFF
FFFF
FFFE
0001
FFFE
0002
0003
0003
0004
0001
0002
0001
0003
0003
0003
0002
FFFF
FFFF
FFFF
0004
0002
0007
0006
000A
0007
0000
0002
0004
0003
0003
0001
0004
FFFE
0001
0003
0003
0006
0001
FFFE
FFF0
FFF0
FFF8
FFFD
0001
0001
FFFF
0002
0002
0000
0001
FFF5
FFFB
FFFD
FFEF
FFE8
FFF6
FFFC
FFFA
FFFE
FFFF
0002
0004
FFFF
FFFA
FFEC
FFFC
FFFF
FFE4
FFEB
FFFD
FFFF
0004
0003
FFFF
FFFF
0001
FFF8
FFEA
FFE7
0002
FFFE
FFE6
FFFA
0004
0008
0004
FFFF
0000
0002
FFFB
FFF1
FFEC
FFEA
FFFB
FFF4
FFE8
FFFB
0006
0002
0001
0000
0001
0003
FFFF
FFF6
FFF6
FFFD
FFFC
FFF0
FFE9
FFFA
0005
0005
FFFE
0002
0003
0002
0003
0000
0003
0001
FFF5
FFEB
FFF7
0001
0001
0001
FFFF
0004
0001
FFFF
0001
0008
0004
0001
FFF7
FFF7
FFFE
0004
0007
0002
0002
FFFE
FFFF
0002
0000
0008
0007
0000
FFFC
FFFC
FFFE
0003
0004
0000
FFFE
0001
FFFE
FFFE
0003
0000
FFFF
0002
0001
0004
0001
FFFD
0002
0003
0003
FFFE
0001
0000
0003
0002
0001
0001
0005
0002
0001
FFFF
0002
0003
0000
FFFF
0000
0003
FFFF
0000
0001
0003
FFFD
0003
0001
0002
FFFD
0000
FFFF
0000
FFFE
0001
0003
0003
0001
FFFF
FFFD
FFFF
FFFF
FFFE
0002
FFFF
FFFE
0003
FFFF
FFFF
0003
FFFF
0002
0000
0000
FFFF
0001
0001
0003
0004
0005
0000
0004
FFFF
0003
0002
0004
0003
FFFE
FFF7
FFFE
0007
0006
0009
0004
0003
FFFF
0000
0002
0000
FFFE
0003
FFFC
FFF6
0000
0006
0003
0000
0001
0000
0003
0000
FFFF
0000
0004
000C
0002
FFF7
0007
0007
0001
0000
FFFC
FFFF
0001
0002
0001
0005
000C
000C
0005
FFF9
0009
0008
0003
FFFE
0002
0002
0001
0001
FFFE
0008
0008
0009
0001
0003
000C
0005
0002
0001
FFFC
FFFD
0003
FFFD
0003
0006
0004
0000
FFFE
000A
000B
0000
FFFD
0000
FFFE
0003
0003
0001
0000
FFFD
FFF9
FFF7
0003
0005
0005
FFFA
FFFE
FFFD
0001
0002
0000
0000
FFFC
FFFB
FFF8
FFFB
FFFC
0000
FFFF
FFFE
FFFC
FFFF
FFFF
FFFE
0003
FFFE
FFFC
FFFB
FFF9
0000
FFFE
0000
FFFE
0001
0001
0002
FFFE
0001
0002
0001
0003
FFFC
FFFE
0001
0000
0000
0003
0003
0002
FFFF
FFFE
FFFE
0001
0002
FFFD
FFFD
0001
FFFC
FFF9
FFFE
FFF9
FFFC
0002
0000
0001
0003
FFFE
0001
0000
0000
FFFE
0001
FFFE
0000
0000
0003
FFFF
0000
0001
0002
0002
FFFF
0000
FFFD
FFFC
FFFA
FFF6
FFFB
FFFB
FFFA
0001
FFFE
0000
0003
0001
0001
0002
FFFE
FFFC
FFFD
FFF9
FFF9
FFFF
0000
0004
0004
0004
0000
0003
FFFF
0002
0000
FFFD
FFFF
FFF6
FFF6
FFF6
FFFD
0000
0008
0003
0003
0003
0000
FFFE
FFFC
FFFD
0001
FFF9
FFF3
FFFB
0005
0000
0000
0001
0000
0000
FFFC
FFFD
0001
0009
0007
FFFB
FFF8
0008
0007
FFFC
FFFC
FFFE
0000
0003
0001
0002
0007
0009
000C
FFFF
FFFF
0005
0009
0000
FFFE
0000
FFFF
FFFF
FFFD
0003
0009
0009
0008
0002
0009
000B
0007
0001
FFFD
0000
0001
FFFE
FFFE
FFFE
0005
0003
0001
0008
0007
0008
0005
0000
FFFA
FFFB
FFFD
FFFE
FFFB
FFFA
FFFA
FFF9
FFF8
0002
0007
0003
FFFD
FFFC
FFFD
FFFD
FFFD
0000
FFFB
FFFA
FFF5
FFF5
FFFA
FFFB
FFFD
FFFF
FFFB
FFFB
FFFC
FFFD
FFFF
0004
0001
FFF8
FFFB
FFFB
FFF9
0000
FFFC
0001
0006
0004
0000
FFFD
0002
0001
FFFF
FFFE
FFFE
FFFF
FFFF
FFFA
FFFA
FFFD
FFFD
0000
0000
FFFD
FFFE
FFFF
0003
0001
FFFC
FFFE
FFF9
FFF9
FFFB
FFF6
FFFB
0000
0000
0001
0001
0000
0001
FFFF
0002
0000
FFFD
FFFD
0001
0001
0002
0003
0002
0001
0003
FFFE
0000
FFFF
FFFD
FFFE
FFFF
FFFC
FFFB
FFFC
FFFE
0004
0004
0003
0001
0002
0002
FFFF
0000
0004
0006
FFFE
0001
0004
0007
0005
0003
0008
0002
0002
0003
0000
0001
0003
0007
0009
000A
0004
0009
0009
0000
0005
0001
0000
FFFF
FFFD
FFFD
0008
0006
0008
0007
0001
0009
0007
FFFD
FFFE
0000
FFFF
FFFF
FFFD
0001
0003
0006
0012
0006
0003
0010
0003
0001
FFFD
FFFB
0003
0003
0005
0008
0005
0007
0013
0002
0002
000F
0004
FFFE
FFFC
FFFE
0001
FFFE
0003
0001
0003
0006
000C
0000
0001
0008
0002
0002
0001
0001
0000
0002
FFFB
FFFB
FFFD
FFFD
FFFF
FFF9
0007
0003
0001
FFFE
FFFD
FFFF
0000
FFFE
FFF9
FFF7
FFFB
FFFB
FFF8
0003
000B
0000
FFF9
FFFB
FFFA
0002
0003
0000
0000
FFFD
FFFC
FFF9
FFFC
0006
0002
0001
0000
FFFC
FFFD
0003
0003
0001
0000
FFFD
0001
FFFC
0001
0005
0000
0001
0002
0002
FFFD
FFFE
0002
0001
0000
FFFC
FFFE
0004
0001
FFFF
0001
0001
0001
0001
0003
0000
FFFF
0001
0000
0002
FFFD
0002
FFFC
FFFC
FFFE
FFFE
FFFE
FFFF
FFFE
0000
0001
0003
0000
FFF7
FFF2
FFED
FFEB
FFF2
FFF2
FFF6
FFF5
FFF8
FFFF
0004
0001
0003
FFFB
FFF5
FFEC
FFF0
FFEE
FFF4
FFF5
FFFB
FFF9
FFFA
FFFC
0000
0000
FFFE
0004
FFFE
FFFC
FFFC
FFFC
FFFE
FFFE
0002
0002
0007
000A
0002
FFFC
0001
0004
0000
FFFE
FFFA
FFF5
FFF6
FFF6
FFFF
0000
000B
000E
0002
FFF8
FFF7
FFFC
FFFE
FFFE
0001
FFF9
FFF0
FFF6
FFFF
0000
0001
FFFC
FFF8
FFF7
FFF5
FFFA
FFFF
0006
0009
FFFA
FFF1
0006
0002
FFFE
FFF8
FFF0
FFF4
FFF4
FFF9
FFFF
0005
0009
000F
FFFE
FFFC
0009
0008
0000
FFFA
FFF7
FFF8
FFF8
FFFB
0006
000D
000C
000E
0003
0003
0009
0009
0009
0002
FFFB
FFFB
FFFD
FFFA
0002
000B
0008
0004
0006
000E
000B
0009
0003
FFFC
FFF4
FFF3
FFFF
FFF3
FFF4
FFF9
FFF5
FFF9
FFFF
0008
0005
FFF9
FFF6
FFF6
FFF4
FFF5
FFFB
FFF6
FFF1
FFF4
FFF6
FFF7
FFFC
FFFF
FFFD
FFF8
FFF8
FFF5
FFF1
FFF9
FFFF
FFF8
FFF5
FFF8
FFFB
FFF9
FFFB
FFFD
0003
0003
0005
0000
FFF8
FFFA
0000
FFFA
FFF3
FFFC
FFFC
FFFD
FFFF
FFFF
0000
0004
0002
FFFD
FFFD
0004
0004
FFFB
FFF9
FFF8
FFF3
FFF2
FFED
FFE6
FFEC
FFEC
FFF2
FFF1
FFFF
FFFF
0003
0007
FFFB
FFF9
FFFC
FFF4
FFF8
FFF9
FFF6
FFF7
FFF5
0002
0005
0002
0005
0003
FFF7
FFEF
FFEC
FFE8
FFEA
FFEF
FFF2
FFF3
FFF0
FFF2
FFF4
0000
0004
0001
FFFC
FFFE
FFF3
FFF4
FFF2
FFF5
FFF8
FFF4
FFFE
0004
0005
0000
0000
FFFD
FFFE
0003
FFF9
FFF4
FFEA
FFF0
FFEB
FFEA
FFF5
0005
000C
0003
FFFA
FFFC
FFF9
FFF9
FFF3
FFEC
FFE7
FFEC
FFEA
FFEB
FFF7
FFFE
0000
FFFB
FFF2
FFF0
FFF0
FFF3
FFF0
FFF6
FFF1
FFF0
FFEE
FFF4
FFF7
FFF6
FFF4
FFF2
FFF6
FFF6
FFF6
FFFA
0006
000A
0003
FFF3
FFF8
FFF8
FFF9
FFFC
FFF1
FFF2
FFF8
FFFA
0007
000B
0010
000D
000B
0001
0001
000D
000C
0005
FFFC
FFF8
FFFF
FFFB
0006
0007
0008
0006
0008
0009
000B
000D
000B
0003
FFFB
FFF3
FFFC
FFF3
FFF9
0003
FFFE
FFFE
0005
000E
0006
FFF6
FFF7
FFFA
FFF3
FFF3
FFFC
FFF1
FFF4
FFEE
FFED
FFEF
FFF2
FFFB
FFF9
FFF5
FFF3
FFF4
FFF5
FFF7
FFFD
FFF2
FFF3
FFF3
FFF8
FFF7
FFF5
FFF8
FFFD
0001
0000
FFFB
FFFE
FFF8
0003
FFF4
FFF4
FFFC
FFFC
FFFF
0000
FFFF
0004
0005
0004
0003
FFFA
0004
0001
FFF7
FFF9
FFF4
FFF1
FFED
FFEA
FFE9
FFE4
FFE5
FFEC
FFF0
FFFE
0001
0003
FFFD
0003
FFFD
FFFC
FFFC
FFF3
FFFE
FFFC
FFFD
FFFA
FFFE
FFFF
0001
0003
FFFF
FFFB
FFF7
FFF8
FFF5
FFEF
FFF5
FFF9
FFF3
FFFD
FFFB
FFFD
FFFE
0000
FFF5
FFF4
FFF8
FFF8
FFF7
FFEF
FFF3
FFFD
0002
FFFD
0002
0006
0002
FFFC
FFEC
FFF8
FFFC
FFFD
FFFA
FFF8
FFFE
0004
0004
0004
0005
000C
0009
FFFC
FFE9
FFF4
FFF8
0000
0000
FFFC
FFFA
FFFE
0008
000A
000A
0010
0011
FFFA
FFEE
FFF7
FFFF
0002
0002
0004
0001
FFFD
FFFF
0000
000A
0017
0015
FFFC
FFF5
FFFC
0005
0003
0007
000D
0004
FFFB
FFF7
FFF3
FFEE
FFFE
000F
FFFC
FFF9
FFFE
0006
000A
000C
0008
0004
FFFE
FFF9
FFF8
FFEF
FFE9
FFF7
FFF9
FFFA
FFFD
FFF9
0002
0005
FFFD
FFF6
FFF7
FFFD
FFFE
FFFD
FFF6
FFF5
0000
FFFB
0007
0004
FFFC
FFF2
FFF4
FFF7
FFFC
0003
0001
FFFE
0000
FFF7
FFFC
FFFD
FFFE
0007
0004
FFFE
FFFF
FFFB
FFFE
0002
0005
FFFF
0006
FFFC
FFFB
FFFB
FFF9
0001
0007
0005
0000
0002
0003
0005
0006
0005
0005
FFFD
0002
FFFE
FFFB
FFF8
0003
0006
0003
0003
0001
0000
0000
0004
0001
0000
FFFE
0000
FFF3
FFF5
FFFA
0004
0002
0003
FFFD
FFFD
FFFE
0004
0007
FFFF
FFFF
FFFE
0000
FFFA
FFFC
FFF4
FFEE
FFF7
FFF9
FFFE
FFFC
FFF9
FFFD
0000
0002
FFFB
FFF3
FFF1
FFF4
FFF3
FFF3
FFFA
FFFC
FFFF
FFFE
FFFE
0002
FFFE
0001
FFF0
FFF6
FFF9
0000
0002
0000
FFFF
FFFC
0004
0004
0002
0003
0002
FFFA
FFEC
FFF1
FFF7
0000
0000
0003
FFFE
0001
0008
000A
0008
000F
000E
FFF7
FFE5
FFF0
FFFC
0003
0005
0003
FFF9
FFF8
FFF7
0000
000C
0017
001C
FFF9
FFF5
FFFE
0000
0004
000B
0008
0000
FFF8
FFF6
FFF1
FFF0
0005
0011
FFFA
FFF8
0000
FFFA
0001
0009
0007
FFFE
FFF9
FFFC
FFFC
FFF1
FFEC
FFF9
FFFC
FFFB
FFF9
FFF4
FFF9
FFFF
FFFC
FFF9
FFF9
0002
0003
FFFE
FFFD
FFEF
FFF8
FFF5
0006
FFFF
FFF8
FFF1
FFF2
FFF9
FFFF
0001
0005
0005
FFFE
FFF2
FFFC
FFFB
0002
0007
0008
0004
0001
0004
0005
FFFF
0002
0000
0002
FFF8
FFF8
FFFC
FFF8
FFFF
0007
0004
0004
0004
0004
0006
0003
0003
0001
0000
FFF9
FFFA
FFFA
FFF8
FFFF
0005
0003
0003
0006
0000
FFFF
FFFD
0001
FFFD
FFFC
FFFC
FFF2
FFF4
FFFE
0004
000A
0006
FFFE
0000
FFFF
0003
0002
FFFE
0002
FFFE
FFF9
FFF5
FFF8
FFFB
FFF5
FFF4
FFF6
FFF8
FFFE
FFFC
0001
FFFF
0004
0002
0000
FFFE
0003
0004
0001
0004
0000
0000
0001
0000
FFFF
0001
0003
0001
0004
FFFE
FFFE
0000
0000
FFFE
FFFF
FFFF
0002
0003
0003
0003
0002
0000
0002
0003
0000
0002
0002
FFFD
FFF9
FFF9
0001
0003
0007
0005
0002
0001
0002
0001
FFFA
FFF8
FFF7
FFFD
FFFD
FFFE
0003
0004
000C
0007
FFFE
0004
0004
FFFF
FFF7
FFF2
FFFB
0016
0019
0013
000E
0004
0006
0008
0000
0002
0000
FFFD
FFF4
FFED
0002
001A
0019
0019
0011
000A
FFFE
0000
0004
FFFE
FFFF
0003
FFFB
FFF7
FFFF
0014
0016
0015
0011
000F
0003
0002
FFFF
0002
0001
000B
000A
0000
000D
001B
0015
000B
0004
000A
0006
0002
0000
FFFE
0004
0012
0018
0017
0013
0015
000B
FFFC
FFFD
0001
0004
0002
0000
0002
0006
000D
0017
0016
0013
0008
0004
FFF3
FFF8
FFFD
FFFE
0003
0002
0002
0003
0005
000C
000B
0007
000A
FFFF
FFF4
FFFE
FFFE
FFFF
0004
0004
0004
0004
0006
0006
0006
0004
0000
FFFA
FFFE
FFFE
0000
FFFE
0003
0003
0002
0001
0004
FFFF
0000
FFFE
FFFF
0002
0004
0004
0002
0002
0003
FFFE
0000
FFFF
0000
0000
FFFE
0002
0004
0002
0001
0001
0002
0003
0000
FFFF
0004
FFFF
0001
0003
0002
0003
0003
FFFF
0002
FFFF
0002
0002
0001
0000
0000
0002
0003
0002
0000
0000
FFFC
0003
0000
FFFF
0002
0001
0003
0003
0001
FFFF
FFFF
0001
0003
0001
FFFF
0001
0003
0002
FFFF
0002
FFFF
0004
FFFF
FFFF
0000
FFFF
0003
FFFF
FFFF
FFFD
0000
0004
0004
0006
0007
0001
FFFD
FFFC
0000
0002
0005
0000
FFF9
FFF4
FFF7
FFFB
0004
0011
0006
FFFF
FFFE
FFFF
0005
0002
0008
0008
FFFB
FFF6
FFF3
FFF8
FFF8
0009
0006
0000
0003
FFFD
0002
0003
0005
0008
FFFA
FFF2
FFF5
FFF5
FFF8
0000
0003
0001
FFFF
0001
FFFE
0000
0003
FFFE
FFF7
FFF4
FFFC
0000
FFFB
FFFC
FFFE
0003
0004
FFFF
FFFF
FFF9
FFF6
FFF5
FFF5
FFFE
0001
0004
FFFE
0001
0001
0000
FFFF
FFFE
0002
FFF7
FFF9
FFF9
FFFC
0002
0000
0004
0002
0002
FFFE
0003
0002
0000
0002
0002
0003
FFFD
0000
FFFF
0001
0003
0006
0000
0004
0001
0002
0001
FFFE
0003
0000
0004
0000
0004
0002
0006
0002
0000
FFFF
0004
0003
0001
FFFF
FFFD
0000
0004
0003
0000
0003
0000
0004
FFFF
0003
0004
0002
FFFE
0000
FFFE
0003
0001
FFFF
0003
0002
0003
0003
FFFE
FFFE
0003
0000
0002
0002
0001
0003
FFFE
FFFF
0003
FFFE
0003
0002
FFFE
FFFE
0002
0001
0001
0001
FFFE
FFFD
FFFB
FFFB
FFFD
0000
0000
0003
0003
0000
FFFE
0000
0001
0000
FFFD
FFFF
FFFD
FFFF
FFFE
0001
0000
0006
0004
0000
FFFE
FFFD
FFFE
FFFD
0003
0002
0001
FFFD
FFFF
0005
0008
0004
000A
0004
0001
FFFE
FFFC
0001
0005
0007
0000
FFFA
FFFB
FFFB
0002
000B
000E
0008
0001
FFFC
0001
0002
0006
0005
0008
FFFC
FFF7
FFF5
FFF8
FFFC
0009
0005
FFFE
FFFE
0001
0002
0004
0007
0007
FFFC
FFF9
FFF8
FFF9
FFF3
FFFD
0002
0003
FFFE
FFFC
FFF9
0002
0002
FFFF
FFFC
FFF8
FFFF
FFFC
FFFA
FFFC
FFFE
0000
FFFF
FFFE
FFFA
FFF5
FFF5
FFF7
FFF6
0000
0001
0001
0000
0000
FFFD
FFFE
0000
0005
0002
FFFF
FFF6
FFF9
FFFB
0001
0006
0006
FFFF
0005
0003
0000
FFFD
FFFE
0004
0005
0002
FFFF
0003
0004
0003
0001
0004
0002
0000
FFFF
FFFF
FFFB
0000
0004
0003
0003
0005
0000
0005
0001
0004
0001
FFFE
0001
FFFF
0000
FFFE
0001
0002
0008
0006
0001
0001
0000
0002
0003
0003
FFFF
0004
0000
0000
FFFE
FFFE
0000
0003
0000
FFFF
0000
0000
FFFF
0001
0004
FFFF
0000
0004
0002
0004
0000
0003
0001
FFFF
0003
FFFF
0001
0000
0002
0002
0000
0001
FFFD
FFFA
FFFA
FFFD
FFFD
0001
0001
0002
FFFE
0000
0001
0003
FFFD
FFFD
0004
0002
0004
FFFA
FFFE
0001
0003
0003
0007
0005
0003
0001
FFFE
FFFF
0002
FFFE
FFFF
FFFE
FFF4
FFF9
FFFD
FFFE
0007
000B
0003
0001
FFFB
FFFC
FFFF
0004
000A
FFFB
FFF2
FFF4
FFF7
FFFD
0004
000C
FFFF
FFFE
FFFE
FFFE
0004
0008
0009
0003
FFF3
FFF1
FFF0
FFEF
FFFF
0008
0003
FFFE
FFFB
0002
0001
FFFE
0001
FFFF
FFF4
FFF7
FFF9
FFF3
FFF7
0003
0004
0001
0002
0000
FFF4
FFFC
FFFE
FFFD
FFF5
FFF9
FFFC
FFFD
FFFD
FFFF
0001
0003
0005
0005
FFF8
FFF8
FFFA
FFF9
FFF9
FFFB
0002
0000
FFFE
0002
FFFF
0001
0005
0006
0004
FFFA
FFFB
FFFB
FFF9
0001
0001
0002
0005
0001
FFFF
0003
0001
FFFC
0002
FFFE
FFFD
FFFE
FFFA
0001
FFFE
0002
0007
0000
0002
0000
0001
FFFF
FFF8
0000
FFFD
FFF7
FFFA
0000
FFFD
0006
0003
0004
0003
0001
0004
0000
FFF8
FFFE
FFFD
0003
FFFF
0002
FFFE
0002
0005
0004
0002
0002
0003
FFFE
0000
FFFF
0001
0000
0003
0002
0002
0003
FFFF
0000
FFFF
0002
FFFF
0001
FFFB
FFF5
FFF1
FFF8
FFFB
FFFA
FFF9
FFFC
0001
FFFD
0001
FFFD
FFF5
FFF2
FFF2
FFF0
FFF4
FFF9
FFFE
FFF9
FFFE
0000
FFFF
FFFE
0000
FFF5
FFF2
FFF8
FFFA
FFFA
FFF8
FFFC
FFFE
FFFF
0002
0003
0006
0004
FFFC
FFEB
FFF5
FFFC
FFFF
0004
FFFC
FFFA
FFFF
0002
0003
0004
000D
000A
FFFB
FFE9
FFF7
FFFF
0006
0009
0001
FFFC
FFF6
FFFB
0004
0008
0016
0012
FFF9
FFEC
FFFD
0001
0007
000A
0004
FFF9
FFF2
FFF6
FFF2
FFFE
0013
001A
FFFA
FFF7
FFFD
FFFF
0004
0008
0009
FFFC
FFF4
FFF7
FFF4
FFEC
FFF2
0009
0001
FFFA
FFFB
FFFA
0004
000A
0004
FFFB
FFF6
FFFF
FFFB
FFF8
FFF0
FFF2
FFFA
FFF7
FFFE
FFFA
FFF5
FFF5
FFFA
FFF8
FFFC
0002
0003
FFFE
FFFE
FFF2
FFFF
FFFB
0006
0003
FFF7
FFF7
FFF7
FFF8
FFFD
0007
0002
0003
FFFF
FFF7
FFFF
FFFD
FFFD
0006
0003
0002
0002
FFFE
0003
0005
0007
0003
0007
FFFE
FFFC
FFFA
FFFD
FFFF
0004
0003
0003
0000
0001
0003
0005
0004
0004
FFFD
FFFF
FFFD
FFFA
FFF9
0003
0003
0003
0005
0004
0001
0000
0001
FFFF
0000
FFFF
FFFA
FFF4
FFF5
FFFE
0001
0002
0001
FFFB
FFFE
0000
FFFE
0006
0000
0002
0000
FFFE
FFFC
FFFE
FFF9
FFF8
0000
FFF9
FFFA
FFFC
0001
0000
FFFF
0000
0000
FFFC
FFF5
FFF4
FFED
FFEC
FFF2
FFFB
FFFE
FFF8
FFFC
0000
FFF7
FFFE
FFF8
FFF3
FFF5
FFEF
FFF1
FFF1
FFFA
0004
0007
0007
0007
0007
0001
FFFD
FFF0
FFF3
FFF4
FFF8
FFF9
FFFD
0002
0005
000C
0009
000A
000F
000A
FFF7
FFE6
FFED
FFF5
FFF8
FFFE
FFFD
0003
000A
0010
000D
0012
0017
0013
FFF5
FFEB
FFF7
0000
0002
0005
0002
0005
0002
FFFF
0003
000D
0019
001B
FFFA
FFF5
FFFF
0008
0005
0007
0010
000C
0002
FFF4
FFEC
FFE8
FFFC
000C
FFFE
FFFF
0002
000C
000D
000C
000C
0003
FFFE
FFF6
FFF7
FFED
FFE7
FFF1
FFF6
FFFD
0002
FFFD
0006
0009
FFFF
FFF9
FFF9
FFF7
FFF9
FFF6
FFF2
FFEE
FFF8
FFFF
0010
000C
FFFB
FFFA
FFF7
FFFF
FFFC
FFFE
FFFD
FFFE
FFFE
FFF1
FFF5
FFF7
0005
000B
000D
0007
FFFF
FFFE
0000
FFFF
0001
FFFE
0003
FFFB
FFF8
FFFD
FFFC
FFFF
0001
0003
0004
0003
0003
0003
0006
0006
0002
0002
0001
FFFF
FFF7
FFFA
0002
0003
0007
0005
0003
FFFF
0002
0002
0001
FFFE
FFFE
FFF7
FFF5
FFF5
FFFD
0005
FFFF
FFFF
FFFB
FFF8
FFFB
0001
0005
FFFB
FFFD
FFFE
0004
0007
000D
0012
000C
0006
0008
0009
000D
FFFF
FFFC
0002
0002
FFFE
0005
0006
000B
000C
0008
0006
000C
000E
0010
000C
0006
0000
FFFF
0001
FFFF
0004
0003
0001
FFF9
FFFD
0004
000D
0013
0011
000A
0001
FFFF
FFF8
FFF3
FFFD
FFF6
FFF4
FFF0
FFF6
FFFE
0007
0009
0004
0002
FFFD
0000
FFF3
FFF8
FFF6
FFF9
FFF5
FFF5
FFF5
FFF9
FFF4
FFF5
FFF7
FFF2
FFF3
FFFD
FFF0
FFF9
FFFB
FFFA
FFF8
FFF4
FFF6
FFEF
FFF3
FFF9
FFFA
FFF5
FFEC
0001
FFF5
0001
FFFE
FFFE
FFF9
FFFB
FFFD
FFF5
FFFD
0003
000A
0007
FFF3
FFFE
FFEC
0002
0000
0001
FFFF
FFFF
FFFF
0003
0004
0003
000E
000C
FFF9
FFFD
FFEC
FFF7
FFFF
0007
0001
FFFB
0003
0005
FFFF
FFFF
0005
0001
FFF9
FFFF
FFEE
FFF1
FFFF
000B
000F
0003
FFFE
FFFD
0002
0005
FFFF
FFFC
FFF6
0001
FFED
FFED
FFF6
0008
000A
0010
0008
0008
000B
0009
0003
FFFB
FFF9
0002
FFF6
FFF3
FFF8
FFFB
0007
000D
000C
0008
0006
FFFD
FFFA
FFFA
FFF8
FFFF
FFFB
FFF7
FFF4
FFF4
FFF8
FFF3
FFF5
FFF9
FFF8
FFF8
FFF7
FFF8
FFFC
0002
0000
FFFB
FFFB
FFF9
FFF7
FFF7
FFF6
FFFA
FFF6
FFFB
FFF8
0002
FFFE
0005
FFFF
0008
000A
000E
000A
0010
000A
0004
000C
000A
0008
0002
0001
0001
0001
0000
0004
0009
0007
0007
0006
000A
000B
0013
0012
0008
0001
FFFF
FFF8
FFF5
FFF8
FFFA
FFFA
FFF1
FFF9
FFFE
FFFD
0004
0002
0001
0001
FFFC
FFF4
FFF0
FFFB
FFFB
FFF5
FFF5
FFF7
FFF4
FFF3
FFF5
FFFA
FFF6
FFF8
FFFA
FFF1
FFF1
FFFD
FFFC
FFFB
FFFD
FFF7
FFF1
FFF1
FFF2
FFF9
FFF2
FFE8
FFFF
FFF1
FFF9
0005
0001
0007
0002
FFF5
FFF3
FFFB
0004
000A
000A
FFF4
FFFD
FFF4
0001
0006
0005
0007
FFFA
0003
0003
0002
0004
0009
000D
FFFB
0000
FFEE
FFF8
FFFF
0004
0002
0002
0004
0000
0000
FFFF
0007
0000
FFF9
FFFF
FFEA
FFF2
FFF6
0007
000C
0009
FFFC
0000
0005
0004
FFFC
FFF5
FFF9
FFFC
FFE6
FFEA
FFF1
FFFC
000C
0009
0006
000D
000C
0001
FFFB
FFF8
FFF5
FFFC
FFEE
FFEC
FFF5
FFF7
0003
000F
0011
000D
0002
FFFE
FFF4
FFF3
FFF5
0001
FFF4
FFED
FFEB
FFF3
FFF7
FFF6
FFF8
FFF5
FFF5
FFF6
FFF2
FFF2
FFFE
0000
FFF9
FFEE
FFF0
FFE9
FFEF
FFEA
FFE8
FFEF
FFED
FFED
FFF0
FFF8
0004
0004
0001
FFFA
FFF9
FFF7
FFF6
FFEC
FFF3
FFF5
FFF8
FFFB
FFFD
0002
0005
FFFE
0000
0001
0003
0001
0004
0001
0006
0005
0007
0000
0003
0000
0001
FFFF
FFFE
FFFF
FFFF
0000
0000
FFF9
FFFD
FFFA
0005
0003
0004
0000
FFFE
FFFE
0000
FFFF
0001
FFFA
FFF7
FFF6
FFF4
FFF3
FFF6
FFF6
FFFC
0000
FFFD
0002
0001
FFFF
FFFC
FFF9
FFF8
FFF5
FFEF
FFF5
FFF6
FFFD
FFFD
FFFD
0001
FFFF
FFFE
FFFF
FFFD
FFFC
FFF4
FFF1
FFFE
0006
000F
000C
0007
0000
FFFC
0000
0000
FFFF
FFFE
FFF9
FFF3
FFEC
0003
0011
000F
000A
000A
0006
0000
FFFF
0002
FFFD
FFF9
FFF0
FFEF
FFEA
0009
0013
000C
0002
FFFD
0000
0002
FFFE
0003
0000
FFF5
FFEE
FFE8
FFEF
0003
0005
0003
FFFA
FFF1
FFF9
FFFF
FFFD
0003
0001
FFF9
FFF4
FFE7
FFF2
FFFA
0003
0005
FFFA
FFFA
FFFB
FFFE
FFFD
0000
0005
FFFC
FFF6
FFF3
FFF6
0002
0000
FFFC
FFFE
FFFC
FFFE
0001
0001
0001
0002
0004
FFFD
FFF1
FFFA
0000
FFFF
FFFC
FFFF
FFFE
0000
0000
FFFD
FFFE
0002
0002
0008
0006
FFFF
0004
0001
0002
FFFE
FFFE
0001
0002
0001
0003
FFFD
FFFF
0002
0003
0008
0006
0003
FFFE
0002
0002
0000
FFFF
FFFE
FFFD
0002
0000
0001
FFFE
FFFD
0000
0002
0000
0002
0000
0000
FFFD
0003
0000
FFFD
FFFF
FFFE
FFFF
FFFF
FFFF
0003
0004
0002
FFFE
0001
0001
FFFF
FFFF
0003
FFFE
0003
0007
0004
0005
0003
0009
0009
0008
0002
FFFF
0003
FFFE
FFFD
0003
FFFF
FFFF
0001
0002
0006
0004
0004
0005
0002
FFFD
0003
FFFE
FFFE
FFFD
0002
0000
FFFE
0001
0000
FFFD
0000
FFFE
0000
FFFC
FFFD
0000
FFFF
FFFC
FFFD
FFFB
0003
0001
FFF6
FFF7
FFFB
FFFC
FFFB
0000
0002
0001
FFFC
0002
0005
FFFF
0007
FFF8
FFF5
FFF5
FFFC
FFFE
0003
FFFF
FFFF
0002
0001
0004
0005
0008
0006
FFFD
FFFB
FFFD
0002
0008
0002
FFFC
0000
FFFC
FFFD
0004
0004
0007
0006
0006
0000
FFFE
0005
0005
0000
FFFE
FFFE
FFFD
FFFF
0002
0008
000B
0006
0004
FFFE
0002
0005
0003
FFFE
FFFC
FFFF
0001
FFF9
FFFB
0004
0007
0009
0000
0005
0004
0003
0003
0000
0000
FFFD
0001
FFF7
FFF9
FFFD
0005
0006
0004
000A
0005
FFFE
FFFD
0000
FFFF
FFFD
0000
FFFB
FFFB
FFFA
0002
0004
FFFF
FFFF
FFFA
FFFB
FFFD
FFFD
FFFF
FFFF
0002
0002
FFFB
FFF7
FFF8
FFF8
FFFB
FFF8
FFFC
FFFC
FFFD
0002
0002
FFFD
0000
0001
FFFF
0001
FFFB
0000
0000
0002
0000
FFFF
FFFE
FFFF
0000
FFFD
0002
0002
0002
0003
0005
0008
0002
0001
0003
0001
FFFF
0001
FFFD
FFFD
0002
0001
0003
0003
0002
0005
0005
0006
0008
000E
0009
0002
FFFD
FFFD
0002
0000
0002
FFFD
FFFC
FFFE
0002
0005
0003
0003
0004
0005
0001
0003
FFFC
FFFE
FFFF
FFFA
FFFB
FFFA
FFFE
FFFA
FFFC
FFFD
FFFD
FFFC
FFFF
FFFE
FFFD
FFFC
FFFC
FFFE
0000
FFFE
FFFD
FFF7
FFF8
FFFA
FFF9
FFFC
FFFF
0002
FFFB
FFFC
0000
0002
0002
0003
FFF9
FFF8
FFF8
FFFA
0005
0000
0000
FFFF
0001
0003
0003
0007
0002
FFFD
FFFA
FFFB
FFFC
0006
000C
0006
0000
FFFD
FFFB
0001
0000
0004
0007
0004
0005
0001
0002
0002
0005
0001
0000
0002
FFFE
FFFC
0002
0004
0008
0007
FFFD
FFFC
0004
0004
0000
0002
FFFE
0001
FFFB
FFF8
FFFD
0005
0009
0004
0002
0002
0007
0001
0001
FFFF
0001
FFFF
FFFC
FFF4
FFFB
0002
0006
000C
0008
0006
0008
FFFE
FFFE
0001
0002
FFFE
FFFC
FFFC
FFF7
FFF7
FFF9
FFFB
FFFB
FFFF
FFF8
FFFC
FFFC
FFFC
FFFD
0001
0002
FFFE
FFFE
FFF8
FFF6
FFF6
FFF8
FFFC
FFF9
FFFD
FFFC
FFFC
FFFD
0001
FFFE
FFFE
0001
0001
FFFC
0001
0001
FFFF
0000
FFFF
FFFF
FFFE
FFFE
0001
FFFD
FFFF
0000
0005
0002
0005
0005
0007
0002
0003
0000
0003
0001
FFFD
FFFD
FFFD
FFFE
0002
0000
0003
0003
0005
0008
000C
0006
0004
FFFD
0002
FFFD
0001
0000
0001
0001
0002
0001
FFFD
FFFE
0003
0005
0000
0003
FFFD
0000
FFFE
FFFC
FFFE
0002
0001
FFFF
FFFA
FFF7
FFF7
FFFA
FFFC
FFFD
FFFD
FFFE
FFFD
FFFE
0004
0006
0002
0002
FFFD
FFF6
FFF2
FFFD
FFFE
0000
FFFD
FFFE
0001
0000
000B
0004
0000
0008
FFF6
FFEE
FFF3
FFFC
0002
FFFC
0001
0000
FFFE
0003
000A
0004
0007
0007
FFFA
FFFA
FFF9
0003
0009
0000
FFFF
FFFC
FFFA
0004
000A
0007
000E
0001
0001
FFF9
FFFF
0007
0005
0002
0000
FFFF
FFF9
0002
0001
0009
0011
000B
0007
0004
0001
0005
0000
FFFB
0001
FFFB
FFF8
FFF8
FFFA
0003
000A
0005
0000
0004
0002
0002
FFFD
0001
FFFE
FFFF
FFFE
FFFB
FFF7
FFFC
FFFF
0000
0001
0006
0006
0002
FFFF
FFFC
FFFF
0000
FFFD
FFFE
FFFC
FFFB
0003
0007
0005
0003
FFFE
FFFF
0000
0000
FFFD
0001
0001
FFFE
FFFB
FFFA
FFF8
FFF7
FFFA
FFF7
FFFC
0000
0003
FFFE
0001
0002
FFFF
FFFF
0002
FFFB
FFFD
FFFA
FFFB
FFFF
0001
FFFE
FFFF
0001
0000
FFFE
0001
000C
000A
000C
000B
0007
0009
0008
000D
000A
0000
FFFF
0001
0002
0000
0004
0006
000A
0006
0006
0008
000C
0010
000E
0008
0004
0001
FFF9
FFFE
0000
0002
FFFF
0000
FFFD
0004
0008
000F
000C
000B
FFFF
FFFF
FFFA
FFF8
FFFD
FFFA
FFF8
FFFC
FFF8
FFFB
FFFA
FFFF
FFFF
FFFC
FFF9
FFFD
FFF4
FFF3
FFF9
FFFF
FFFC
FFFB
FFF7
FFF1
FFF1
FFF4
FFFB
FFF2
FFF4
FFFE
FFF1
FFF8
FFFF
0000
0000
0002
FFF7
FFF4
FFF2
FFFA
0004
FFFB
FFEE
FFFE
FFF2
FFFF
0003
0003
0006
FFFF
FFF9
FFF6
FFF9
0005
000E
000E
FFF3
0000
FFEB
FFFE
0007
0009
0005
FFFF
0003
0000
0000
0000
0007
000A
FFF8
FFFC
FFEC
FFF7
0004
0007
000A
0008
0001
FFFB
0004
0004
0003
0002
FFFA
FFFD
FFEC
FFF1
FFFD
000A
000E
0006
0002
0002
0009
0003
FFFE
FFFB
FFF9
FFFB
FFF1
FFF3
FFF8
0003
000B
000F
000D
0007
0006
0005
FFFB
FFF6
FFF4
FFFD
FFF1
FFF4
FFF3
FFF8
0000
0004
0004
FFFD
FFFD
FFFA
FFF4
FFF6
FFF6
FFFD
FFFD
FFF7
FFF3
FFF8
FFF6
FFF6
FFF7
FFF3
FFF3
FFF4
FFF4
FFF7
FFFE
0000
0000
FFFA
FFF8
FFF6
FFF8
FFF8
FFFA
FFF6
FFF8
FFF6
FFFA
FFFF
FFFE
0000
0000
0004
0007
0005
0005
0004
FFFD
0008
0004
000C
0007
0006
0003
0001
0000
0004
000C
000A
0006
0006
0006
0006
000C
0010
000D
000B
0001
0002
FFFD
0000
FFFF
FFF9
FFF8
FFF4
FFFD
0008
000F
0011
0010
0006
0004
0000
FFF6
FFF1
FFF5
FFF7
FFEF
FFF3
FFF2
FFFE
0007
000A
0008
0002
FFFE
FFF8
FFF4
FFF4
FFF4
FFF5
FFF0
FFEE
FFF7
FFF9
FFF7
FFF6
FFFA
FFF4
FFEE
FFFA
FFF2
FFF6
FFF9
FFF3
FFED
FFF3
FFF8
FFEF
FFF4
FFFE
FFF9
FFF1
FFED
FFF9
FFF6
FFFE
FFFA
FFF7
FFF4
FFF8
FFF9
FFFD
0004
0006
000A
0004
FFF3
FFFF
FFED
0001
0000
FFF9
FFF8
FFF9
0004
0007
0001
0003
000B
0008
FFF6
FFFC
FFED
FFFE
FFFF
FFFE
FFFC
FFFC
0002
FFFF
FFFA
0001
0000
FFFB
FFF6
FFF9
FFED
FFF7
0002
000B
000C
FFFF
FFF9
0003
0005
0003
FFFD
FFF9
FFF5
FFFB
FFED
FFF2
FFFA
0006
000B
0009
000E
0009
0009
0008
FFFD
FFF5
FFF2
FFFB
FFF5
FFEE
FFF4
FFF7
0004
000B
000C
0005
FFFE
FFFB
FFF7
FFF5
FFFD
0001
FFF8
FFF3
FFEF
FFF5
FFF1
FFF5
FFF8
FFF5
FFF5
FFF5
FFEE
FFF3
FFFE
0004
0000
FFFB
FFFB
FFF8
FFF5
FFF4
FFF5
FFF6
FFF7
FFFA
FFFB
FFFA
0004
FFFD
0002
0001
0000
0000
0000
FFFC
0000
0001
0002
0002
0002
0000
0003
FFFF
0002
FFFC
FFF6
FFF4
FFF0
FFED
FFF5
FFF6
FFF3
FFF8
FFFC
0001
0002
0000
0000
0005
FFFF
FFF7
FFF4
FFEF
FFF1
FFF3
FFF4
FFF2
FFF7
FFF9
FFFE
000A
0003
0003
0009
0003
0000
FFFB
FFFB
FFF8
FFF8
FFF6
FFF8
FFF3
FFF6
0008
0006
0005
0004
0008
0008
0002
0004
0008
0000
FFFD
FFF8
FFF5
FFEF
000F
000B
0004
0000
0002
0003
0008
000E
000E
000B
0001
0000
FFF4
FFF2
000E
000E
0005
0004
0002
0000
FFFB
FFFF
0006
0008
0003
FFFA
FFF5
FFFB
0006
0008
0006
0004
FFF9
FFEF
FFE8
FFEB
FFFC
0007
0008
FFFE
FFFB
0001
0004
0003
FFFF
FFFE
FFFC
FFF6
FFF1
FFF3
0000
0008
0008
0003
FFFA
FFF8
0003
0000
FFFD
FFF6
FFF8
FFF5
FFF7
0000
0002
0004
FFFD
FFF3
FFF0
FFF6
0001
FFF8
FFF6
FFF5
FFF4
FFF3
FFFC
FFFD
FFF4
FFF1
FFF4
FFED
FFF3
FFF9
FFFF
FFFD
FFF9
FFFA
FFF7
FFF9
FFFA
FFFB
FFF7
FFF6
FFEE
FFEE
FFF2
FFFB
FFFE
0004
0005
0004
FFFD
FFFD
FFFD
0001
FFFD
FFF6
FFF0
FFED
FFF2
FFFF
0000
0002
0006
0007
000B
000A
0009
000D
000A
0009
0005
FFFF
FFFC
FFFE
0002
FFFD
FFFD
FFFB
FFFA
FFF6
FFF6
FFF6
FFF7
FFF7
FFFA
0000
FFFD
FFFD
0000
FFFD
FFF7
FFF3
FFF1
FFF0
FFF1
FFF3
FFF6
FFF6
FFF5
FFFA
FFF9
FFFE
FFFF
0002
0000
FFFF
0002
FFFB
FFF9
FFF9
FFF6
FFF7
FFF2
FFF3
FFEF
FFF5
0007
0003
0002
000A
0005
0007
0007
0002
0009
0005
0004
FFFE
FFF4
FFEE
0009
0007
0006
0002
0005
0007
0009
000A
0011
000C
0004
FFFD
FFEF
FFED
000E
0010
0008
0001
0004
FFFE
FFF9
0000
0007
000A
0002
FFF7
FFEB
FFF3
0008
000C
0005
0002
FFFD
FFF2
FFE9
FFF1
FFFB
0001
FFFD
FFFC
FFFA
FFFE
0006
0007
FFFF
0003
FFFB
FFEF
FFED
FFFB
0006
0004
0007
0003
FFFD
FFF5
FFFE
FFFF
FFFD
FFF6
FFF5
FFF1
FFFC
0002
FFFE
FFFD
FFFA
FFF8
FFF0
FFF6
FFFF
FFFC
FFF7
FFEC
FFF1
FFF7
0000
FFFC
FFF2
FFF2
FFEE
FFEB
FFE9
FFF7
FFFB
FFF5
FFF5
FFFA
FFFA
FFFB
FFF9
FFF4
FFF5
FFEE
FFEA
FFE8
FFEA
FFFA
FFFA
0000
000A
000A
0002
FFFC
FFFA
FFF9
FFFC
FFF6
FFF3
FFEC
FFEB
FFFB
0003
0003
000A
000F
000A
000A
0008
000F
0009
0005
0000
FFF9
FFF1
FFFC
FFFF
0001
0001
0009
0006
0007
0010
0010
0013
000A
0006
0004
0002
FFFD
0005
0003
0000
0004
0005
0005
0000
FFFF
0000
0004
0002
0004
0003
0003
0004
0001
0004
0004
0004
0004
0004
0001
FFFB
FFFB
0003
FFFE
0001
0005
0001
0002
0005
0002
0003
000A
0004
0006
0004
FFFE
0002
FFFD
0002
0004
0001
0002
0003
0002
0002
0006
0007
0007
0006
0005
000A
0005
0001
0002
0003
0001
0003
FFFE
FFFC
FFFD
FFFE
0005
FFFF
FFFD
0001
0001
0000
0001
0001
0001
0004
0003
0005
0004
FFF9
FFEA
FFEE
FFF2
FFFB
FFFE
FFFF
0005
0002
0003
0003
0007
0006
0005
0001
FFED
FFE4
FFFA
0005
0008
0004
0003
0000
0005
0003
0002
0005
000A
000E
FFF3
FFEC
0000
0006
0007
0002
0002
0000
0000
0005
0005
0006
0005
0001
FFF0
FFEF
FFFA
0004
0002
0002
0003
0001
0000
0002
0002
0006
FFFF
FFF2
FFF6
FFFF
0004
0004
0003
0000
0005
0000
0002
0001
0006
0007
FFFD
FFF5
FFFA
0003
0005
0006
0006
0002
0006
0006
0002
0001
0005
0001
FFF7
FFF7
0002
0003
0004
0001
0004
0002
0006
0002
0004
0000
0001
FFFF
FFFB
FFFD
FFF9
0000
0001
0002
0003
0004
0004
0002
0004
0004
0001
0001
FFFD
FFFD
FFFF
0002
0004
0003
0000
0002
0004
0005
0005
0002
0005
0002
0002
0005
0001
0003
0004
0002
FFFF
0002
FFFF
0001
0003
0005
0004
0002
0001
FFFF
0001
FFFC
0002
0001
0000
0001
FFFF
0005
0003
0005
0004
0000
FFFE
FFFE
FFF6
FFF7
FFFC
FFFA
FFFF
FFFF
FFFF
0003
0004
0005
0003
0006
0004
FFFD
FFF8
FFFE
0005
0002
0001
0003
0001
0003
0005
0001
0002
0000
0000
0001
0003
0006
0005
0006
0002
FFFC
0002
0005
0007
0003
FFFE
0001
0000
0001
0007
0008
0009
0000
0000
FFFE
0000
0003
0003
0002
0006
FFFF
FFF9
FFF1
FFF7
0007
0006
0002
FFFE
0001
0001
0003
0007
0001
0003
0001
FFF6
FFEF
FFFC
0005
0006
0006
0001
0004
0000
0002
0006
0004
0000
FFFC
FFF5
FFFA
0004
0004
0002
0003
FFFF
FFFC
0004
0001
0002
0000
FFFC
FFF8
FFFB
0001
0001
0000
FFFB
FFFE
FFFA
FFFE
0000
0001
FFFF
0001
FFFE
FFFC
FFFD
0006
0001
FFFA
FFFB
FFFB
FFFE
0001
0005
0000
FFFF
0001
0004
FFFF
0001
0003
FFFE
FFFD
FFF9
FFFD
FFFE
0002
0005
FFFF
0001
0007
0005
0008
0003
0002
0004
0007
FFFE
0002
0000
FFFF
0001
0002
0000
0005
0004
0005
0009
0006
000B
0006
0002
0000
0000
0000
0003
0002
0005
0001
0000
0003
0004
0004
0004
0001
FFFF
0004
0005
FFFF
0003
0003
0000
0000
FFFF
0002
FFFE
FFFB
FFFB
FFFC
FFFE
0002
FFFF
FFFF
0002
0001
0003
0002
0002
0001
FFFA
FFFA
FFF7
FFF9
FFFB
FFFC
FFFA
0002
0002
0002
0004
0004
0003
0006
0007
FFFD
FFFB
0002
0001
FFFD
0000
FFFA
FFFF
0006
0006
0007
0005
0007
0006
0007
0008
000C
0006
0003
0000
FFFD
FFFD
0004
0008
0002
0001
0004
0003
0000
0008
0008
000A
0000
0001
FFFD
FFFF
0004
0004
0002
0001
FFFC
FFF7
FFF1
FFF7
0005
0007
0002
FFFE
FFFD
0005
0005
0007
0002
0002
FFFE
FFF3
FFF4
FFF9
0007
0009
0002
0003
FFFE
0002
0002
0003
0001
FFFB
FFF7
FFF8
FFFE
0005
0001
0002
FFFD
FFFF
FFFD
0002
0001
FFFF
FFFC
FFF9
FFF6
FFFA
FFFF
0000
FFFE
FFF8
FFFB
FFF8
FFFA
0001
0000
0001
FFFB
FFF8
FFFA
0000
0001
FFFC
FFFA
FFF7
FFF8
FFF8
FFFE
0001
FFFF
0005
0000
0000
0000
0000
FFFF
0001
FFFA
FFF9
FFFA
FFFA
FFFE
0004
0005
0002
0004
000A
0009
0006
0006
0007
0007
0000
FFFE
FFFF
0003
0002
0000
0005
0003
0004
0005
0008
0007
0009
000C
0009
0006
0004
0001
0000
FFFF
0002
FFFF
0003
0001
0000
0001
0001
0004
0000
0004
0002
0003
0003
0004
0004
0003
FFFE
0002
FFFD
FFFA
FFFB
FFF9
FFFF
0000
0001
0002
0000
0001
0005
0000
0002
0004
0004
FFFA
FFFB
FFF9
FFF9
FFFC
FFFA
0000
FFFF
0002
0005
0008
0006
0006
0008
0009
0003
0004
0008
0004
0002
0002
0002
0004
0004
0003
0003
FFFB
FFFE
FFFF
FFFD
FFFF
0009
0002
0001
FFFF
0000
0006
0006
0004
FFFB
FFF6
FFF3
FFF3
FFFF
0002
000B
0007
0002
FFFE
FFFF
0004
0005
0000
FFF7
FFF9
FFF8
FFF5
FFF7
0006
000B
0007
0001
FFFD
0000
0004
0001
0001
FFFE
0007
0001
FFF8
FFF7
0003
0004
0009
0001
0001
FFFF
0002
0003
0001
0002
0007
FFFE
FFF7
FFFA
FFFD
0003
0001
FFFD
FFFB
0003
0004
0000
0003
FFFD
0002
FFFB
FFFE
0003
FFFE
FFFF
FFFF
FFFA
FFFA
FFFF
0001
0003
0003
0002
FFFD
FFFB
0000
0002
0003
FFFB
FFF8
FFF6
FFFC
0000
0004
0005
0002
0002
0008
0006
0007
0005
0001
FFFD
FFF8
FFFB
FFFF
0002
0002
0001
0002
0008
0008
0008
0004
0002
0005
0004
0000
0004
0000
0003
0004
0004
0001
0004
0009
0004
0009
0005
000A
0002
0005
0000
0000
0002
0001
0001
0001
FFFF
FFFB
FFFA
FFF8
FFF8
FFF7
FFFC
FFFE
FFFE
FFFE
0002
0003
0002
FFF6
FFF6
FFF2
FFEF
FFF3
FFF6
FFF5
FFF8
FFF7
FFF8
FFFF
0002
0002
FFFC
FFFC
0001
0000
FFFC
FFFA
FFF7
FFF6
FFF4
FFF5
FFF0
FFF2
FFF8
000B
0003
0006
000B
0005
0004
FFF9
FFFB
FFFD
FFFA
FFFD
FFF9
FFF0
FFF0
000A
0008
0005
0003
0006
0005
0009
000B
000B
0008
0003
FFFE
FFF2
FFF0
000A
000D
0007
0005
0007
0004
0004
000D
000E
0008
0001
FFFE
FFED
FFF2
0009
000E
0008
0002
FFFB
FFF5
FFF2
FFFC
0009
0007
0003
FFF9
FFF4
FFFC
0007
0008
0002
FFFF
FFF7
FFF1
FFEE
FFF8
0007
0008
0004
0002
FFFD
FFFD
0002
0003
0001
FFFA
FFF8
FFF2
FFF5
0002
0004
0004
0000
FFFE
FFFA
FFF9
0005
0001
FFF6
FFF3
FFF2
FFFA
0000
0005
FFFF
FFFB
FFF8
FFF3
FFF4
FFFB
0000
FFFB
FFF8
FFF4
FFF9
FFFA
0002
0001
FFF5
FFF2
FFF0
FFEC
FFF0
FFF5
0000
FFF9
FFFD
0000
FFFE
FFFB
0001
FFFC
FFFC
FFF7
FFF0
FFF1
FFF0
FFFB
FFFD
0001
0009
0008
0009
0004
0007
0007
0001
FFFB
FFF3
FFF7
FFF0
0001
0000
0008
0006
000B
000A
0006
000A
000B
000B
0007
0001
0000
FFFD
0002
0002
0001
0001
0001
FFFE
FFFF
FFFC
FFFF
FFFF
FFFC
0000
0003
0002
0000
0004
FFFE
FFFC
FFF4
FFF5
FFF1
FFF6
FFF7
FFF3
FFF6
FFFB
FFF8
0001
FFFD
0000
FFFB
0001
FFF8
FFF8
FFF4
FFF2
FFF4
FFF0
FFF2
FFF4
FFF0
FFF6
FFF9
0000
FFFF
0003
0008
000A
0003
FFFE
FFF4
FFF4
FFF1
FFF5
FFF4
FFF1
FFF0
0008
000A
0006
000C
0008
000C
0009
0008
0005
FFFF
FFF6
FFF7
FFF4
FFEF
000F
000E
0003
0004
0001
0007
000A
000E
000A
0007
0005
0000
FFF0
FFF0
0010
0011
0007
0008
0008
FFFC
FFFA
FFF8
FFFF
0002
0000
FFFA
FFF4
FFF8
0003
000A
0004
0001
FFFB
FFEC
FFE4
FFEC
FFFD
0004
000B
0006
FFFE
FFFC
0001
0001
0000
0000
FFF8
FFF0
FFF1
FFF3
0008
000D
0009
0002
FFFE
FFF8
0001
FFFF
FFF9
FFF8
FFF4
FFF0
FFF6
FFFD
0001
0000
FFFB
FFF3
FFF4
FFF8
FFFC
FFF7
FFF2
FFED
FFED
FFF4
FFFA
FFFB
FFF0
FFF2
FFEF
FFEA
FFED
FFF5
FFFA
FFF9
FFF7
FFF8
FFF7
FFF6
FFF8
FFF3
FFF0
FFEF
FFEC
FFEB
FFEC
FFFD
FFFE
0003
000B
0005
0002
FFFD
FFFB
FFFE
FFFD
FFF2
FFEF
FFEF
FFF1
FFF9
FFFD
0003
0007
0009
0008
0006
0007
000E
000E
0006
0003
0002
FFFA
0003
FFFF
FFFE
0000
FFFD
FFFB
FFFD
FFF8
FFFB
FFFF
FFFE
FFFE
FFFB
0000
0000
FFFD
FFFB
FFF9
0002
0001
FFFD
FFFE
FFFA
FFFB
FFF6
FFF5
FFFC
FFFE
FFFC
FFFC
FFFD
FFFA
0001
0000
0003
0005
000A
0007
FFFF
FFFF
FFFA
FFFC
0000
FFFC
FFF8
FFFD
FFFC
FFFD
FFFC
0003
0007
000B
0009
0005
0003
0004
0000
FFFD
FFFC
FFFA
0000
FFFD
0003
0000
0001
0000
0005
0003
0005
0008
0003
FFFA
FFFF
0003
0007
0009
000D
0003
FFF9
FFF9
0007
000A
000C
0007
0000
FFFD
FFFC
0006
000A
000A
000F
000C
FFFE
FFFF
0008
0008
000A
0009
0003
FFFB
FFF8
FFF9
FFFB
FFFE
0007
000C
0006
0009
0005
0004
0003
FFFE
FFFD
FFFF
FFF2
FFF6
FFF4
FFF3
0000
000C
000A
0004
FFFD
FFF5
FFFB
FFF9
FFF8
FFFF
FFF0
FFFB
FFFA
FFFE
0007
000B
0004
FFFB
FFFA
FFFB
FFFB
FFFD
FFF5
FFFC
FFF7
0000
FFFE
0000
0003
FFF9
FFF7
FFFB
FFFB
FFFE
FFFE
0000
FFF6
FFFA
FFF6
FFFC
0001
FFFD
0000
0006
0005
0002
0001
0002
0001
FFFB
FFF5
FFFF
FFF6
FFF1
FFFA
FFFD
0003
0009
0009
0007
0008
0008
FFFE
FFFF
FFF8
FFFC
FFF7
FFEF
FFEC
FFF2
FFF0
FFFA
FFFB
0000
FFFD
FFFF
FFF7
FFFC
0000
FFFB
FFF9
FFFE
FFF7
FFF5
FFF8
FFF1
FFF5
FFF5
FFF7
FFF5
FFF6
FFFA
FFF9
FFFC
FFFC
FFF5
FFFA
0001
0001
0001
0001
FFFF
FFFB
FFFB
FFFA
0000
0003
FFFC
FFF2
FFF9
FFFC
0001
0002
0005
0009
0009
0007
0003
0000
0000
0006
FFFB
FFFB
FFFC
FFFE
0000
0005
0005
0002
FFFC
0000
0003
0007
000A
0000
FFF7
FFFE
0005
0008
0006
0006
0001
FFF7
FFF8
0004
0009
0008
0007
0001
FFF2
FFFF
0004
0008
0005
0006
000A
0001
0003
0002
0007
000B
000C
0004
FFF6
FFFF
FFFF
FFFF
FFF7
0001
000D
0009
0006
0000
0000
0004
0002
0000
FFF7
FFF2
FFF1
FFF6
FFF6
0004
000D
0004
0005
FFF9
FFF6
FFFA
FFF9
FFF7
FFFA
FFF1
FFF4
FFFF
000C
000D
0008
FFFA
FFFE
0001
0001
0002
0001
FFF3
FFF6
FFEF
FFFE
0003
0005
0001
FFF1
FFF3
FFF9
0002
0002
0004
FFFC
FFED
FFF6
FFF2
0003
FFFE
FFF8
FFFD
0000
0001
0004
0005
0001
0000
FFFC
FFF2
FFFC
FFF7
FFF4
FFF5
FFF8
0007
000D
000D
000A
0007
0003
FFFE
FFFE
FFFA
FFFB
FFF1
FFE9
FFE8
FFEE
FFF1
FFF8
FFFE
0002
FFFF
FFFD
FFF2
FFF7
FFFB
FFFB
FFF8
FFF4
FFE8
FFEF
FFEF
FFEF
FFE8
FFE9
FFE8
FFEF
FFF9
FFF9
FFFA
FFFB
FFFB
FFFB
FFF9
FFFE
FFFA
FFF9
FFFA
FFF8
FFFD
FFF8
FFFE
FFFF
FFFA
FFF9
FFFD
FFFE
FFF9
FFFC
FFFB
FFFC
FFFF
FFFE
FFFB
FFFB
FFFB
FFFE
FFFA
FFF9
FFFB
FFFB
FFFC
FFFC
FFFA
0000
0003
0007
0006
0000
FFFE
FFFA
FFFC
FFFD
FFFB
FFFE
FFFA
FFFC
FFFB
FFFD
FFFD
FFFC
0001
0003
0000
0001
FFFE
FFF9
FFFD
FFFD
FFFC
FFF8
0004
0006
0006
FFF8
FFF7
FFFC
FFFB
FFFB
FFFE
FFFB
FFFE
FFFB
FFFE
FFFB
FFFE
0007
0004
0002
FFF7
FFFE
FFF7
FFFA
FFFE
FFFA
FFFE
FFFA
FFFC
FFFD
0004
FFFA
FFF9
0004
0000
FFFA
FFF8
FFFD
FFFD
FFFF
FFFD
FFFD
FFFC
0006
FFF9
FFF1
FFEE
0006
0009
0003
0001
FFFC
FFFA
FFFB
FFFD
FFFE
FFF7
FFF7
FFE9
FFE8
FFF4
000B
0011
000A
FFFF
FFFE
FFFA
FFFA
FFFE
FFFC
FFF5
FFED
FFE7
FFE8
FFF7
0004
0002
FFFB
FFFC
FFFC
FFFD
FFF9
FFF9
FFFC
FFF2
FFF2
FFF7
FFFF
0002
FFFA
FFF3
FFF6
FFFA
FFFC
FFFE
FFFE
FFFE
FFFF
FFF8
FFFA
FFF7
FFFD
FFFB
0000
FFFB
FFF8
FFFA
FFFA
FFFA
FFFA
FFFD
FFFF
FFFD
FFFE
FFF9
FFFB
FFFA
FFF7
FFFD
FFFC
FFFA
FFFF
FFFE
FFFC
FFFA
FFF9
FFFB
FFF9
FFFB
FFFD
FFFF
FFFE
FFFA
FFFE
FFF9
FFFB
FFFD
FFFE
FFFE
FFFE
FFFF
FFFE
FFFF
FFFE
FFFE
FFFA
FFFA
FFFC
FFFF
FFFF
FFFC
FFF9
FFFE
FFFE
FFFD
FFFC
FFFB
FFFA
FFFE
0000
FFF9
FFF9
FFFF
FFFF
FFFF
FFFA
FFFD
FFFC
FFFA
0000
FFFA
FFFF
0003
FFFF
FFFF
0000
FFFF
0000
FFFF
FFFD
FFFB
FFFD
FFFB
0000
0001
0004
0001
FFFD
FFFD
FFFD
FFFE
FFFE
FFFA
FFFB
FFFA
FFFF
FFFF
0000
0001
0000
FFFF
FFFC
FFFF
0001
0002
0000
FFF9
FFFC
FFF9
FFFB
0003
0006
0003
0000
FFFE
FFFC
0003
0004
0008
0002
FFFC
FFFD
FFFC
0000
0001
FFF9
FFFD
0005
0004
0001
0003
0002
0002
FFFF
FFFE
FFFE
FFFE
FFF9
FFFC
FFF6
FFFC
0006
0006
FFFD
FFFA
FFF7
FFFC
FFFE
FFFA
FFFE
FFFA
FFF7
FFFB
FFFE
0006
0009
FFFD
FFFA
FFF9
FFFB
FFFD
FFFB
FFFB
FFFD
FFFF
FFFB
0005
0007
0006
0005
FFF9
FFFC
FFFE
FFFC
0002
FFFB
FFFE
FFFB
FFFE
FFFC
0007
FFFF
FFFE
FFFD
FFFE
FFFE
FFFE
FFFE
FFFD
FFFD
FFFE
FFFE
FFFE
FFFC
FFFD
FFFE
FFFD
0000
0003
0006
0001
0001
FFFC
FFFD
FFFA
FFFC
FFFC
FFFC
FFFE
FFFA
FFFB
0004
0002
FFFE
FFFD
FFFC
FFFA
FFFC
FFFA
FFFD
FFFA
FFFC
FFFD
FFFB
FFFC
FFF9
FFFD
FFFE
FFFB
FFFF
FFFE
FFFB
FFFE
FFFE
FFFC
FFFC
FFFA
FFFF
FFFD
FFFA
FFF9
FFF9
FFF9
FFFA
FFFA
FFFB
FFFE
FFFD
FFFF
FFFE
FFFC
FFFE
FFFD
FFFF
0000
FFFB
FFFB
FFFE
FFFC
FFFE
FFFE
FFFC
FFFC
FFFA
FFFA
FFFE
FFFF
0001
0002
0005
0002
FFFC
FFFE
FFFF
0000
FFFD
FFFC
FFFC
FFFD
FFFE
0000
0001
0001
0001
0001
0003
0005
0000
FFFD
FFF9
FFFA
0000
0004
0005
0004
FFFE
FFFB
FFF7
0001
0000
0001
0000
0000
FFFA
0000
0002
0005
0004
0007
0004
FFFD
FFFE
0002
0002
0004
0001
FFFC
FFFF
FFFE
FFFD
FFFD
FFFB
0002
0004
0002
0001
FFFB
0002
0000
FFFE
0000
FFFE
FFFB
FFF6
FFF6
FFF6
0004
0007
0003
0000
FFFB
FFF6
FFF9
FFF9
FFFC
FFFF
FFFE
FFFB
FFFF
FFFE
0009
0003
FFFE
FFFE
FFF6
FFFB
FFFD
FFFC
FFFD
FFFD
FFF8
FFFC
0002
0001
0006
FFFE
FFF5
FFFB
FFFA
FFFD
0000
FFFA
FFFC
FFFA
FFFD
FFFE
0000
0001
0000
FFFB
FFFF
FFFB
FFFF
0001
0001
FFFA
FFFE
FFFF
FFFC
FFFE
FFFE
FFFE
0000
0007
0005
0001
0003
0000
FFFF
FFFE
FFFF
FFF9
FFFC
FFFB
FFF9
FFFE
0002
0001
0005
0004
0001
0002
FFF9
FFFF
FFFA
FFFC
FFFF
FFFA
FFFB
FFFD
FFFB
FFFC
FFF9
FFFA
FFFF
FFFA
FFFD
FFFD
FFFC
FFFE
FFF9
FFF9
FFFD
FFFA
FFFD
FFFA
FFFA
FFFB
FFFD
FFFB
FFFE
FFFA
FFFE
FFFE
FFFA
FFFB
FFF9
FFFA
0001
0001
0000
0001
FFFD
FFF9
FFFD
FFFA
FFFE
FFFC
FFFD
FFFF
FFFF
FFFF
FFFD
0002
FFFF
0003
0000
FFFE
FFFD
FFFB
0001
FFFB
FFFA
FFFE
FFFC
0004
0001
FFFF
FFFC
FFFF
0002
0002
FFFF
FFFE
0000
FFFE
FFFA
FFFB
0000
0003
000A
000A
0007
0003
0001
0005
0000
0005
0000
FFFA
FFFE
0000
FFFB
0000
0005
0005
0010
0006
FFFF
FFFF
0007
0005
FFFA
FFFD
FFFE
FFFA
FFF6
FFFB
FFFD
FFFE
000D
0004
FFFC
FFFB
0001
FFFD
0000
FFFE
FFFD
FFFC
FFFD
FFFE
FFF5
FFF8
000B
0004
FFFB
FFF6
FFFD
FFFD
FFFA
FFFB
FFFA
FFFE
FFFF
0009
0004
0008
0005
0003
0000
FFFA
FFFA
FFFB
FFFE
FFFD
FFF8
FFFE
FFFF
0005
0008
0009
0002
0000
FFFE
0000
FFFD
FFFF
FFFA
FFF9
FFF9
FFFA
0002
000A
000B
0007
0004
0005
FFFE
0001
0000
FFFD
FFFD
FFFA
FFFA
FFF8
FFF8
0001
0003
0000
0006
0002
0001
0001
0000
0000
FFFC
FFFB
FFFA
FFFD
FFF6
FFFB
FFFB
0001
0006
0006
0002
FFFE
FFFE
FFFC
FFFB
FFFD
FFFF
FFFB
FFFE
FFFB
FFFA
FFF8
FFF9
FFFC
FFFC
FFFC
FFFA
FFFB
FFFD
0000
FFFD
FFFA
FFFE
FFF8
FFFA
FFF4
FFF5
FFF8
FFFA
FFF8
FFFB
0000
FFFD
FFFD
FFFD
FFF9
FFFE
FFFE
0000
0001
FFFB
FFF7
FFF6
FFF9
FFF8
0001
0001
FFFA
FFF9
FFF6
FFFD
FFFE
0000
0004
0006
0006
0002
0000
0000
0000
0005
FFF9
FFF7
FFF8
FFFE
0002
0002
0004
0006
0003
0002
0003
0002
0008
0003
FFF5
FFFA
0000
0003
0008
0007
0000
FFFA
FFFC
FFFE
0005
0008
0008
0002
FFF7
FFFB
0007
0009
0006
0008
0007
FFFD
FFF6
0000
0008
000C
0007
FFFE
FFFC
FFFC
0005
0006
0000
0005
000B
0007
0001
0000
0004
0007
000A
0000
FFFA
FFFB
FFFA
FFF8
FFF8
FFFF
000C
0008
FFFF
FFF7
FFF6
FFFD
FFFE
FFFC
FFFC
FFF0
FFF9
FFFC
FFFD
0004
0009
0005
FFFD
FFFA
FFF8
FFF9
0000
FFF4
FFF7
FFF3
FFFC
0003
0006
0008
0004
FFFB
FFFF
0000
FFFF
FFFE
FFFD
FFF0
FFFA
FFF5
0000
0006
0004
FFFF
FFF8
FFF9
FFFA
FFFC
0000
0002
FFFA
FFF6
FFFC
FFF5
0000
0004
FFFD
0003
0009
0007
0002
0006
0002
FFFD
FFFA
FFF6
FFF9
FFF5
FFF2
FFF8
FFFE
0003
0007
000A
0009
0009
0006
0000
FFFE
FFF8
FFFB
FFF4
FFF4
FFF1
FFF2
FFF2
FFFA
FFF8
FFFC
0002
FFFA
FFFA
FFFB
FFFB
FFFA
FFF8
FFF8
FFF7
FFFA
FFFA
FFF3
FFFB
FFF5
FFFB
FFF6
FFFA
FFFC
FFF8
FFF9
FFF8
FFF9
FFF5
FFED
FFEE
FFE8
FFF2
FFF7
FFF8
FFF6
FFF4
0000
FFF7
FFF7
FFF5
FFF5
FFF8
FFFA
FFFF
0009
0011
000B
0008
0001
FFFA
FFFB
0003
FFFA
FFF6
FFF8
FFF3
FFF9
FFFD
0007
000A
000C
0006
0005
FFFE
FFFC
0003
FFF7
FFFE
FFF8
FFFD
FFFC
0003
FFFF
0000
FFFF
0003
0005
0007
0004
0001
FFF5
0000
0002
000C
000D
000C
0000
FFF5
FFF5
0009
000E
000B
0006
FFFC
FFF4
FFFF
0007
0012
000E
0011
000C
FFFA
0002
000B
000F
0011
000A
0003
FFF8
FFF6
FFFE
FFF9
FFF9
0001
000A
000C
000C
0004
0003
FFFD
FFFE
FFFB
FFF8
FFF4
FFF0
FFF2
FFF0
0001
000D
000B
0004
FFFA
FFF3
FFF7
FFF6
FFF8
FFF3
FFEF
FFF5
FFF8
0005
000B
0007
0001
FFFD
FFF7
FFF7
FFFD
FFFF
FFEB
FFF8
FFF2
FFFE
FFFE
0000
FFFE
FFF4
FFF5
FFFB
FFFA
0000
FFFF
0000
FFF3
FFF8
FFF1
0002
0006
0004
0007
0009
0007
0008
0005
0004
FFFF
FFF6
FFF9
FFFC
FFF2
FFF2
FFFC
0001
0003
0007
000A
0007
0007
0006
0001
FFFA
FFF8
FFFC
FFF8
FFED
FFED
FFED
FFF1
FFF5
FFF9
FFFA
FFFD
FFFA
FFF5
FFF8
FFFA
0000
0000
0003
0000
FFFF
FFFD
FFFF
FFF9
FFFE
FFFE
0004
0004
0001
0002
0004
0000
0001
FFFD
FFF7
FFF6
FFEA
FFE7
FFEB
FFF4
FFF6
FFFD
FFFE
0002
0002
FFFB
FFF3
FFF2
FFF7
FFF6
FFF1
FFF2
FFE9
FFEE
FFEA
FFEF
FFF4
FFFD
FFFA
FFEC
FFF0
FFF2
FFF1
FFFE
0004
0009
000A
0006
FFFA
FFF4
FFF0
FFF4
FFF9
FFEB
FFF7
FFF6
FFF4
0003
000E
000D
000D
0006
FFFC
FFF4
FFEC
FFF1
FFF5
FFF8
FFFA
FFFE
0003
0005
0005
0002
FFFC
FFFF
FFFB
FFFA
FFF1
FFEC
FFF5
0000
0006
0005
0009
0007
FFFD
0007
000A
0009
000B
0003
FFFA
FFF3
FFFC
0004
0008
0006
0005
0002
0002
000F
0008
000A
0004
FFFA
FFF3
FFF3
FFFC
0000
0004
0007
0004
0002
0000
0004
0006
0001
FFF5
FFF2
FFED
FFF1
FFFB
FFF8
FFFF
0001
0007
0002
0000
FFFE
0004
FFFD
FFF6
FFF7
FFED
FFF5
FFFB
FFF5
FFF8
FFF8
FFF8
FFF2
FFF2
FFFC
FFF8
FFFB
FFFC
FFF8
FFF7
FFFF
0001
FFF9
FFFC
FFFC
FFF5
FFF4
FFFA
FFF8
FFF3
FFF7
FFF9
FFFA
0002
0002
FFFF
FFFE
FFFA
FFFB
FFFF
FFFA
FFF7
FFF9
FFF9
0002
0003
000B
0009
0003
0003
0003
000A
000E
000B
000B
0009
0006
0006
000E
000E
000C
0004
FFFF
0002
0000
FFFC
FFFD
FFFD
FFF7
FFF7
FFF6
FFF6
FFF8
FFF8
FFFE
FFFD
FFFC
0001
FFFC
FFFD
FFF5
FFF9
FFF7
FFF7
FFF2
FFF1
FFF1
FFF5
FFF3
FFFA
FFFB
FFFE
FFF9
FFEC
FFF0
FFF8
FFFF
FFFD
0002
FFFB
FFF9
FFF8
FFF0
FFEC
FFF2
FFF7
FFE8
FFF1
FFF3
FFFB
0004
0010
0011
000F
0009
FFFF
FFF5
FFED
FFF0
FFF4
FFEC
FFFE
0002
0005
0006
0003
FFFF
FFFF
0003
0000
FFF8
FFEE
FFEC
FFF0
FFFA
0009
000A
000C
0003
FFF9
FFFF
0005
000C
000C
0004
FFF8
FFED
FFF3
0004
0007
0007
0006
FFFE
0005
0009
0009
000C
0007
0000
FFF4
FFF0
FFFA
0003
FFFC
FFFC
0001
0006
0003
FFFE
0006
FFFE
FFFA
FFF7
FFEB
FFED
FFF9
FFFB
FFFB
FFFB
0000
0003
FFFE
0001
0001
FFF8
FFF7
FFF5
FFEA
FFF0
FFFA
FFF5
FFF3
FFF7
FFF8
FFF2
FFFC
FFFB
FFF7
FFF9
FFFB
FFF4
FFF8
FFF8
FFFA
FFF3
FFF8
FFF3
FFF9
FFF8
FFF9
FFFC
FFF3
FFF9
FFFC
0000
FFFE
0000
FFFD
FFF7
FFF8
FFFF
FFFF
FFFF
FFF9
FFF3
FFF4
FFFC
0003
000A
0007
FFFC
0002
FFFB
0003
000A
000B
0007
0003
0001
0009
000E
000F
000A
0008
FFFC
FFFE
0001
0007
0006
0008
000D
0002
0005
FFFF
0003
0004
0007
0004
0000
FFFD
FFFC
FFFD
0001
0000
FFFE
0001
FFFD
FFFC
FFFC
FFFF
0000
0001
FFFF
0000
FFFE
0001
0002
FFFC
0000
FFFE
FFFB
FFFA
FFFA
FFFE
FFFE
FFFD
FFFF
0002
0001
0001
FFFD
0001
FFFF
0002
0003
000A
0004
0002
FFFF
FFF9
FFFD
FFFE
0000
FFFD
0002
0002
FFFD
0005
000E
0012
000A
0002
FFFE
FFFD
FFFE
0000
FFFD
0001
FFFE
FFFB
0001
0006
FFF9
0001
0012
0006
0001
0001
FFFE
FFFF
FFFD
FFF9
FFF9
FFF5
FFF6
0006
000A
000E
0010
0006
0004
0002
FFFF
FFFD
FFFF
FFFF
FFF9
FFF5
FFFA
FFFE
0007
FFF9
FFF0
FFEE
FFFB
FFFB
FFFF
FFFE
FFFD
FFFD
FFFA
FFFC
0008
000B
FFFE
FFE5
FFE7
FFF2
FFFC
FFFC
0000
0000
0001
FFFC
FFFE
0004
000A
000F
0004
FFE6
FFEB
FFF5
FFFC
FFFF
FFFF
FFFE
0002
0001
0001
0003
0009
0003
FFFC
FFF0
FFF8
FFFF
FFFE
FFFD
0002
FFFD
0000
FFFE
0004
0009
000E
0007
FFFB
FFFF
FFFB
FFFF
0002
FFFF
0001
FFFF
0001
0000
FFFE
FFFF
0003
FFF8
FFF6
FFFB
0000
0003
FFFF
0002
0002
0002
0002
0001
FFFD
FFFF
FFFA
FFFD
FFFC
FFF9
FFFF
0000
0001
FFFE
FFFF
FFFE
0000
FFFD
0001
0000
FFFC
FFFB
FFFD
FFFD
FFFD
FFFB
FFFD
0001
FFFF
0000
FFFD
FFFD
FFFE
0002
FFFC
FFFE
0002
FFFF
FFFD
0001
0001
FFFE
0000
0000
FFFD
FFFD
0002
FFFC
FFFD
FFFD
FFFB
FFFB
FFF9
0000
FFFF
0001
FFFC
0002
FFFC
FFFC
FFFE
FFFB
FFFE
FFFE
FFFB
FFFC
FFF6
FFFD
FFFE
FFFE
FFFF
FFFC
FFFF
FFFF
FFF8
FFF9
FFFA
0001
0006
0007
FFFD
FFFC
FFF6
FFFB
0001
FFFF
FFFD
FFFF
0000
0000
0008
0009
0008
0003
FFFD
FFF9
FFF7
FFF7
0001
0001
FFFB
0001
0007
0008
0006
FFFD
FFFA
FFFF
0002
0005
FFFE
FFFF
0001
0000
FFFB
0003
0005
0007
0001
FFF8
0001
0007
000B
0006
0000
FFFC
FFFF
FFFF
FFFE
0003
0000
0002
FFFC
0001
0001
0006
0009
0000
FFFE
FFFF
FFFF
FFFF
FFFD
0001
FFFD
0000
FFFC
FFFD
0001
0008
FFFE
FFFC
FFFE
FFFC
FFFD
FFFE
FFFD
FFFB
FFFE
FFFD
FFF8
FFFB
0005
0000
FFFB
FFFB
FFFC
FFFA
FFFC
FFFF
0000
FFFF
FFF9
FFFC
FFF9
FFFE
0001
FFFA
FFFD
FFFC
FFFD
FFFE
FFFF
0000
0002
FFFF
FFFC
FFFC
FFFD
0001
FFFF
FFFC
FFFB
FFFE
FFFF
0000
FFFF
FFFC
FFFE
0002
FFFF
0000
0002
0002
FFFD
FFFF
0004
0007
0001
0002
FFFE
FFFF
FFFF
FFFF
0000
0005
0003
0006
0003
0005
0004
0003
FFFE
0000
0001
0002
0001
0002
0001
0002
FFFD
FFFC
0000
0000
0000
FFFD
FFFF
0001
FFFF
FFFE
FFFC
0002
0000
0000
FFFD
FFFB
FFF6
FFF8
FFF7
FFF9
FFFB
FFFD
FFFE
FFFE
0002
FFFC
FFFB
FFFC
FFF9
FFFA
FFFB
FFFB
FFFB
FFF6
FFF9
FFF8
FFFF
FFFE
FFFC
FFF9
FFFA
FFFC
FFFE
0008
000D
0008
0000
FFFB
FFF8
FFF6
FFFD
FFFD
FFFC
FFFA
FFFC
0003
0003
0007
0000
0001
FFFC
FFFE
FFFB
FFF4
FFFB
0000
FFFB
0003
0008
0007
0002
FFFC
FFFD
0000
0008
0004
0002
FFFD
FFFF
FFFD
0003
0008
0006
0005
0002
FFFB
0004
0007
000C
0006
0003
FFFE
FFFD
FFFF
0002
0005
0005
0000
0003
0003
0003
0008
0006
FFFE
FFF9
FFF9
FFFE
0002
FFFF
FFFE
FFFF
0001
FFFD
FFFB
0003
0007
FFFF
FFF9
FFFA
FFFA
0002
FFFE
FFFB
FFFC
FFFC
FFFB
FFF9
FFFD
FFFE
FFFD
FFFD
FFFC
FFF8
FFFD
FFFF
FFFE
FFFC
FFFE
FFFB
FFFB
FFFA
FFFA
FFFF
FFFA
FFFA
FFFC
FFFB
FFFD
FFFE
FFFF
FFFE
FFFA
FFF9
FFFE
FFFA
FFFB
FFFB
FFFD
FFFE
0001
0001
0004
FFFD
FFFC
FFFE
0003
0000
0002
0006
0000
0000
0006
0008
0006
0002
0000
0002
FFFE
FFFD
0000
0000
0006
0006
0006
0003
0007
0007
0004
0001
FFFE
FFFD
FFFD
0001
0002
0001
0000
0000
FFFD
0001
FFFC
0001
0002
0002
FFFD
FFFF
0001
FFFF
FFFD
FFFD
FFFF
FFFD
FFF8
FFF8
FFF6
FFF9
FFFB
FFFC
FFFD
FFFE
0002
0002
0001
FFFD
FFFE
FFF9
0001
0008
0006
FFFF
FFF8
FFFB
FFFC
0001
FFFC
0001
FFFD
FFF9
FFFD
FFFA
0000
FFFC
FFFF
FFFC
FFFE
FFFE
FFF9
FFFF
FFFC
FFFE
FFFD
0004
0004
0000
FFFB
FFFD
0005
0003
FFFE
FFFE
FFFB
FFFE
0000
0002
0005
000A
0009
0008
0006
FFFE
FFFF
0000
0005
0003
FFFC
FFFD
0000
FFFE
0000
0007
0008
000A
FFFF
FFFD
FFF8
0003
0006
0008
FFFE
0001
FFFD
0001
FFF9
0000
0001
0004
FFFD
FFFF
FFFB
0004
0007
0003
FFFE
FFFD
FFFF
FFFE
FFFE
FFF9
FFFA
FFFD
0007
FFFF
0003
0008
0001
FFFB
FFF7
FFFE
0000
FFFF
FFF9
FFFC
FFF6
FFFA
FFFE
FFFD
0008
0000
FFFD
0000
FFFD
0002
FFFF
FFFE
0000
FFFB
FFFB
FFFF
FFFC
0000
0003
FFFD
FFFF
FFFD
0001
FFFE
FFFE
FFFD
0001
0001
0001
0000
FFFE
0002
FFFD
FFFC
FFFC
FFFF
0000
FFFE
0002
0001
FFFF
0003
0003
0006
0000
0003
FFFE
0005
0003
0002
0003
FFFE
0002
0001
FFFD
0000
0001
0006
0007
0007
0005
0003
0007
0003
FFFD
0002
FFFE
0002
FFFF
FFFC
FFFC
FFFC
FFFA
FFF8
FFF4
FFFC
FFFF
0001
FFFE
0003
0000
0002
FFFB
FFF9
FFF5
FFF4
FFF2
FFEF
FFF0
FFF5
FFF4
FFF5
FFFB
FFFF
0002
FFFB
FFF0
FFF4
FFFB
FFFA
FFFD
FFF5
FFF6
FFF2
FFF2
FFEE
FFF1
FFFB
FFF8
FFEE
FFF0
FFF1
FFF9
FFFB
0004
000E
000C
0002
FFF8
FFF1
FFEC
FFF0
FFF6
FFF0
FFF5
FFFD
0000
0001
0003
0007
0004
0003
FFF9
FFF4
FFEF
FFEC
FFF3
FFF7
0000
0005
0005
0008
FFF9
FFFA
FFFD
0008
0001
FFFC
FFEF
FFF0
FFF2
0003
0007
0006
0007
0003
FFF7
0006
0007
0009
000C
0003
FFF6
FFF2
FFFD
0002
000A
0007
0005
0001
0002
0002
0009
0005
0002
FFFA
FFEE
FFF2
FFFB
FFFE
FFFE
FFFE
0001
0002
FFFC
FFFD
0003
FFFE
FFF8
FFF9
FFED
FFF5
FFFB
FFF7
FFFB
FFFB
FFFD
FFF9
FFF8
FFFE
0005
FFFA
FFFE
FFF9
FFF2
FFF4
FFFD
FFF7
FFFB
FFFB
FFF6
FFF2
FFF7
FFFF
FFFE
FFFB
FFFA
FFFC
FFF9
0000
FFFD
FFF9
FFFA
FFFC
FFFB
FFF8
FFF6
FFF9
FFF8
FFFF
FFFD
0004
FFFF
0001
0000
FFF9
0002
0000
0002
0003
0001
FFFF
0000
0006
0009
000B
0007
FFFE
0002
FFFF
0008
000E
000B
000B
0009
0006
0009
000C
000A
0009
0002
0001
0001
0000
FFFC
FFFF
FFFD
FFF8
FFF9
FFFD
FFFD
FFFC
FFFD
FFFC
FFFB
0001
FFFF
FFFD
FFFF
FFFC
FFF5
FFF3
FFEE
FFF0
FFF4
FFF3
FFF7
FFF4
FFF9
FFFF
FFFF
FFFD
FFF5
FFED
FFEB
FFED
FFF7
FFF5
FFED
FFEC
FFED
FFEA
FFEE
FFF6
FFFD
FFEF
FFEA
FFEB
FFEF
FFFC
000F
0012
0013
0006
FFFD
FFEE
FFEC
FFF1
FFF3
FFEC
FFEA
FFF0
FFF4
0000
000C
0011
000E
0005
FFF9
FFED
FFEA
FFE8
FFED
FFF1
FFFA
FFFA
0000
0008
0005
FFF8
FFF6
FFFB
FFFB
FFF7
FFEB
FFEF
FFF2
0002
0005
0007
0007
0006
0002
000E
0006
0008
0007
0000
FFF5
FFED
FFF6
0005
000A
0005
0002
0004
000B
000F
0003
0006
FFFF
FFFC
FFEF
FFF0
FFF5
0000
0001
0005
0008
0003
0002
FFFD
0000
FFFF
FFF1
FFF0
FFEE
FFEC
FFF8
FFF8
FFFE
0001
0006
0005
0000
FFFE
0001
FFFA
FFF5
FFF2
FFE6
FFF0
FFF6
FFF5
FFF7
FFF6
FFF3
FFEF
FFF6
FFFD
FFFA
FFFA
FFFA
FFF3
FFF7
FFFE
FFF8
FFFA
FFF9
FFF7
FFF7
FFF7
FFF8
FFF3
FFF0
FFF6
FFF9
FFF9
0000
FFFF
FFFC
FFFA
FFFD
0000
FFFF
FFFC
FFF7
FFF6
FFFD
0004
0006
000E
0008
FFFB
FFFE
FFFC
000A
000B
0009
0007
000B
000C
000A
000E
000B
000B
0003
0003
