0000
0001
FFFF
FFFC
FFFC
0000
FFFC
FFFF
FFFE
0000
FFFD
0000
FFFE
FFFD
FFFF
0001
FFFC
0000
FFFE
FFFC
0001
0004
0001
0001
FFFC
0000
FFFC
0001
FFFE
FFFB
0000
FFFC
FFFA
0001
0004
0003
0004
FFFF
FFFB
FFFB
FFFB
FFFF
0002
FFFD
FFFF
FFFA
0000
FFFF
FFFD
FFFE
FFFF
FFF9
FFF7
FFF8
FFFD
FFFF
FFFF
FFFD
FFFF
0000
0000
0003
0002
FFFE
FFF6
FFF3
FFFC
FFFA
FFFE
FFFC
FFFF
FFFB
0004
0001
0002
0002
FFFA
FFEF
FFF9
FFFE
FFFE
FFFF
FFFC
FFFE
FFFC
FFFE
0007
0001
0002
FFFE
FFF3
FFF4
0002
0003
0008
FFFE
FFF8
FFFE
FFFD
0000
0006
0006
0005
FFF7
FFED
FFFA
000E
0005
0009
0004
FFF9
FFFE
0000
FFFC
0004
0004
0004
FFF5
FFF7
000C
000D
0003
0002
0001
FFFB
FFFD
0001
FFFE
0004
FFFE
0001
FFF8
0001
000A
0006
0001
0003
FFF9
FFFF
FFFD
FFFD
0000
0000
FFFD
0003
FFFC
FFFF
0002
0001
0001
FFFF
FFFE
FFFC
0000
FFFB
FFFE
FFFC
FFFC
FFFF
FFFB
FFFD
FFFA
FFFB
FFFE
0001
0000
0000
FFFE
FFFF
FFFC
FFFC
0002
FFFE
FFFD
FFFB
FFFA
FFFC
FFFC
0002
FFFD
0001
FFFC
FFFC
FFFD
FFFE
FFFF
FFFB
FFFA
FFFE
FFFD
0000
0001
FFFE
0000
0001
0000
FFFD
FFFE
FFFF
0001
FFFE
0001
FFFE
0000
FFFD
0001
FFFC
0000
FFFF
FFFD
0002
FFFC
FFFD
0001
0000
0001
0001
0005
0005
FFFD
FFFC
FFFD
FFFD
FFFB
0001
0001
0001
FFFE
FFFF
0002
FFFE
FFFF
FFFF
0000
FFFF
FFFF
FFFF
FFFC
FFFE
FFFC
FFFD
0000
FFFD
0000
FFFE
FFFB
FFF8
FFF4
FFFB
FFFB
FFFD
0000
FFFC
0000
0001
FFFF
FFFC
FFFE
FFFB
FFF2
FFF5
FFF3
FFFB
FFFB
FFFC
FFFC
0001
FFFF
0000
FFFE
0001
0000
FFF6
FFF9
FFFA
FFF5
FFFD
FFF9
FFFF
FFFC
FFFE
0001
0002
FFFF
0003
FFF8
FFFB
0000
0005
0001
0003
FFFA
FFFD
FFFE
FFFF
FFFC
0000
FFFE
FFF6
FFF5
FFFC
0008
000C
0003
0004
FFFA
FFFB
FFFF
FFFC
FFFE
FFFE
FFF6
FFF3
FFF4
0006
000A
0005
0000
0003
FFFF
FFFC
0001
FFFE
FFFF
0000
FFFB
FFF9
FFF8
0006
0005
0001
0004
0003
FFFF
FFFD
FFFF
0001
FFFC
0000
FFFC
FFF8
FFF5
FFFA
0002
0006
0006
FFFF
0001
FFFE
0001
FFFC
FFFC
0001
FFFD
FFFC
FFFB
FFF7
FFFE
0003
0004
FFFF
FFFE
FFFC
FFFB
FFFF
FFFD
FFFD
0002
0001
0005
0006
0000
0002
FFFF
FFFF
FFFF
FFFD
FFFE
FFFD
0001
FFFC
FFFC
FFFE
FFFF
FFFB
FFFA
FFFF
FFFE
FFFE
FFFF
FFFC
FFFC
0001
0001
FFFD
FFF9
FFF2
FFF5
FFF0
FFF3
FFEA
FFED
FFF7
FFF8
0002
0001
FFFD
FFFB
FFF5
FFFE
FFFD
FFF5
FFF4
FFEE
FFEE
FFED
FFF8
FFFC
FFF8
FFFF
0002
FFFA
FFFD
FFFA
0001
0000
FFFF
FFFE
0002
FFF9
FFFC
FFFD
FFF2
FFF8
FFF9
FFF1
FFFD
FFF8
FFFC
FFFF
0002
0005
000A
0007
0001
0007
FFED
FFEC
FFFE
FFF5
FFFC
FFF7
FFFA
FFFB
FFFF
0009
0012
000E
0003
0004
FFF1
FFE9
FFFB
FFF9
0002
FFFC
FFF9
FFFF
FFFE
FFF5
0007
0010
0004
0007
FFF2
FFED
FFF8
FFF9
0000
FFFC
FFFD
FFF7
FFEB
FFDF
FFEE
0005
0004
0007
0002
FFF5
0000
0000
0003
0007
0006
FFF5
FFE5
FFE4
FFEF
FFF8
FFFE
0008
0000
FFFB
FFF9
FFFC
0006
0007
000C
FFF7
FFE2
FFE9
FFF1
FFF5
FFF8
0000
FFFD
FFF5
FFF8
0002
0004
0004
000F
FFFD
FFF1
FFF1
FFF5
FFF5
FFF6
FFFA
FFF8
FFF4
FFF8
FFFE
0002
0001
000B
0008
FFFF
FFFC
FFF7
FFF4
FFF2
FFF7
FFF7
FFF9
FFF7
FFF1
FFFD
0001
0006
000C
000A
0002
FFF7
FFF4
FFF7
FFF7
FFFB
FFFC
FFFF
FFF5
FFF4
FFF8
0000
000E
0010
0009
0000
FFFB
FFF4
FFF4
FFF7
FFFD
FFFE
FFFC
FFF3
FFE8
FFE2
FFE1
FFE3
FFE2
FFE9
FFEB
FFF2
FFF6
FFFA
0002
FFFD
FFFF
FFFC
FFFF
FFFC
0001
0000
0000
FFFB
FFFB
FFFC
0001
FFFC
FFFE
0000
FFFC
FFFD
0000
0002
0000
FFFE
0000
0001
FFF8
FFFD
FFFF
FFFB
FFFE
FFFF
FFFF
FFFF
0000
FFFC
0002
0000
0000
0006
0006
0001
FFFD
FFFF
0001
FFFE
0000
FFFF
0001
FFFD
FFFF
FFFE
FFFD
0005
0006
0004
0002
FFFB
FFFB
FFFC
FFFC
FFFB
FFFD
FFFC
FFFB
0000
FFFD
0000
0009
0007
0003
0003
FFFD
0001
FFFD
FFFC
FFFD
FFFF
0000
0005
FFFE
FFF6
0002
0003
0006
0005
FFFC
FFFB
FFFC
FFFB
0002
0002
0007
0007
FFF3
FFEF
FFFD
FFFE
0004
000C
0000
FFFD
FFFE
FFFC
0003
0006
000E
000B
FFEA
FFED
FFFC
0002
0007
0004
FFFB
FFFC
FFFF
FFFD
0003
000B
0012
0002
FFE9
FFF6
0002
0002
0000
0000
FFFE
0001
0001
FFFC
FFFC
0008
000E
0008
FFF8
FFFB
0000
FFFD
FFFF
FFFE
FFFB
FFFC
0002
FFFE
FFFE
0002
000F
0005
FFFB
FFFE
FFFE
FFFC
0001
FFFB
0000
0001
0001
FFFD
FFFB
FFFD
FFFE
0005
FFFF
FFFD
FFF8
FFFE
FFFF
0000
FFFB
0001
0001
0000
FFFF
FFFD
FFFA
FFFE
FFFD
FFF8
FFFD
FFFE
FFFF
0000
FFFE
0000
FFFE
0001
FFFF
0000
FFFB
FFFF
FFF8
FFFB
FFFD
FFFE
FFFD
0000
0001
FFFE
0001
FFFF
FFFE
0001
FFFD
FFFC
FFF6
FFFA
FFFB
FFF9
FFF8
FFFA
FFFC
FFFF
0002
FFFA
FFF3
FFF7
FFF9
FFFB
FFF6
FFF1
FFEE
FFF1
FFF6
FFF7
FFFD
0000
0001
FFF4
FFFD
FFFC
0000
0000
0007
0001
FFFE
FFFA
FFFF
FFF9
FFF3
FFF8
FFFC
FFF8
FFFB
FFF7
FFFA
FFFF
0003
0005
0007
0004
FFFD
FFFF
FFEF
0000
FFF3
FFF6
FFF9
FFFF
FFFD
0000
0008
0009
0003
0003
0002
0005
FFEC
0000
FFF6
FFF5
0000
FFFF
0001
0007
FFFE
FFF7
FFF9
0006
0006
0009
FFF4
FFF9
FFF2
FFFC
0005
0000
0008
FFFF
FFED
FFEB
FFF1
0001
0006
000D
FFFB
0000
FFF0
0001
0001
0006
0009
FFF0
FFEB
FFEE
FFF8
0001
0004
000C
FFF7
FFFC
FFF1
0003
0000
0007
0002
FFF4
FFEF
FFF8
0007
0004
0006
0003
FFF8
FFF7
FFF3
FFFC
0001
000A
FFFE
FFF5
FFF6
0006
0006
0002
0006
FFFF
FFF8
FFFC
FFFA
FFF9
0000
0005
0007
0004
0002
0003
0001
0003
FFFF
FFFA
FFFB
FFF8
FFF9
FFFD
FFFF
0006
0008
000A
0008
0006
0004
FFFC
FFFC
FFFC
0000
FFFE
FFF6
FFF7
FFFA
FFFE
0001
0003
FFFD
FFF9
FFF8
FFF3
FFF6
FFF8
FFFB
0002
FFFA
FFF1
FFF1
FFEC
FFEF
FFED
FFEB
FFF0
FFF4
FFF2
FFF7
FFFC
FFFF
0000
FFFE
FFFA
FFFE
FFFA
FFFA
FFF5
FFFB
FFF9
FFF2
FFF5
FFF6
FFFB
0001
FFFE
FFFF
FFF8
FFF9
FFF6
FFF6
FFF6
FFF6
FFEC
FFEF
FFF3
FFF3
FFFB
FFFF
FFFC
FFF6
FFF7
FFF8
FFFC
0003
0006
0007
0009
0001
FFFB
FFF6
FFF3
FFF0
FFFB
FFF4
FFFB
FFF7
FFFA
FFFF
0004
0008
0006
0004
FFFA
FFFA
FFEE
FFF0
0000
FFF5
FFFB
FFFB
FFFE
0002
0004
0003
000C
000F
0003
0004
FFE6
FFEF
FFFF
FFFA
FFFF
FFFD
FFFE
0003
FFF9
FFF3
FFFE
000D
0009
000A
FFEF
FFF4
FFFA
FFFB
0005
0003
0005
FFFE
FFEE
FFE2
FFF1
0005
0001
000D
0006
FFF8
FFFB
FFF9
0005
0008
0007
FFFC
FFE8
FFE5
FFF2
0005
0005
000A
0002
FFF5
FFF8
FFF9
0006
000A
0008
FFF9
FFE7
FFEF
0002
0007
0003
0004
FFFE
FFF9
FFF8
FFF7
0003
0003
000B
FFFD
FFF3
FFF9
0004
0001
0000
0002
FFFC
FFF4
FFFB
FFF8
FFFE
FFFF
000C
0008
0002
FFFD
FFFC
FFFB
FFFD
FFF8
FFF8
FFFD
FFF9
FFF3
FFFF
0002
0007
0007
0003
0005
FFFB
FFF8
FFF6
FFF9
FFFB
0000
FFFF
FFF4
FFF5
FFF4
FFFA
FFFA
FFFD
FFF6
FFF5
FFEF
FFEF
FFF2
FFFC
FFFD
0002
FFFC
FFF8
FFF2
FFEA
FFEE
FFE9
FFED
FFEC
FFF3
FFF6
FFF6
0000
0002
FFFE
0000
FFFD
FFFE
FFF8
FFF8
FFF5
FFF3
FFF8
FFF6
FFFB
FFFD
FFFC
FFFE
FFFE
0001
FFF8
FFFB
FFF9
FFF7
FFFC
FFF7
FFFA
FFF7
FFF8
FFF7
FFF6
FFFC
0000
FFFC
FFF9
FFFC
FFFD
FFFF
0000
0005
0003
0005
FFFD
FFFE
FFF6
FFF4
FFFE
FFF5
FFFD
FFF9
FFFE
FFFE
0004
0008
0009
0006
0000
0003
FFFD
FFF0
0001
FFF8
FFFB
FFFA
FFFE
FFFE
0003
0007
0008
000A
0004
0004
0002
FFED
FFFB
FFF6
FFFF
0004
FFFE
0006
0002
FFF8
FFF9
0003
0004
0008
000B
FFEF
FFFA
FFF6
0003
0004
0005
0006
FFF4
FFF2
FFF5
FFF5
0005
0004
000B
FFFB
FFFF
FFF2
0005
0005
0006
0003
FFF7
FFEF
FFF3
FFFA
0002
0006
0009
FFFC
FFFE
FFF2
0006
0005
0008
0001
FFF7
FFF0
FFF9
0003
0001
0006
0003
FFF7
FFF8
FFF7
FFFE
0003
000A
000C
FFFA
FFFA
0002
0003
0003
0001
FFFD
FFFA
FFFF
FFF5
FFFF
FFFE
0007
000C
0007
0003
0002
FFFE
0001
0000
FFF7
FFFA
FFFB
FFF4
FFFD
0003
0007
000A
000A
000A
0003
FFFC
FFFC
FFFA
FFF9
FFFC
0000
FFF7
FFF5
FFF6
FFF5
FFF8
FFFA
FFF8
FFF6
FFF6
FFF4
FFF6
FFF8
0001
0002
FFFD
FFF8
FFF0
FFEE
FFF0
FFF2
FFF0
FFF3
FFF4
FFF1
FFF9
FFFC
0000
FFFF
FFFF
0002
FFFC
FFFA
FFF3
FFF2
FFEA
FFF5
FFEF
FFF4
FFF7
FFF9
0000
FFFE
FFFD
FFFA
FFF8
FFFE
FFFE
FFF6
FFF9
FFF4
FFF4
FFF6
FFF9
FFF7
FFFD
FFFD
FFFE
FFF4
FFFB
FFFE
0000
0004
0001
0000
FFFD
FFFB
FFFC
FFF4
FFED
FFFF
FFF5
FFF6
FFFC
FFFF
0001
0006
0005
0005
0007
0002
0000
FFFC
FFE9
FFFE
FFF5
FFFB
FFFB
FFFF
FFFF
0001
000C
000B
0009
0002
0002
FFFE
FFEC
FFFE
FFFA
FFFA
0002
FFFF
0002
0006
0002
FFFC
0004
0005
0003
0009
FFF1
FFFD
FFF5
0002
0004
0002
0005
0000
FFEC
FFEE
FFF9
0005
0004
000F
0000
FFFE
FFF5
0005
0007
0007
0008
FFF5
FFEC
FFF0
FFF8
0000
0006
000C
FFFB
0000
FFF1
0000
0003
000A
0003
FFEF
FFED
FFF4
0002
0003
0003
0009
FFF8
FFFC
FFF3
0001
0002
000B
0003
FFF9
FFF7
0000
0004
0000
0005
FFFF
FFF8
FFFB
FFF7
0000
0001
0008
0007
FFFF
0003
0003
0001
0001
0002
FFFB
FFFA
FFFC
FFF3
0000
FFFC
0001
000B
000B
0005
0002
0001
FFFD
FFFB
FFF7
FFFA
FFFF
FFF7
FFFA
0000
0002
0006
000D
0007
FFFC
FFFB
FFF7
FFF5
FFFC
0000
FFFF
FFF9
FFF5
FFED
FFF0
FFEF
FFEB
FFEF
FFEC
FFF2
FFF4
FFF5
FFFC
FFFD
0005
0005
0006
0003
0002
0006
0004
0004
0001
0005
0000
0003
0002
0004
0003
0001
0006
0002
0004
0003
0005
0006
0002
0003
0002
0006
0005
0003
0000
0005
0001
FFFC
FFFC
FFFE
FFFD
FFFE
FFFD
0007
0002
0003
0006
0006
0003
0002
0004
FFFA
FFFA
FFF7
FFFB
FFFB
0001
FFFF
FFFD
FFFF
0004
0001
0004
0004
FFFF
FFFB
FFFC
FFFC
0000
0003
FFF7
FFF9
0000
FFFE
0004
0001
0004
0004
FFFF
FFFC
FFF8
FFF7
0009
0002
FFF2
FFF7
0004
0002
0002
0001
0004
0003
0001
0000
FFF7
0001
000A
FFF7
FFF0
FFFB
0001
0001
0001
0001
0000
0003
0003
FFF9
FFF7
0001
0006
FFEF
FFF0
0001
0001
0005
0004
0005
0001
0002
FFFD
0000
FFFE
0003
0003
FFEF
FFF9
0004
0002
0002
0006
0003
0005
0002
FFFF
0003
0003
FFFE
FFFE
FFF0
FFF9
0004
0002
0000
0003
0004
0000
0004
0004
0003
0000
FFFB
FFF8
FFF5
FFF9
FFFE
0001
0000
0004
0005
0002
0002
0007
0005
FFFD
FFFD
0005
0001
FFFC
0004
0005
0004
0001
0005
0006
0002
0004
0004
0003
0000
0003
0009
0007
0004
0004
0006
0005
0003
0003
0004
0003
0001
0001
FFFF
0005
0005
0006
0001
0001
0002
0000
0004
0002
0005
0004
0004
0002
0004
0004
0005
0001
0006
0003
0005
0001
0003
0003
0002
0001
0005
0006
0003
0006
0005
0002
0003
0005
0006
0003
0003
0003
0005
0002
0001
FFFE
0000
FFFF
FFFD
0002
0007
0005
0002
0002
0004
0004
0005
0004
0005
0000
FFFB
FFFF
0004
0008
0002
0003
FFFF
0001
0002
0005
0005
0005
0002
FFFF
FFFF
0000
0001
FFFB
0002
0005
0002
0001
0002
0005
0001
0001
0005
0000
FFFE
0001
FFF7
FFF8
0002
0003
0004
0000
0002
0001
0001
0000
0004
FFFE
0007
0004
FFF1
FFFF
0006
0006
0000
0001
0003
0003
0000
0002
0001
0004
0007
FFFD
FFF2
0006
0008
0007
0001
0001
0001
0006
0001
0003
0007
0003
FFFF
FFF8
FFFA
0005
0004
0005
0006
0002
0003
0002
0002
0001
0007
0001
FFFC
FFFC
FFFC
0004
0005
0001
0005
0003
0001
0005
0005
0004
0005
0004
0003
0004
0000
FFFE
0001
0003
0005
0005
0003
0005
0004
0001
0001
FFFE
0002
0004
0002
FFFF
0001
0005
0006
0003
0003
0001
0005
0005
0003
0002
0007
0005
0007
0003
0005
0006
0002
0006
0001
0001
0001
0003
0005
0001
0005
0005
0001
0006
0006
0004
0005
0001
0001
FFFE
FFFE
FFFD
FFFF
FFF9
FFF9
0005
0005
FFFB
FFF1
FFFC
FFFC
FFFD
0000
0004
FFF9
FFFD
FFFF
FFF8
FFFD
FFFD
FFFC
FFF5
FFF8
FFFB
FFF6
FFFC
FFFD
FFFD
FFFF
FFFA
FFF5
FFFE
000A
000F
0003
FFFD
0003
0002
0002
FFF7
FFFA
FFF6
FFFB
FFF6
FFF1
FFF3
0004
000B
FFFB
FFEB
FFFA
FFFE
0001
FFF7
FFF6
FFFD
FFFA
FFF6
FFF7
FFF5
FFFC
000F
0003
FFF3
FFF9
FFFC
FFF3
FFE8
FFEF
FFFD
FFFB
FFF4
FFF9
FFF3
FFF7
0011
000F
0002
FFFE
FFF5
FFE8
FFE5
FFE6
FFFA
FFFA
FFF7
FFF8
FFED
FFF2
0011
0014
FFFC
FFF7
FFF3
FFEC
FFF4
FFFC
FFFE
FFF9
FFF3
FFF6
FFEB
FFF3
000F
0008
FFF5
FFF0
FFF2
FFF2
FFF6
FFFB
FFFE
FFF3
FFEC
FFF0
FFF6
0000
0010
FFFD
FFF1
FFEC
FFED
FFF6
FFF9
FFF3
FFF9
FFF1
FFEF
FFF8
FFFF
0007
000E
0001
FFF8
FFF9
FFF8
FFFB
FFF9
FFFB
FFF9
FFFB
FFFF
0000
0003
0005
0004
0007
0003
0003
FFFE
FFFF
FFF9
FFF8
FFF9
FFFB
0008
0006
0005
FFF9
FFFC
0004
000C
0002
0002
FFFA
FFF9
FFF9
0001
FFF8
0002
FFFC
FFF6
FFEE
FFE9
FFF9
000A
0003
FFFE
FFF8
FFFD
0004
0002
FFF8
FFF2
FFEB
FFE1
FFDD
FFE3
FFE9
FFE8
FFEC
FFF6
FFFB
FFFF
FFFF
0006
0006
0002
0005
0006
0005
0002
0006
0003
0002
0000
0005
0001
0001
0005
0006
0003
0001
0002
0006
0008
0008
0004
0002
0001
0005
0002
0002
0004
0005
0006
0001
0003
0001
0005
0006
0000
FFFF
0004
0005
0004
0001
0006
0005
0000
0005
0002
0000
0001
0004
FFFD
FFFD
0001
0000
FFFE
0005
0001
0002
0001
0005
FFFE
FFF8
FFFB
000C
0002
FFFC
FFFA
FFFE
FFFF
0003
0002
0001
0002
0003
0003
FFF9
FFEF
000F
0008
FFFC
FFF8
0000
FFFE
0004
0002
0001
0004
0004
FFFE
FFF3
FFEB
000A
000A
FFF9
FFFD
0000
0001
0002
0005
0001
0005
0001
0001
FFF1
FFEF
000A
0005
FFF5
FFF8
0000
0003
0001
0006
0003
0005
FFFF
FFFF
FFF6
FFF9
0009
FFFB
FFF3
FFFB
0003
0005
0002
0002
0001
0004
FFFD
FFFA
FFF7
FFFC
0008
FFF9
FFFA
0004
0003
0002
0000
0005
0002
0003
0001
FFFC
FFFE
FFFA
0000
0001
0007
0007
0000
0005
0000
0004
0004
0005
0006
0006
0004
FFFE
0002
0008
000B
0004
0003
0000
0000
0005
0005
0002
0003
0007
0000
FFFF
FFFF
0001
0006
0001
0004
0002
0003
0000
0002
0003
0004
0002
FFFE
0001
0003
0005
0000
0003
0002
0002
0006
FFFF
FFFE
0002
FFFF
FFFB
FFFA
FFF8
0002
FFFF
FFFA
FFFA
FFFF
FFFD
FFFD
0002
0001
FFFC
FFFE
FFF6
FFF4
FFFA
FFFB
FFF7
FFF1
FFEF
FFF7
FFF6
FFFD
0002
0001
0001
FFF8
FFF6
FFFB
FFFB
0004
FFFD
FFFF
000B
0006
FFFF
FFF4
FFF9
FFFF
FFFA
FFF6
FFF4
FFF6
FFF3
FFF3
FFF8
FFFD
0000
FFFD
FFF4
FFEB
FFFC
FFFA
FFF2
FFF3
FFF7
FFF7
FFF5
FFF7
0005
FFF9
FFFB
FFF6
FFEA
FFE9
FFFF
FFF9
FFF5
FFF9
FFF6
FFF5
FFF5
0011
0008
FFF9
FFF6
FFF4
FFEA
FFF2
0000
FFFD
FFF8
FFF8
FFF9
FFF5
FFFD
0009
0005
FFF5
FFF6
FFF7
FFF7
FFF9
FFF9
0003
FFF7
FFF7
FFF5
FFF1
FFFF
000B
0000
FFF0
FFF7
FFF6
FFF8
FFF8
0003
FFF9
FFF5
FFF5
FFF3
FFF4
0006
000A
FFF4
FFF3
FFF3
FFF9
FFF5
FFF8
FFFC
FFF4
FFEE
FFF2
FFFA
FFFA
0007
0004
FFF7
FFF9
FFFA
FFF9
FFF8
FFFA
FFFC
FFF3
FFF8
FFFD
0000
0002
FFFB
FFF5
FFFB
FFFC
FFFD
FFFC
FFF9
FFFE
FFFA
FFFA
0007
0005
0009
FFFB
FFEE
FFF4
0003
0005
FFFD
FFF7
FFFB
0004
FFFF
FFFF
0008
0001
FFFD
FFF1
FFF1
FFF9
FFFE
FFFC
FFFA
FFF7
FFFF
0001
0001
FFF6
FFF4
FFED
FFEC
FFEB
FFEC
FFEF
FFF0
FFF5
FFF9
FFFB
FFFF
FFFE
FFFE
0000
0000
FFFE
FFFE
FFFF
0005
0002
FFF8
FFF6
FFFF
FFFF
FFFD
FFFF
0004
FFFC
FFFB
FFF6
FFF3
FFF3
FFF6
FFF5
FFF2
FFEA
FFF0
FFF2
FFF4
FFFC
0000
FFFF
FFFC
FFF8
FFF6
0005
000A
FFFF
0001
000C
0009
0003
FFF6
FFFD
FFFA
FFFB
FFFB
FFF1
FFF3
FFF8
FFFD
FFFA
FFF7
0000
0002
FFF5
FFEC
FFF6
FFFE
FFF9
FFF6
FFF6
FFF4
FFF5
0009
0006
FFF8
FFF6
FFF7
FFE7
FFE3
FFF4
0000
FFFB
FFF4
FFF9
FFF9
FFF6
0011
0013
FFF7
FFF6
FFEB
FFE9
FFE6
FFFC
FFFE
FFFC
FFFC
FFFA
FFF4
FFEF
000D
0011
FFF3
FFF4
FFF5
FFF1
FFF2
FFF8
0000
FFFC
FFFA
FFF7
FFEE
FFF2
0010
0009
FFF2
FFE8
FFF2
FFF1
FFF3
FFF9
0001
FFF8
FFEC
FFF1
FFF3
FFFF
0011
FFFA
FFEF
FFEF
FFF7
FFF3
FFF7
FFFA
FFFB
FFF6
FFEF
FFF8
0002
0001
000F
FFFA
FFF2
FFFE
FFFF
FFFB
FFFA
FFFE
FFFE
FFFE
FFFC
FFFF
0005
FFFC
FFFD
FFFC
FFFC
0002
FFFE
FFFC
FFFD
0002
FFFF
FFFF
0009
0009
0005
FFF4
FFFA
0009
000A
0000
FFFF
FFF3
FFFD
0001
FFFC
FFF4
FFFF
FFFD
FFF5
FFEA
FFF0
FFF9
FFFB
FFFD
FFF9
FFF7
FFFC
FFFF
FFFF
FFFA
FFF1
FFED
FFEB
FFEB
FFED
FFED
FFED
FFF8
FFFB
FFF9
FFFC
0000
0003
FFFD
FFFE
FFFB
FFFE
FFF7
FFFF
0003
FFFC
FFF4
FFF6
FFFD
FFFC
0003
0000
FFFC
FFFD
FFF9
FFF8
FFF6
FFFE
FFFD
FFF8
FFF4
FFFB
FFFE
FFF3
FFFB
FFFF
FFFE
FFFC
FFFA
FFF7
FFFA
0001
0002
FFFD
0001
0005
0003
FFFD
FFF5
FFF6
FFFC
FFF6
FFF9
FFF8
FFF7
FFF6
FFFC
FFF9
FFFE
FFFF
FFF9
FFF3
FFEB
FFFD
FFF9
FFF8
FFFA
FFF6
FFFB
FFFA
0009
0005
FFFE
FFF9
FFF4
FFEB
FFEB
0000
FFFD
FFF7
FFFA
FFF8
FFF5
0001
000E
000B
FFFC
FFFA
FFF6
FFF2
FFF1
FFF7
0000
FFFD
FFF9
FFFA
FFF5
0003
000C
0003
FFF7
FFF6
FFFC
FFFB
FFF6
FFFE
FFFC
FFFB
FFF9
FFF6
FFF2
0009
000C
FFFC
FFF4
FFF9
FFF5
FFF7
FFF5
FFFF
FFF8
FFF1
FFF6
FFF9
FFFC
0008
000A
FFF4
FFF4
FFFA
FFFB
FFF6
FFF8
FFF9
FFF8
FFF5
FFF9
0000
FFFE
0007
000A
FFF7
FFF9
FFFC
FFFA
FFFA
FFFD
FFFF
FFFA
0002
FFFF
FFFE
FFFB
0001
FFFF
FFFE
0000
0001
FFFA
FFFC
0002
FFFC
FFF9
0004
0004
0001
FFFF
FFFB
0004
0009
0004
FFFC
FFF7
FFFA
0000
FFFD
FFF7
FFFE
FFF8
FFF2
FFF0
FFF0
FFF4
FFF9
FFF9
FFFB
FFFA
FFFD
0001
0000
FFFC
FFF5
FFEF
FFEF
FFF1
FFEF
FFED
FFF5
FFF9
FFFC
FFFF
FFFD
0001
0002
FFFF
0003
FFFC
FFFC
FFF9
FFFC
0004
0004
FFF5
FFF8
FFFB
0000
FFFD
0003
FFFE
0003
FFFB
FFF9
FFFC
0001
0002
FFFB
FFF4
0003
0005
FFF8
0000
FFFF
0002
FFFC
FFFC
FFF8
FFFB
0004
0005
FFFC
0006
000D
0009
FFFB
FFF5
FFFC
FFFB
FFF9
FFF5
FFF2
FFF6
FFFB
FFFA
FFFB
0003
0009
0002
FFF7
FFF3
FFFD
FFF7
FFF8
FFF6
FFF8
FFFA
FFFA
0004
0003
0000
FFFA
FFF3
FFED
FFEB
0001
FFF9
FFF5
FFF8
FFF8
FFF5
FFFB
0011
000B
FFFC
FFF6
FFF1
FFE7
FFF4
FFFD
FFF9
FFF9
FFF9
FFF9
FFF1
0001
000D
000A
FFFB
FFF8
FFF7
FFF0
FFFA
FFFB
FFFD
FFFA
FFF8
FFF6
FFEE
000A
000E
0000
FFF3
FFF5
FFF8
FFF1
FFF3
0001
FFFA
FFF3
FFF1
FFF7
FFF9
000A
0011
FFF4
FFF3
FFF4
FFFA
FFF5
FFF7
FFFC
FFF1
FFEE
FFF6
FFFF
FFFC
000B
0007
FFF5
FFF7
FFFC
FFFD
FFF5
FFFC
FFFA
FFF1
FFFB
0000
0002
0005
0002
FFFD
FFFF
FFFD
0000
FFFB
FFFC
FFFB
FFFF
FFFC
0005
0001
0005
FFFE
FFF6
FFFA
0003
0000
FFFC
FFFA
FFF9
0002
0002
FFF8
0006
0004
0002
FFF3
FFF2
0001
0003
0001
FFFC
FFF7
FFFE
0003
0003
FFF7
FFF3
FFEE
FFEB
FFEE
FFEF
FFED
FFEE
FFF4
FFF9
FFF8
0000
0000
FFFE
FFFE
0000
FFFF
FFFD
FFFE
0000
0000
FFFC
FFFD
FFFE
FFFE
FFFF
0002
0000
0000
0001
0005
0006
0002
0003
0002
0001
FFFB
FFFD
FFFD
0000
FFFD
0001
FFFE
0000
0002
0003
0003
FFFD
FFFB
FFF8
FFFA
FFFA
FFFB
FFFD
FFFF
0002
0000
0002
0004
FFFF
FFFC
FFFF
FFFC
FFF8
FFF6
FFF9
FFFF
FFFE
0002
FFFE
0003
0001
FFFC
FFFF
FFF8
FFF3
FFFD
0001
0001
FFFC
FFFD
0002
FFFD
0002
0001
FFFE
FFF9
FFF6
FFF3
FFF8
FFFF
0000
0000
FFFE
0001
0000
0002
0003
FFFF
FFFB
FFFF
0001
0006
0009
0008
000A
0005
0002
0005
0003
0000
FFFE
0002
0001
0007
0004
0008
0005
0005
0008
0008
0002
000B
0008
FFFE
0002
0006
0002
0004
0006
000A
0003
FFFF
0000
FFFF
0006
0006
0002
0002
0000
0000
0007
0005
0007
0004
FFFE
FFFB
FFFA
FFFF
0006
0004
0001
FFFF
FFFF
0004
0004
0002
0000
FFFA
FFFA
FFFB
0000
0003
FFFF
FFFF
FFFC
0000
0000
0002
FFFE
FFFE
FFFD
FFF8
FFF3
FFFC
0001
FFFD
0003
0001
0001
0001
0001
0000
FFFE
0002
FFFD
FFFA
FFFC
0000
FFFF
0001
FFFF
FFFD
FFFF
0003
0002
FFFD
FFFF
0000
FFFE
FFFD
FFFC
FFFF
0001
0000
FFFE
FFFE
FFFD
0000
FFFC
0001
0002
FFFF
0001
0003
0001
FFFD
0002
0001
0001
0002
FFFD
0001
FFFD
FFFD
FFFE
0004
0004
0001
0001
FFFF
FFFC
FFFB
FFFD
FFFD
0001
FFFE
FFFD
0000
FFFD
0001
0003
FFFD
FFFC
FFF9
FFF9
FFFB
FFFC
FFFE
FFFD
FFFE
FFFF
0000
0003
0000
0004
0002
FFFF
FFFD
FFFE
FFF9
FFFD
FFFC
FFFF
0001
FFFE
FFFF
0003
0001
0000
FFFA
FFFB
FFFA
FFF8
FFFA
FFFC
FFFF
0000
0001
FFFF
FFFD
FFFC
0000
0004
0005
0008
FFFF
FFFC
0000
FFFC
0003
FFFE
0000
0001
0002
0006
0009
000B
0009
0007
0009
0007
0005
FFFF
0006
0003
FFFF
0000
0002
0007
0007
0006
0003
0001
0003
0004
0008
0005
0005
0002
0000
0002
0001
FFFF
0005
0009
0002
0002
0000
0001
0005
0003
0005
FFFE
0002
0000
FFFD
0001
0001
0005
0003
0000
0004
0000
0005
0001
0002
0002
0001
0000
FFFD
FFFD
0002
0002
FFFE
0002
0006
0002
0001
0001
0001
FFFD
FFFD
FFFF
0001
FFFF
0001
FFFD
0000
0001
0002
0003
0003
0001
0002
0000
0002
FFFF
0002
FFFD
FFFF
0002
FFFD
FFFB
FFFB
FFFF
FFFF
FFFE
0002
0001
FFFE
0000
0001
0000
0000
FFFD
0000
FFFD
0001
FFFC
0000
FFFE
FFFF
FFFE
0000
0002
FFFD
FFFF
FFFD
FFFD
FFFA
FFF4
0003
FFFA
FFF5
FFF4
0000
0004
FFFF
FFFC
FFFB
0000
FFFB
FFFF
0002
0000
FFFE
0000
FFF8
FFF1
FFF3
FFFD
0001
FFFD
FFF9
FFFB
0002
0003
0006
000E
0009
0007
0005
FFFF
FFEF
FFED
FFFF
FFFD
FFFD
FFFE
0002
0007
0008
0006
0008
0009
0009
0002
FFF1
FFEB
FFF5
0001
0004
0001
FFFE
0003
0009
0007
0008
0004
0003
FFFF
FFF8
FFEC
FFEF
FFFD
FFFC
FFF4
FFF1
FFF5
FFF3
FFF5
FFFF
0002
FFFF
FFFB
FFF8
FFF5
FFF5
FFFC
FFEF
FFE3
FFE4
FFE8
FFE7
FFE6
FFEE
FFF0
FFF6
FFF5
FFF3
FFFA
0002
FFFA
FFF9
FFF0
FFEC
FFF2
FFFA
FFF8
FFF4
FFF1
FFEF
FFEE
FFEF
000A
0009
FFFF
0004
0005
FFF9
0000
000C
0009
0002
FFFF
FFF7
FFFB
0001
0011
000F
FFF7
000D
000A
0006
0004
0007
0006
0002
0008
0005
0005
000F
0010
0011
FFFB
0004
0009
0005
0004
0004
0002
0003
0007
0008
000B
0006
0008
0007
FFFC
0003
0001
0004
0005
0003
FFFA
0001
000A
000A
000A
0009
0008
0002
0001
FFF4
FFF4
FFFA
FFFB
0001
FFFE
FFF8
FFFC
0002
0001
0004
FFFF
0003
FFFF
FFF8
FFEC
FFE6
FFE1
FFE7
FFF1
FFF0
FFF6
FFF2
FFF8
FFF2
FFF8
0002
0002
0000
FFFF
FFFD
FFFD
FFFF
0000
FFFF
0001
FFFF
FFFD
0002
FFFF
0002
0001
FFFD
FFFD
0000
0003
0003
0005
FFFF
FFFF
FFFB
FFFD
FFFC
FFFE
FFFF
0002
FFFE
0002
FFFB
FFFE
FFFF
0003
0004
0005
0002
0002
FFFE
FFFE
0002
FFFD
FFFE
FFFF
0000
FFFF
FFFF
FFFB
0000
FFFF
0003
0000
0002
FFFA
FFFE
FFFD
0000
0003
0001
FFFE
FFFC
FFFA
FFFF
0003
0007
0006
FFFD
FFFA
FFFC
0000
FFFE
0000
FFF9
FFF1
FFF0
FFED
FFF8
0001
0002
0002
0001
FFFE
FFFF
0002
FFFE
0000
FFF3
FFF0
FFF5
FFF8
FFFA
FFFD
FFFB
FFFE
FFF9
FFFE
0006
0002
0003
FFFC
FFF5
FFF2
FFFA
0006
0009
FFFD
FFFE
FFFF
FFF9
FFFE
0006
FFFE
FFFC
FFFE
FFFE
FFF5
FFF5
0003
0002
FFFF
FFFB
FFFC
FFFD
0008
0008
FFFE
FFFD
0003
0002
FFFD
FFFB
FFFF
FFFB
FFFC
FFFF
0001
0005
0008
0007
0000
FFFE
FFFE
0001
0000
FFFC
FFFC
FFFB
FFF9
FFFF
0002
0005
0003
0002
FFFD
FFFE
0000
FFFC
FFFA
0001
FFFC
FFFB
FFF7
FFFF
0005
0004
0003
0001
0001
0002
FFFF
FFFD
FFFF
FFF8
FFFB
FFF8
FFF9
0001
FFFB
FFFD
FFFE
0001
FFFF
FFFE
0002
FFFF
FFFE
FFFE
0000
FFFF
FFFF
FFFD
0001
FFFE
FFFE
FFFD
0000
0003
FFFB
FFFF
FFFA
FFFB
FFFA
FFF6
FFFF
0002
FFF7
FFF8
FFFF
0001
0001
FFFF
FFFE
0001
0003
0005
0002
0001
FFFD
FFF7
FFF4
FFF2
FFF5
0000
FFFF
FFF9
0002
0002
0006
0004
0006
0008
0008
0003
FFFB
FFF9
FFF4
FFFA
FFF5
0000
0002
0007
0002
0008
0008
0003
0002
FFFD
FFFD
FFFD
FFF6
FFF2
0000
0003
0006
0005
0004
0000
0000
FFFF
FFF9
FFFD
0000
FFFD
FFF3
FFEE
FFFA
0004
0008
FFFE
FFF7
FFF9
FFF1
FFF5
FFF5
FFFE
FFFE
FFFF
FFF3
0000
FFFC
FFFF
FFF8
FFEA
FFF1
FFF5
FFEE
FFF3
FFF6
FFFC
FFFF
FFFB
FFFE
000F
FFFB
FFF5
FFF5
FFFE
FFFC
FFFD
0001
0001
0000
0002
FFFE
FFFA
0005
0010
FFFD
0001
0008
000B
0007
0006
000D
000A
0003
FFFF
0000
0001
000C
0016
0001
0002
0006
000A
0005
0008
0008
0008
0005
0001
0002
000A
000C
0010
FFF7
0007
000C
000A
0009
0008
0009
FFFE
FFFC
0001
000A
0005
000D
0005
0001
0002
0007
0008
0008
0004
FFFD
FFFB
FFFA
0003
0003
0007
0004
0004
FFFE
FFF5
FFF6
FFF6
FFF7
FFF7
FFF9
FFFA
FFF7
FFFB
FFFB
FFFB
FFFE
0004
0001
FFF4
FFEF
FFE8
FFEE
FFF3
FFF7
FFF4
FFF5
FFF5
FFF2
FFF4
FFFF
0000
0000
FFFD
FFFE
FFFB
FFFF
FFFD
FFF7
0004
0004
FFF8
FFF7
FFFC
FFFE
0005
0001
FFFB
0001
0001
0006
000A
0006
0001
0003
FFF9
FFF5
FFEF
FFF2
0001
FFFB
FFFE
FFFD
0006
0005
0006
0007
0007
0001
FFFA
FFF9
FFEE
FFF0
FFFC
0003
0002
0008
0006
0004
0007
0000
0005
0000
0001
FFF8
FFF0
FFE9
FFF7
FFFC
0002
0005
0004
FFFF
FFFD
0001
0009
0002
0005
0002
FFF6
FFE5
FFF8
FFFD
0000
FFF8
FFF5
FFF4
FFF0
FFE9
FFFC
0000
FFFF
FFFF
FFF7
FFFA
FFFD
FFFD
FFF3
FFE9
FFEE
FFF0
FFF0
FFF1
FFFB
FFFB
FFFE
FFF7
FFF5
000B
000D
FFFE
FFFB
FFF3
FFF7
FFFA
0006
0007
FFFF
FFFF
FFFB
FFF6
FFF9
0014
0010
0001
0007
0006
0004
0004
000C
0007
0000
FFFD
FFFE
0003
000C
0014
000F
FFF6
000B
0008
0005
0007
0009
0003
FFFE
FFFE
FFFF
0008
000E
0013
0008
FFFB
0009
0005
0006
0009
0002
FFFC
FFFB
FFFF
0008
0005
0009
000D
000A
0001
FFFF
0005
0003
0003
FFFC
FFFB
FFF5
0001
0007
0001
0007
0004
0001
FFFC
FFF2
FFEC
FFED
FFF1
FFF8
FFFA
FFF6
FFFA
FFF3
FFFB
FFF7
0002
0004
0003
FFF9
FFEF
FFF0
FFE8
FFF0
FFF2
FFF3
FFF1
FFEE
FFF2
FFF2
0002
0003
FFFE
0002
FFFC
FFFE
FFFC
0002
0000
FFFD
FFFC
FFF9
FFF6
FFF8
FFFE
FFFF
FFFD
FFF7
0000
0003
0008
0008
0004
0004
0002
0001
FFF9
FFF4
FFF1
FFFD
FFFE
FFFE
FFFE
0003
0004
0007
0004
0009
0005
0005
FFFE
FFF9
FFF4
FFFB
FFF8
0002
0005
0005
0004
0007
0009
0003
0004
0001
FFFE
FFFC
FFF5
FFF7
FFFE
0003
0005
0003
FFFF
FFFD
FFFC
FFFB
0002
FFFF
FFFE
FFFB
FFF5
FFF4
FFFF
FFFD
FFF6
FFF3
FFF6
FFF6
FFF0
FFF4
FFFB
FFFD
FFFE
FFFB
FFF7
0002
FFFB
FFF7
FFEE
FFEC
FFF2
FFF3
FFF5
FFF5
FFF6
0000
0000
FFF7
FFFA
000D
0001
FFFD
FFF8
FFFA
FFF9
0000
0003
0002
FFFE
FFFB
FFFD
FFF8
0005
0013
0000
0004
000C
0005
0005
0004
0007
0005
0007
0002
0001
0003
000A
0015
FFF6
0005
0008
0006
0005
0009
0006
0004
0005
0004
0006
0006
000A
000F
FFFA
0005
0006
0006
0005
0006
0003
FFF9
0000
0009
0007
0009
0005
0004
FFFF
FFFF
0002
0001
0006
FFFD
FFFB
FFF8
FFFC
0000
0008
0005
0006
0002
FFFD
FFF4
FFED
FFEF
FFF5
FFF5
FFFD
FFFD
FFFA
FFF9
FFF7
FFFA
FFFB
0006
FFFF
FFF7
FFF6
FFEF
FFED
FFF0
FFF3
FFFA
FFF8
FFF6
FFF7
FFF3
FFF7
0000
0000
0001
FFFD
FFFE
FFFC
FFFB
FFF9
FFFB
0000
FFF8
FFF5
FFF5
FFFE
0000
0000
FFFC
FFFB
0002
0002
0000
0003
0002
FFFF
FFF9
FFF6
FFF0
FFEE
0000
FFFF
FFF3
FFFD
FFFF
0005
0007
0004
0004
0006
FFFB
FFFA
FFF4
FFEC
FFFB
FFFA
FFFE
0001
0007
0007
0006
0005
0009
0004
0002
FFFF
FFFA
FFF0
FFF5
0002
0001
0003
0005
0002
0003
FFFE
FFFD
FFFD
FFFC
0002
0000
FFF2
FFF2
FFFE
0000
0003
FFF6
FFF7
FFFA
FFF5
FFF4
FFFD
FFFF
0001
FFFC
FFF0
0000
0000
FFFA
FFEF
FFE9
FFF2
FFF2
FFF0
FFF4
FFFC
FFFE
0003
FFF8
FFFB
000D
FFFF
FFFD
FFF1
FFF6
FFF9
FFFD
FFFE
FFFD
FFFD
0001
FFFC
FFF9
0002
0013
FFFF
0004
0009
0005
0006
0007
000A
0007
0006
FFFE
FFFB
FFFF
000C
000E
FFFE
0007
000B
0008
0006
0008
0007
0006
0003
FFFD
0002
0003
000A
0012
FFFA
0005
0005
000B
0005
000A
0009
0002
0003
0005
0006
0002
000A
0006
0004
0003
0007
0002
0007
0004
FFFD
FFFA
FFFE
0007
0003
0007
0009
0005
FFFB
FFFB
FFF9
FFFF
FFFE
0000
FFFC
FFF9
FFFA
FFFE
0004
FFFF
0001
FFFF
FFFE
FFFB
FFF3
FFE9
FFEB
FFF3
FFF2
FFF8
FFF9
FFF6
FFF5
FFF3
FFFB
0004
FFFC
FFFD
FFFD
FFFC
FFFC
FFFF
FFFE
0001
FFFD
0001
0002
0002
FFFD
FFFD
0000
FFFD
FFFF
0004
0003
0005
0005
0000
FFFD
FFFE
FFFA
FFFF
FFFE
0001
FFFE
FFFF
0006
0003
0005
0005
0002
FFFE
FFFD
FFFD
FFFB
FFFA
FFFD
FFFC
0000
0001
0001
0001
0003
FFFE
FFFD
FFFD
FFFD
FFFB
FFFA
FFFC
0001
0001
FFFF
0002
0001
FFFE
FFF9
FFFB
0009
000A
0008
0004
FFFB
FFFE
FFFF
FFFF
0001
FFFF
FFFA
FFFA
0001
0008
000E
0008
FFFF
FFFD
FFF7
FFFE
0002
0000
FFFF
0000
FFFB
FFFE
0006
0007
0006
FFFE
FFFD
FFF8
FFFD
0000
FFFC
0000
0002
0002
FFFC
FFFB
FFFC
FFF9
FFFA
FFF7
FFFB
FFFC
0002
FFFE
0000
FFFD
0000
0006
0003
FFF9
FFF9
FFF4
FFF4
FFFE
0006
0000
FFFB
FFFB
FFFB
FFFE
FFFC
0006
FFFF
FFFF
0000
0000
FFFE
0005
0003
0002
FFFE
FFFE
FFFE
FFFC
0002
0000
0001
0001
FFFC
FFFC
0004
0004
0000
0000
FFFE
0000
0000
0001
FFFF
0002
0003
0001
0003
FFFF
FFFD
0004
FFFE
FFFD
0000
0000
FFFD
0000
FFFF
FFFF
0000
0000
FFFE
FFFC
FFFF
FFFF
FFFB
0003
FFFD
FFFF
0000
FFFF
0002
FFFC
FFFD
FFFE
FFFC
0000
FFFD
FFFC
0000
0000
FFFE
FFFE
FFFD
0002
0000
FFFC
FFFE
0001
FFFE
FFFD
0001
FFFF
FFFC
0000
0001
FFFE
0001
FFFD
FFFF
0000
FFFC
FFFE
FFFE
0003
0002
FFFC
0001
FFFB
0000
0001
0002
FFFD
FFFC
0003
FFFF
0000
0005
0000
0001
FFFE
FFFC
FFFC
FFFE
0000
FFFD
FFFE
0000
0000
0002
0000
0002
FFFF
FFFE
FFFC
FFFE
FFFC
FFFA
FFFC
0001
FFFE
FFFC
FFFF
0000
0001
0004
000C
000D
0009
0001
0000
FFFA
FFFD
FFFF
0002
0001
FFFE
FFFE
0002
000E
0011
0010
0005
0001
0000
FFFD
FFFD
0001
0001
FFFD
0001
0002
0002
000B
000C
0004
FFFF
0001
FFFE
0005
FFFE
FFFD
0002
0000
FFFE
FFFD
FFFF
0001
0001
FFF9
0001
0001
FFFE
FFFE
0000
FFFD
FFFD
FFFF
0003
0002
0002
FFFD
0001
0000
0004
FFFF
FFFE
FFFD
FFFD
FFFC
FFFD
FFFE
0000
FFFE
0003
0005
0003
0006
0003
FFFD
FFFC
FFFC
FFFD
0002
FFFE
FFFD
0001
FFFD
0002
FFFD
0006
0002
0002
0004
0001
FFFD
0002
0001
FFFD
FFFF
FFFD
0001
FFFF
0003
0002
0008
0009
0005
FFFE
FFFE
0002
FFFD
FFFD
FFFD
0000
0002
FFFE
0001
FFFE
0003
0000
0001
FFFC
0000
0002
0002
FFFC
0000
FFFF
FFFF
0000
FFFD
0001
0001
0000
0001
FFFC
0001
FFFD
FFFD
FFFE
0000
FFFF
FFFD
FFF3
FFEF
FFF9
FFF0
FFFD
FFFB
FFEE
FFF8
0000
0001
0002
FFFC
0001
0005
0003
0007
0005
0005
0005
0002
FFF9
FFEF
FFEE
FFFC
0000
0002
0008
0004
0002
0003
FFFF
FFFF
0001
0001
0005
FFFB
FFEE
FFE9
FFFA
FFFC
000B
000B
0003
0007
0006
000B
000A
0005
0007
0001
FFF3
FFEE
FFEB
FFFD
000A
0007
FFFB
FFFC
FFFF
0007
000D
000A
0006
0001
FFF2
FFEA
FFE7
FFFB
0002
FFF7
FFEC
FFE9
FFEF
FFF8
0002
FFFF
FFFC
FFFF
FFFD
FFE8
FFED
FFF6
FFF9
FFED
FFEE
FFED
FFF7
0005
0006
0006
0001
FFFA
FFF0
FFEF
FFF3
0005
FFFC
FFF3
FFED
FFF2
0000
0007
0005
0009
000A
0000
FFF7
FFEE
FFF9
0003
0006
FFFF
FFF3
FFF2
FFF7
FFFB
0005
0007
0007
0009
0001
FFFB
FFF2
0007
000F
0006
FFFF
FFF6
FFEF
FFF4
FFFE
000C
0005
0008
FFFE
FFFC
FFEE
0005
000D
000C
0007
FFFD
FFF8
FFF9
0000
FFFF
FFFE
FFFE
FFFC
FFF7
FFF4
0001
000D
0007
0007
0008
0004
FFFC
FFFC
FFFF
FFFE
FFF7
FFEF
FFF1
FFF6
0004
000D
0008
000B
0006
0007
0002
0001
FFFF
FFFC
FFF7
FFF2
FFFB
FFFA
0003
FFFB
0003
000C
000C
0014
0014
0009
0005
0000
0000
FFF7
FFF8
FFFE
FFFC
FFFC
FFFC
FFFC
0000
FFFD
FFFD
FFFF
FFFE
0000
0001
0001
FFFC
0000
FFFD
FFFE
0000
FFFE
FFFF
0004
0003
0002
0000
FFFF
0001
FFFE
FFFE
0002
FFFF
FFFE
0000
0003
0004
0004
0003
0001
0003
FFFF
FFFF
FFFC
FFFC
FFFF
0002
FFFF
0002
0003
0000
FFFE
FFFC
0001
0004
0002
FFFF
0002
FFFC
0000
FFFE
FFFD
0002
0000
FFF6
FFF0
FFED
FFFA
0005
0004
0001
0003
FFFC
0000
0001
0002
0001
FFF9
FFF4
FFEB
FFEB
FFFD
0000
0002
0003
FFFD
FFFB
0001
FFFC
FFFF
FFFD
0000
FFF3
FFF4
FFF9
FFFF
FFFF
0003
FFFC
FFF8
FFFA
0002
FFFF
0003
0000
0001
FFF9
FFF3
FFF9
FFF8
FFF9
0005
0000
0000
0001
FFFE
0001
FFFD
0008
0006
FFFB
FFF4
FFF7
FFF9
FFFB
0005
0006
0005
FFFF
FFFD
0002
FFFC
0007
0005
0003
FFFD
FFF4
FFF3
0000
0009
0004
0002
FFFC
0000
0000
0000
0003
0006
0000
0002
FFF4
FFF4
FFFD
0004
0002
0002
FFFB
0001
FFFC
FFFD
0001
FFFE
FFFC
FFFF
FFFA
FFF5
FFFA
FFFE
FFFE
FFFB
FFFF
FFFC
FFFD
0001
0000
FFFE
FFFF
0002
0001
FFFF
FFFF
0003
0001
FFFF
FFFE
FFFC
0001
FFFD
FFFD
0002
FFFC
0001
FFFE
FFFF
FFFC
FFFE
0002
FFFE
FFFE
FFFD
FFFF
FFFD
0000
0001
FFFE
FFF6
FFFD
FFFE
FFFA
FFFB
FFF7
FFFE
FFFA
0000
0001
FFFE
0005
0001
FFFC
FFFD
0008
0009
0006
0004
FFFC
FFF5
FFEE
FFFE
FFFA
0006
0008
000D
0009
0008
0004
FFFE
FFFA
FFFA
FFFA
FFF3
FFF1
FFF9
0002
0008
0010
000A
000B
0008
0003
0007
0001
FFFD
FFFD
FFFB
FFEE
FFF5
FFFD
0010
000E
0008
0005
FFFC
FFF8
0005
0009
000B
0007
0002
FFEE
FFF5
FFFF
000B
0005
FFFA
FFF7
FFF3
FFFB
000C
000E
000C
0008
FFFC
FFF3
FFF6
FFFB
0003
FFF8
FFF4
FFF6
FFFB
0007
000C
0007
0000
FFFB
FFF4
FFF1
FFF5
FFFE
FFFE
FFF7
FFF6
FFF7
FFFF
0004
FFFD
FFFE
FFFC
FFFE
FFF9
FFFC
FFF7
0004
0007
0003
FFF8
FFF1
FFF0
FFF5
FFF6
FFF9
0004
0007
0002
0000
FFF5
0003
000F
0010
0002
FFF3
FFEF
FFF2
FFF8
0002
0006
0009
0004
FFF5
FFF5
0008
000F
000F
000A
FFFF
FFF8
FFF8
0004
0008
0008
0005
FFFD
FFF2
FFF6
0007
000F
000A
0007
0008
0004
0005
0007
0003
0008
0001
FFF7
FFF3
FFF6
0006
0008
000B
000B
0009
0009
000B
000A
0002
FFFF
FFF9
FFF7
FFF5
FFFB
0001
0000
0004
000B
0006
000A
0005
FFFB
FFFB
FFFD
0000
FFFB
FFFC
FFFD
FFFD
FFFF
FFFD
FFFC
FFF5
FFFD
FFF7
FFF7
FFFC
FFF3
FFF7
FFFA
FFFF
0001
FFFC
0002
0005
0003
0002
0006
0008
0006
0009
0000
FFF9
FFEA
FFEC
FFFD
0002
000D
000B
000A
0007
0005
0003
0003
FFFB
FFF8
FFF0
FFEF
FFEC
FFF7
FFFF
000D
000A
0008
0007
0004
0002
0003
FFFE
FFFB
FFF8
FFF0
FFE9
FFF4
0000
000D
000C
FFFF
FFF5
FFF4
FFFF
000B
0005
0002
0000
FFF3
FFE3
FFF3
FFFB
0008
FFFC
FFF3
FFED
FFEF
0007
000E
0006
FFFF
0003
FFF3
FFE5
FFF6
FFF9
FFFE
FFEF
FFF5
FFF5
0007
000D
0007
FFFC
FFF6
FFF1
FFEC
FFEE
FFFD
0005
0001
FFF4
FFF1
FFF7
0005
FFFE
FFFC
0002
0004
FFF8
FFF9
FFF3
FFFB
0003
0010
FFFF
FFF7
FFEE
FFEE
FFF3
FFFD
0009
0004
0004
0001
FFF2
FFF2
0009
000E
000D
FFFD
FFF3
FFEF
FFF5
FFFF
000C
000B
0007
0002
FFED
FFF7
0004
000E
000E
000B
FFFB
FFF5
FFF9
0005
000A
0003
0002
FFF3
FFEF
FFF5
0007
0008
0009
0004
0006
0002
FFFE
FFFF
FFFC
FFFF
FFF6
FFF3
FFF4
FFF9
0002
000B
0008
000A
000A
000A
0002
0001
FFFF
FFFC
FFF6
FFF6
FFF8
0002
0003
FFFE
FFFF
0004
0002
0000
FFFB
FFFB
FFFB
FFFE
FFF9
FFF9
FFFD
FFFD
FFFD
0000
FFFB
FFFA
FFF6
FFFC
FFFA
FFFA
FFF9
FFF9
FFF9
FFFD
FFFF
0000
FFFE
0001
0006
0008
0008
0006
0007
0008
0003
FFFE
FFFC
FFF3
FFF3
FFFF
FFFE
0008
0009
0009
0006
0005
0007
0006
0003
0000
FFFD
FFF5
FFF4
FFFA
FFFD
000C
000C
0007
000A
0005
0002
0005
0006
0000
0002
FFFA
FFF1
FFF5
FFFC
000C
000A
0005
FFFB
FFF7
FFFC
0006
000B
0004
0007
FFFF
FFF2
FFF2
FFFD
0003
FFFE
FFF2
FFF6
FFF7
FFFC
000A
0008
0001
0001
FFFB
FFF0
FFFA
FFFC
FFFE
FFF7
FFF0
FFF9
FFFE
000B
0006
0007
0001
FFF7
FFF4
FFF3
FFFC
FFFF
0002
FFFE
FFF7
FFF9
FFFD
0002
0003
0002
0002
FFFE
FFFB
FFFB
FFF7
0005
000A
0006
FFFA
FFF6
FFF5
FFF9
FFFC
FFFF
0004
0008
0004
FFFA
FFF6
0007
000F
000F
0005
FFF8
FFF8
FFF6
FFF8
0005
000B
0009
0002
FFF8
FFF0
0003
000A
0009
000B
0008
0003
FFFA
FFFF
0008
0004
0002
FFFC
FFF7
FFF8
0007
000B
0006
0006
0003
0004
0003
0006
0006
0002
FFFF
FFF6
FFF2
FFF8
0003
000A
000C
000C
0009
0007
0009
0002
0002
FFFF
FFFC
FFF8
FFF6
FFF7
0002
FFFE
0002
0004
0007
000A
0005
0001
FFFF
0002
0002
FFFB
FFF8
0002
0000
0002
0002
FFFD
FFF3
FFF2
FFF8
FFF9
FFF9
FFF5
FFF4
FFFB
FFFB
0000
0000
FFFA
0006
0004
0004
0007
FFFF
FFFE
0002
FFFD
FFF5
FFF0
FFF1
FFFF
FFFE
0003
0009
0005
0002
0006
0005
FFFD
0000
FFFC
FFF7
FFF5
FFEF
FFF5
FFFE
0008
000A
0009
0007
0004
0007
0004
0006
0003
0002
FFFA
FFF0
FFF7
FFFD
000A
000B
000B
0006
FFFC
FFFF
0008
0006
0005
0008
FFFE
FFED
FFF2
0001
0007
0006
FFFA
FFF3
FFF2
FFFB
000C
000B
000B
0007
FFFD
FFE9
FFF5
FFFC
0001
FFF4
FFEE
FFF6
FFF9
0006
000A
0007
0003
FFFB
FFF4
FFEE
FFFB
FFF7
FFFE
FFF3
FFF5
FFF6
0002
0005
0007
FFFD
FFFD
FFF7
FFF5
FFF7
FFF6
0005
0008
0003
FFF7
FFF4
FFF2
FFFA
FFFA
FFFA
0003
0002
0002
FFFF
FFF2
0008
0010
000E
0000
FFF4
FFEF
FFF2
FFF6
0003
0008
0007
0009
FFF6
FFF2
0007
000F
000D
000C
0000
FFFA
FFF5
FFFF
0005
0006
0004
0001
FFF5
FFF4
0003
0009
0006
000B
0009
0001
0003
0003
0005
0002
FFFE
FFF7
FFF0
FFF7
0003
0008
000B
0007
0006
0005
0008
0003
0000
0001
FFFB
FFF2
FFF7
FFFC
0001
FFFC
0006
0007
000E
000C
000E
0002
FFFD
FFFE
FFFE
FFFC
FFFC
FFFD
0002
0001
0003
FFFD
FFFF
0000
FFFF
FFFD
FFFE
FFFE
0001
0002
0003
FFFE
0002
FFFE
0000
FFFE
FFFD
FFFD
FFFB
FFFB
FFFE
0003
FFFF
FFFE
0000
FFFE
FFFE
0000
0003
FFFE
0000
FFFC
FFFF
FFFE
0003
0003
0005
0006
0002
0001
0002
0001
FFFF
FFFC
FFFD
FFFF
FFFB
FFFA
0002
0007
0007
FFFF
FFFE
FFFE
FFFE
FFFD
FFFF
FFFC
0002
0006
FFFA
0005
000A
0003
0005
FFFF
FFFE
0001
0000
FFFF
FFFF
0002
0007
0006
FFF9
0006
0005
0002
0004
0000
0003
FFFD
0000
0001
0006
0004
0009
FFFF
FFF9
0007
0003
0004
0002
FFFF
FFFF
0003
0002
0003
0000
0003
0002
FFFA
FFFE
000B
FFFF
FFFB
0000
FFFF
FFFD
0003
FFFD
FFFC
0001
0001
FFFB
FFF9
0001
0003
FFF3
FFF5
FFFA
0001
0000
0000
FFFE
0001
FFFD
FFFA
FFF5
FFFC
0004
FFFB
FFF5
FFFA
FFFC
0000
0003
0000
FFFE
FFFD
FFFA
FFFB
0001
FFFF
0000
FFFF
FFFD
FFFE
0002
FFFF
FFFF
0001
0002
FFFD
FFFC
FFFF
0003
0004
0004
0002
0001
0003
0003
FFFE
FFFF
FFFF
FFFF
0003
0001
FFFE
FFFD
0000
FFFF
FFFD
0000
0004
0002
FFFF
FFFF
0002
0003
FFFF
FFFD
FFFE
0002
FFFC
0002
0001
FFFE
FFFF
0000
FFFD
FFFF
FFFE
0002
0002
0002
0000
0000
FFFD
0001
0001
FFFD
0001
FFFE
FFFF
FFFE
0001
FFFD
FFFE
FFFE
0003
FFFF
0003
FFFF
0002
0002
FFFF
FFFF
FFFE
0002
0000
FFFD
FFFF
0001
0003
0002
0002
0000
0003
0001
0003
0003
0001
FFFD
FFFF
0001
0003
FFFE
0001
FFFC
FFFE
FFFD
0001
0002
0002
0007
0000
FFFF
FFFD
FFFE
0003
0001
0001
FFFF
FFFE
FFF8
FFFF
0002
0002
0004
FFFF
FFFF
FFFD
0000
0003
FFFD
0000
0001
FFF8
FFF8
0000
FFF9
FFFE
0003
FFFE
0003
0002
0000
0002
0001
0004
FFFA
FFF4
FFFD
FFFC
FFF8
FFFE
0001
0003
FFFD
0003
FFFE
FFFD
FFFD
FFFC
FFFD
FFFB
FFF9
FFFD
FFF4
FFFB
0003
FFFF
FFFD
0001
FFFF
0002
FFFF
0002
FFFD
0004
FFFF
FFF8
FFFA
FFFE
0001
0000
0000
0002
FFFF
FFFE
0003
0001
0006
0003
FFFC
FFFB
FFFE
0000
FFFF
0000
FFFF
FFFF
0001
0002
0002
0000
0004
0000
FFFE
0001
FFFE
FFFE
0002
0002
FFFF
0001
FFFE
0001
0002
0003
0001
FFFC
0001
0000
FFFA
0000
0001
0003
FFFE
FFFF
0003
0002
FFFF
0000
0002
FFFF
0004
0001
0004
0000
0001
0001
0001
FFFE
FFFF
0002
FFFE
0002
0002
FFFE
0000
0001
0001
0002
FFFD
FFFE
0001
FFFF
0003
0000
FFFC
FFF8
FFEB
FFEA
FFEC
FFF0
FFEE
FFF1
FFF6
FFF9
FFFE
FFFF
FFFE
FFFD
FFF7
FFED
FFEA
FFE2
FFEA
FFEC
FFF0
FFFE
FFFA
FFFA
FFF7
FFFE
FFFF
0001
0006
FFFA
FFF8
FFF6
FFFD
FFFB
0001
0002
FFFC
0003
FFFF
FFFC
FFF7
0006
0007
000A
0003
FFFD
FFF0
FFEF
FFF2
FFEE
FFF4
0001
0001
FFFA
FFFB
FFFD
FFFF
0005
0003
FFFC
FFEE
FFE9
FFEE
FFEC
FFEC
FFF4
FFF7
0000
FFF4
FFF9
FFFD
0002
0009
0002
FFF1
FFF8
FFFC
FFF3
FFF0
FFEB
FFE9
FFF3
FFF7
FFF7
0000
000C
0013
000E
FFFB
0006
0009
FFFD
FFF4
FFF2
FFF4
FFF5
FFF4
FFFC
0005
000C
000F
000F
0006
000B
0007
0009
0003
FFFD
FFF7
FFFD
FFF8
FFF7
0002
000A
000A
000B
0010
000D
000C
000A
0004
FFFA
FFF2
FFF5
FFFC
FFF1
FFF2
FFF3
FFF6
FFFE
0009
000C
0002
FFFC
FFFD
FFF6
FFEE
FFEF
FFFD
FFF2
FFED
FFEC
FFED
FFEE
FFFB
0004
FFFE
FFFE
FFFD
FFF6
FFEC
FFF5
FFFB
FFF0
FFEB
FFED
FFF5
FFF8
FFFB
FFFC
0003
0005
0005
FFFC
FFF7
FFFA
FFFE
FFF2
FFF3
FFF4
FFFB
FFFA
FFF3
FFF0
FFF3
FFFA
0001
FFFE
FFF7
FFFE
FFFE
FFF8
FFF9
FFF0
FFEE
FFEE
FFE8
FFE6
FFE0
FFEC
FFF0
FFF2
FFFE
FFFD
0000
FFFE
0001
FFFD
0000
0000
FFFE
0001
FFFD
0001
0002
0001
0001
0001
0001
0000
0002
FFFF
0000
FFFA
FFFA
FFFE
0002
0002
FFFF
0001
0003
0000
FFFF
0000
0002
0000
0006
0005
0007
0004
0004
0006
0002
0005
0002
FFFF
FFFF
0002
FFFE
0007
0009
000A
0006
FFFD
FFFE
0004
FFFE
0004
0001
FFFD
0003
0000
0000
0002
0007
000B
0009
0000
0000
0007
FFFE
0001
FFFD
FFFE
0001
0001
FFFC
FFFE
0003
000D
000E
FFFC
000B
0006
FFFE
FFFF
FFFE
FFFC
FFFF
FFFE
0000
FFFD
0003
000E
0011
FFFD
0008
0008
0005
0003
FFFE
FFFE
FFFF
0000
0000
FFFA
0003
0007
0007
0001
0006
0007
0003
0000
FFFF
FFFE
FFFF
0002
FFF8
FFFB
FFFD
FFFA
FFFB
0002
0003
0002
FFFD
0002
FFFE
FFFD
FFFF
FFFD
0000
FFF8
FFF7
FFF4
FFF6
0004
0003
FFFB
FFFD
FFFB
FFFF
0001
0003
FFFD
FFFD
FFFA
FFFB
FFFA
FFFD
0001
FFFE
FFFD
FFFD
FFFC
0000
0001
FFFE
0003
0001
FFFF
FFFE
0003
0005
0003
0003
0002
0007
0003
FFFD
FFFF
FFFF
0001
0002
FFFF
0002
0005
0004
0003
0000
0002
0000
0002
FFFD
0003
FFFD
0001
0003
0002
FFFE
0000
FFFB
FFFB
FFF8
FFFE
0000
0003
0003
0000
0002
FFFD
FFFC
FFFD
FFF9
FFF2
FFE7
FFF0
FFF7
FFF3
FFF8
FFF7
FFFA
FFFD
0002
FFF9
FFFA
FFF5
FFF2
FFEB
FFE8
FFED
FFF4
FFF4
FFFA
FFF8
FFFE
FFFE
0000
FFF9
0003
0001
FFFB
FFF8
FFFB
FFFF
0003
000B
0007
0008
0009
FFFF
FFF9
FFFE
0001
FFFF
FFFE
FFF6
FFF7
FFF2
FFEF
FFFE
0002
0005
0007
0001
FFF9
FFFB
FFF9
FFF5
FFF9
FFF8
FFF8
FFEE
FFF0
0004
0003
0002
FFF9
FFF5
FFF3
FFF0
FFF3
FFFA
FFFD
0005
0001
FFF0
0000
0006
FFFB
FFF7
FFF0
FFEF
FFF1
FFEF
FFFC
0007
000D
0012
0007
FFF3
0006
0009
0004
FFFE
FFF7
FFFD
FFF8
FFFD
0008
000D
000F
000E
0002
FFFF
000C
000E
000B
0006
0000
FFF9
FFF8
FFFF
0001
000B
000A
0007
0003
000C
000D
0007
0004
FFFE
FFF5
FFF5
FFF6
FFF6
FFF7
FFFF
FFF7
FFF3
FFFC
0008
0002
FFF9
FFF6
FFF4
FFF0
FFF0
FFFE
FFF2
FFF1
FFEF
FFF2
FFF5
FFF6
FFF7
FFF9
FFF3
FFFA
FFF7
FFF3
FFF4
FFFB
FFF6
FFF2
FFF6
FFF6
FFFB
FFFB
FFF9
FFF9
0000
0007
0001
FFFC
FFFC
0001
FFF2
FFF8
FFFD
FFFD
FFFD
FFFC
FFF8
FFFE
FFFF
0000
FFFD
FFFD
0001
FFFF
FFFA
FFF5
FFF4
FFF2
FFEB
FFE9
FFE6
FFE7
FFE6
FFEA
FFF7
FFF9
0000
0002
FFFF
FFFE
FFF5
FFF0
FFEB
FFEE
FFF6
FFF7
FFF7
FFF4
FFF7
FFF9
FFFF
FFFE
FFFA
FFFA
FFF6
FFE9
FFE6
FFEB
FFEF
FFEF
FFF9
FFF8
FFFC
FFFC
FFFE
FFF9
0003
0005
0002
FFFC
FFF9
FFF9
FFFD
000B
0009
0007
000A
0006
FFF6
FFF8
0003
0005
0003
FFFB
FFFB
FFF2
FFEE
FFFE
0000
0008
0010
0002
FFFF
FFF5
FFFB
FFF7
FFFA
FFFC
0000
FFF0
FFF0
0003
0005
0002
FFFE
FFF3
FFF3
FFF3
FFF6
FFF8
0004
000C
0009
FFF2
FFFF
000C
FFFF
FFF9
FFF1
FFEB
FFF6
FFF2
FFFA
0007
000A
000F
000F
FFF8
0009
000E
0000
0000
FFF9
FFF5
FFF7
FFF5
0001
0008
000D
000F
000A
FFFE
000A
0012
0007
000A
FFFC
FFF5
FFFA
FFF8
FFF9
0000
0008
0002
FFFE
0004
000D
0004
FFFD
FFFA
FFF5
FFF1
FFF9
FFFB
FFEF
FFF0
FFF0
FFEC
FFF2
0004
0009
FFF7
FFF6
FFF6
FFEC
FFEA
FFF9
FFFD
FFF5
FFEE
FFF1
FFF1
FFF6
FFFE
0000
0000
FFFA
FFFD
FFF2
FFF0
FFFB
FFFB
FFF3
FFF3
FFF5
FFF9
FFFC
FFFE
0002
0008
0005
0008
FFFE
FFF8
FFFE
0001
FFF9
FFFA
FFF9
0001
FFFE
FFFB
0000
FFFC
0001
0002
FFFB
FFFA
FFF8
FFFE
FFFF
FFF9
FFF2
FFEE
FFE7
FFE1
FFE4
FFDE
FFE5
FFEC
FFF9
FFFA
FFFD
FFFE
FFFF
FFFD
FFF9
FFF2
FFEC
FFED
FFF4
FFF2
FFF3
FFF7
FFF7
FFFE
0000
FFFE
FFF9
FFF9
FFF8
FFF0
FFEE
FFEF
FFF2
FFF9
FFF9
FFFA
FFFE
0000
FFF8
FFFC
0001
0004
0001
FFFB
FFFA
FFFA
FFFA
FFFD
0000
0002
0008
000A
FFFF
FFFD
0000
0001
0000
FFFD
FFF8
FFF9
FFF5
FFF6
FFFD
FFFD
0002
0006
FFFE
FFF8
FFF5
FFF7
FFFC
FFFF
FFFD
FFF8
FFEE
FFF7
FFFD
0000
FFFB
FFF8
FFF7
FFF4
FFF5
FFFB
0000
0004
0008
0000
FFF2
0007
0004
FFFD
FFFA
FFF3
FFED
FFF6
FFF5
0004
0006
0009
000E
0006
FFF9
0006
000A
0000
FFFF
FFF8
FFF9
FFF9
FFF9
0005
000C
0008
000A
0005
0005
000D
000C
0009
0002
FFF9
FFF9
FFFC
FFF6
FFFD
0007
0002
0001
0005
0009
0009
0003
0002
FFF8
FFF9
FFF1
FFFE
FFF2
FFF4
FFF4
FFF3
FFF6
FFFB
0004
0000
FFF8
FFF5
FFF3
FFF1
FFF0
FFFE
FFF3
FFF3
FFF4
FFF3
FFF9
FFFB
FFFD
FFFB
FFF8
FFFA
FFF7
FFF8
FFF7
FFFF
FFFA
FFF3
FFF6
FFF6
FFFD
FFFE
FFF9
0001
0009
0005
0001
FFF9
FFFA
0000
FFFA
FFF9
FFF5
FFF9
FFFE
FFF8
FFF5
FFFA
FFFE
FFFE
FFFE
FFFC
FFFE
FFFD
FFFE
FFFB
FFF4
FFEC
FFEB
FFE6
FFE3
FFE5
FFE6
FFEB
FFEF
FFF9
FFFB
FFFD
FFFE
0001
FFF4
FFF5
FFED
FFE7
FFE6
FFEC
FFF0
FFF2
FFF7
FFF9
0000
0001
FFFB
FFFC
FFF3
FFEF
FFE9
FFE6
FFEC
FFF1
FFF7
FFFB
FFFB
FFFF
FFFA
FFFE
FFFA
0003
0000
FFF5
FFF2
FFF3
FFF5
FFF7
FFF7
FFFD
0004
0009
FFF8
FFFF
FFFF
0006
0003
FFFC
FFF7
FFF6
FFF6
FFF4
0005
0005
0007
0009
0001
FFF9
FFFD
FFFE
FFFB
FFF8
FFF7
FFF8
FFEF
FFF3
0003
FFFF
0007
FFFD
FFF9
FFF4
FFF2
FFF7
FFF8
0000
0007
FFFC
FFF0
FFFD
0005
0002
FFFA
FFEE
FFF2
FFF4
FFF4
FFFD
0007
000E
000E
0000
FFF5
000B
0004
FFFF
FFFA
FFEF
FFF5
FFFA
FFFB
0003
000C
000C
0010
0003
0006
000D
000B
0006
FFFD
FFF7
FFF6
FFFD
FFFB
0004
000B
000B
0005
0009
000F
000C
0007
0001
FFFC
FFF5
FFF4
FFFA
FFF4
FFF7
0000
FFFD
FFFA
0002
000C
0004
FFFE
FFF9
FFF3
FFF0
FFF2
FFFA
FFF3
FFF4
FFED
FFF1
FFF4
FFFD
FFFA
FFF8
FFF9
FFFA
FFF5
FFF3
FFF7
FFFC
FFF3
FFF1
FFF3
FFF8
FFF7
FFFC
FFF7
FFFC
FFFD
FFFE
FFFF
FFF7
FFFD
FFFE
FFF9
FFF5
FFF8
FFF9
FFFB
FFF8
FFF7
FFFD
0001
0000
FFFB
FFFC
0000
0001
FFFA
FFF6
FFF6
FFF6
FFF3
FFED
FFEC
FFEE
FFF0
FFEF
FFF6
FFF9
FFFE
0002
0001
FFFF
FFFF
0003
FFFF
0001
0000
0003
0003
0005
0003
0002
FFFF
0001
0000
FFFF
0002
0000
FFFA
FFFE
FFFF
0005
0002
0002
0006
0003
0004
0002
0004
0003
0000
0001
FFFE
FFFE
0002
0007
0008
0006
0006
0006
0001
0002
0000
0000
FFFF
0001
FFFD
FFFD
FFF7
FFFF
0005
000B
000F
000D
0000
FFFF
FFFD
0000
0002
0002
0003
FFFD
FFF8
FFF7
FFFD
0005
0010
000A
0001
0002
0000
0000
0003
0001
0008
0001
FFFB
FFF3
FFF9
FFF7
FFFC
FFFF
0000
FFFF
FFFF
FFFF
0000
0003
0003
FFF9
FFF5
FFF8
FFF9
FFFA
0003
0003
0004
0003
0000
FFFE
FFFD
FFFA
FFF5
FFF2
FFF9
0003
FFFD
FFF6
FFFE
0003
0004
0003
0001
0005
0004
FFFD
FFF9
FFFD
0005
0004
0001
FFFB
FFFD
0003
0005
0005
0001
0007
0008
0007
0005
0004
0005
0006
0001
FFFD
0002
0002
0000
FFFF
0001
0005
0009
0005
0002
0001
0004
0004
0002
0001
0001
0001
0004
0000
0001
0000
0003
0003
0003
FFFB
FFFA
FFF8
0002
0001
0004
0000
0001
0003
0002
0003
0000
0002
FFFD
0000
FFFE
0000
FFFF
0005
0005
0000
0003
0003
0002
0000
0002
0004
0001
FFFE
0000
0003
0003
0003
0004
FFFF
0001
FFFF
0003
0000
0002
0004
0005
FFFF
0004
0001
FFFF
FFFF
0002
0001
0000
0003
0005
0001
0003
0002
0001
0002
0000
0002
0004
0005
0001
0003
0002
0000
0003
0001
0003
0002
FFFF
0003
FFFF
0002
0006
0008
0006
0005
0001
0005
0000
FFFF
0002
0000
FFFC
FFF9
0000
0007
000A
000E
0008
0003
FFFF
0000
0003
FFFF
FFFE
FFF9
FFFA
0001
000A
0006
0005
0008
0006
0003
FFFF
0001
0002
0004
FFFB
FFFA
FFFD
FFFD
FFFB
0003
0004
0006
0008
0005
0001
FFFF
0003
0000
FFFC
FFFE
FFFA
FFFB
0002
0001
FFFF
0002
0007
0004
0005
0004
0004
0002
0000
FFF9
FFFE
0004
0003
0004
FFFF
FFFE
0003
0001
0003
0004
0005
0005
0009
0002
0005
0007
0008
0002
FFFF
FFFC
0001
0004
0003
0003
0005
0007
0008
0002
0007
0006
0006
0001
FFFF
FFFE
FFFE
0004
0004
0005
0001
0002
0009
0007
0002
0009
0006
FFFF
0003
0001
FFFE
0004
FFFF
0001
0004
0001
0008
0005
0007
0001
0004
0004
0003
0003
0000
FFFF
0003
0000
0000
0004
0001
0002
0002
0003
0004
0003
0004
0001
FFFF
0005
0003
0004
0003
FFFF
0003
0001
0003
0000
0004
0000
0005
FFFF
0005
0001
0002
0003
0002
FFFD
FFFA
FFEF
FFF6
FFE6
FFF2
FFFE
FFFE
FFFB
FFFB
FFFC
FFFF
FFFC
FFFB
FFFB
FFF0
FFEF
FFF3
FFED
FFFE
0003
FFFE
FFFB
FFFC
FFFB
FFFF
FFFD
FFF2
FFF6
FFF8
FFFA
FFF8
FFF7
FFF8
FFFB
FFF9
FFF6
FFFD
0002
FFFE
FFFC
FFE9
FFF7
0003
0006
0004
FFFB
FFF5
FFF6
FFF9
FFFD
0006
0009
0005
FFF9
FFEB
FFF8
0005
000A
0008
FFFB
FFF1
FFF3
FFFB
0002
000E
001E
000B
FFF4
FFF9
0005
000E
0009
000B
FFFF
FFF7
FFF5
FFFC
FFFC
0015
0022
0019
FFF8
FFFC
0003
0008
000A
000B
0007
0001
FFFF
FFFD
FFF4
FFEE
0004
0008
FFFA
FFFA
FFF7
FFFA
0008
000B
0006
FFFF
0004
0006
0002
FFFA
FFE9
FFF2
FFF8
FFFB
FFF8
FFEF
FFF5
FFFA
FFFA
FFF9
0000
0004
0005
0004
FFF2
FFF9
FFF9
FFFA
0007
0002
FFF7
FFF5
FFF6
FFFB
0001
0005
0006
0004
FFF8
FFF9
0003
FFF9
FFFC
0007
0007
0003
FFFE
0003
0003
FFFF
0003
FFFF
0003
FFFB
FFF5
FFFB
FFF9
FFFC
0004
0006
0007
FFFD
0001
0001
0002
0006
FFFF
0003
FFFE
0000
FFF7
FFF7
FFFF
0008
0006
0009
0001
FFFD
0000
0004
0004
FFFF
0003
0000
FFF5
FFF5
0000
000A
0009
0008
0005
FFFE
FFFA
0007
FFFF
0000
0001
0000
0004
0004
0004
0002
0003
0003
0004
FFFF
0002
0001
0001
0002
FFFF
FFFF
FFFF
0002
0000
FFFE
FFFE
FFFD
0002
0005
0001
0005
FFFF
0001
0004
FFFF
FFFF
0000
FFFF
FFFD
FFFF
FFFA
FFFA
0004
0004
0002
0008
0006
0003
0001
FFFF
FFFE
FFFF
0003
FFFE
FFF4
FFF6
FFFD
FFFF
0003
000A
0008
0002
0001
0001
FFFF
0003
0007
0009
FFF9
FFF0
FFF4
FFFA
FFFB
0012
000D
0000
0002
FFFE
0001
0000
0004
0009
0007
FFF8
FFF2
FFF4
FFEE
0008
000A
FFFF
FFFF
0002
0003
FFFF
0001
000C
0003
FFFE
0000
FFFD
FFF4
FFF8
0005
0003
0005
0006
FFFE
FFFE
FFFC
0008
FFFF
FFFE
0000
0002
FFFD
FFFC
0003
0001
0004
0007
000B
FFFD
FFF4
FFFD
FFFF
FFFE
0001
0002
0004
0003
0003
0000
0002
0004
000B
0006
FFFF
FFFE
FFFB
0002
0006
0002
0005
0003
0004
0000
FFFF
0003
0004
0006
0002
FFFF
FFFF
FFFE
0001
0001
0004
0004
FFFF
0002
FFFF
0002
FFFC
FFF9
FFFF
FFFF
FFFB
FFFF
FFFB
FFFC
0000
0006
0001
0003
0000
0002
0004
FFFD
FFFE
FFFA
FFFF
FFFA
0000
0002
0002
0000
0001
0000
FFFF
0004
0004
0003
FFFE
0001
0002
0002
0001
0003
FFFF
0004
FFFF
0001
FFFF
0000
FFFF
FFFE
FFF9
FFF9
FFF1
FFF5
FFFC
FFFE
FFFC
FFFB
FFFB
FFFE
FFFE
FFFE
FFFB
FFEF
FFF0
FFF2
FFF3
FFFB
FFFE
0000
FFFE
FFFC
0001
FFFE
FFFA
FFF0
FFF1
FFF7
FFF7
FFF7
FFFA
0001
0001
0005
0006
0002
0007
FFFA
FFF2
FFE9
FFF4
FFFA
FFFB
0000
0002
0003
0008
000D
0005
000C
000E
FFFA
FFE4
FFEB
FFF5
FFFB
0003
0003
FFFF
FFFA
FFFF
000A
000E
0014
001A
FFF7
FFE5
FFF5
0001
0001
0007
000A
0003
FFF6
FFF2
FFF1
FFFA
0010
0018
FFF9
FFF9
FFFF
0000
FFFE
000D
000C
FFFC
FFF4
FFF1
FFEE
FFE8
FFEA
FFFD
FFFC
0000
FFFC
FFF8
FFFE
0007
0002
FFF2
FFEE
FFF7
FFFB
FFFA
FFF7
FFF4
FFFA
FFFA
FFF9
FFFC
FFF2
FFF3
FFF1
FFF3
FFF2
FFF9
FFFC
0000
FFFC
FFF4
FFF8
0006
0003
0003
FFF8
FFF3
FFF8
FFFB
0001
FFFF
0004
0004
0002
FFF5
0003
0001
000B
0009
0007
0006
0006
0005
0001
0001
0003
0007
0005
FFFF
FFFA
FFFD
0000
FFFE
0002
0008
0005
0003
0004
0001
0007
0007
0004
0004
0000
0000
FFFC
FFFB
0002
0002
0008
0004
0000
FFFF
0000
0002
0001
FFFD
FFFE
FFFB
FFF9
FFFA
FFFD
FFFE
0000
FFFC
FFF8
FFF7
FFFA
0001
FFF8
0002
FFFE
FFFC
0001
FFFE
FFF6
FFF4
FFEC
FFFB
FFFE
0000
FFFF
FFFC
FFF7
FFFB
0000
FFF9
FFFE
FFEC
FFF2
FFF4
FFF4
FFFD
FFFE
FFFC
FFFE
FFFA
FFFD
0000
FFFB
FFF6
FFF4
FFF9
FFFE
FFF9
FFF7
FFFD
0003
0007
0004
0007
0007
0005
FFFC
FFE8
FFF1
FFF9
0003
0002
FFFD
FFF9
0002
0008
000B
000D
0010
0007
FFF3
FFE7
FFF4
0003
0004
0005
FFFD
FFF0
FFF6
FFFA
0009
0016
0021
0014
FFF6
FFF5
0002
0006
0008
000A
0004
FFF8
FFF1
FFF0
FFE9
FFFD
001C
000E
FFF9
FFFC
0000
0003
0007
000D
0004
FFF5
FFF1
FFF6
FFEC
FFE3
FFF5
FFFE
FFFC
FFF8
FFF7
FFFB
0007
0004
FFF8
FFF3
FFF2
0000
FFF9
FFF0
FFF0
FFF5
FFFB
FFFE
0000
FFF6
FFF3
FFF3
FFF5
FFF5
FFFF
0004
0000
FFFF
FFF0
FFF8
FFFF
0001
000D
0004
FFF4
FFF8
FFF8
0002
0003
0005
0007
0002
FFFB
FFFC
FFFF
FFFE
0003
0009
0007
0001
FFFD
0000
0003
0001
0004
0008
0000
FFFE
FFF6
FFFB
FFF8
FFFC
0005
FFFF
0000
0001
FFFF
FFFD
0002
0004
0005
0002
FFFF
FFFC
FFFA
FFF9
0001
0003
0000
0000
FFF7
FFF9
0002
0007
FFFE
FFFA
FFFE
0000
FFF9
FFF6
FFF6
FFFF
FFF4
FFF3
FFF8
FFF4
FFFC
0001
0000
0001
0002
FFFF
FFFD
FFFB
FFF7
FFF7
FFF2
FFF5
FFFE
FFF9
FFFA
FFFB
FFFD
0000
FFFB
FFFB
FFF5
FFF1
FFF2
FFF5
FFF6
FFFB
0002
FFFF
0002
0003
0004
0002
0002
FFF5
FFF2
FFF6
FFFC
FFFC
0000
FFFD
FFFE
0008
0005
0003
0004
0007
FFF8
FFEB
FFEF
FFF9
0001
0002
0001
0001
FFFF
0009
0008
0008
000C
000E
FFF6
FFEA
FFF5
FFFC
0003
0007
0005
FFFB
FFF9
FFFC
FFFE
000B
0019
0018
FFF7
FFEE
FFFE
0002
0007
0008
0009
FFFF
FFFA
FFF5
FFF5
FFF5
000C
0017
FFF5
FFFA
FFFD
FFFF
0005
000A
000B
0003
FFF7
FFF7
FFF4
FFED
FFE9
0000
FFFB
FFFB
FFF5
FFFB
FFFD
0005
0003
FFFA
FFF4
FFFC
FFFE
FFF8
FFF3
FFF2
FFFB
FFFA
0000
FFFF
FFF7
FFF2
FFF4
FFF6
FFFB
FFFF
0002
0000
0002
FFF2
FFF9
FFF8
0009
000B
0004
FFFB
FFFE
FFFD
FFFF
0006
0004
0004
0002
FFF4
FFFD
FFFB
0000
0004
000C
0006
0007
0002
0007
0005
0007
0003
0005
FFFF
FFF3
FFFB
FFF9
FFFC
0000
0004
0007
0003
0005
0003
0004
0004
0003
0000
FFFE
0000
FFFB
FFF6
FFFF
0004
0005
0004
0000
FFFF
FFFE
0004
0000
0002
FFFF
0003
FFFB
FFF3
FFFB
0000
0003
FFFE
FFFB
FFF4
FFFB
FFFD
FFFD
FFFF
0001
FFFE
FFFF
FFFF
FFF9
FFF3
FFF2
FFEA
FFF4
FFFD
FFFC
FFF7
FFF6
FFFB
0000
0000
FFF9
FFF9
FFEF
FFF0
FFF0
FFF6
0001
FFFF
FFF9
FFFC
0002
0000
FFFD
FFF0
FFF5
FFF1
FFF8
FFFC
FFF6
FFFE
0002
FFFE
FFFE
FFFF
0003
0007
0002
FFF0
FFEE
FFFB
FFFE
0004
0005
FFFE
0003
0007
0009
0006
0009
000D
FFF9
FFE9
FFF2
FFF8
0004
0005
0004
FFFB
FFFE
0005
0005
000B
0017
0018
FFFA
FFEB
FFF5
0004
0001
0007
0007
FFFB
FFF1
FFF2
FFF8
000A
0014
0011
FFFB
FFF8
FFFC
FFFF
0001
0009
0009
FFFB
FFF2
FFF1
FFEE
FFE9
FFFA
0006
FFF7
FFFA
FFFA
FFFB
0001
000C
0006
FFF3
FFF3
FFF9
FFF9
FFF4
FFEF
FFF6
FFFB
FFF5
FFF8
FFF4
FFF6
FFFA
FFF2
FFEF
FFF4
FFFE
0002
FFFC
0000
FFF5
FFF9
0000
0003
FFFE
FFF4
FFF3
FFF7
FFF9
0000
0001
0001
0005
0003
FFF7
0002
FFFA
0009
0007
0006
0002
FFFE
0003
0004
0006
0002
0005
0007
FFFD
FFFD
FFFE
FFFB
0001
0004
0005
0005
0003
0005
0007
0008
0009
0001
0001
FFFD
FFFA
FFFF
FFFA
0001
0002
0003
0007
0005
0002
FFFF
0000
0004
0002
0000
FFFD
FFF8
FFF7
FFFC
0000
0006
0003
FFFF
FFFF
FFF7
0002
0004
0000
0002
0000
0001
0002
0001
0001
0002
0002
0007
0006
0002
0000
FFFF
0002
0000
FFFF
0000
0001
0000
0000
FFFF
0005
0006
0005
0005
0003
FFFD
FFFC
FFFE
0002
FFFC
FFFE
FFFB
FFFE
0002
0002
0002
0002
FFFD
0000
0001
0002
0002
FFFD
0000
FFFF
FFFF
FFFE
0001
0002
FFFD
FFF7
FFFB
FFFE
FFFB
FFFE
0002
FFFB
FFFB
0001
0000
0001
0003
FFFF
FFF9
0001
0003
FFFF
FFFD
0001
FFFD
0001
0000
0000
0000
0005
0002
FFFD
0008
0002
0004
0002
FFFD
0001
FFFD
FFFE
0002
0001
0003
0001
FFFF
0005
0002
FFFE
0005
FFFD
FFFC
FFFE
FFFC
FFFE
0003
0002
0005
0002
0002
0005
FFFC
0002
0004
0000
FFFE
FFFD
0000
FFFC
FFFB
FFFE
0007
0000
FFFC
FFFE
0007
0007
FFFF
0001
0000
FFFD
FFFD
FFFB
FFFE
FFFF
0002
FFFE
FFFA
0003
000A
0003
0002
FFFF
FFFE
0002
FFFE
FFFF
FFFA
FFFA
0000
FFFA
FFF8
FFFD
FFFA
FFFF
FFFF
0000
0000
FFFE
FFFD
FFFC
FFFF
FFFF
0001
0003
FFFC
FFFD
FFFE
FFFC
FFFE
FFFD
0002
0000
0002
FFFD
0000
FFFB
FFFC
FFFA
0000
0000
0000
FFFE
FFFF
0000
FFFC
FFFE
FFFF
FFFD
0000
FFFD
FFFF
FFFE
0000
FFFD
FFFE
0000
FFFD
FFFD
0000
0002
0000
FFFF
0001
0002
0000
0002
0002
0004
0001
0003
0000
FFFC
FFFE
FFFC
FFFD
FFFF
FFFD
FFFD
FFFF
FFFB
FFFE
0004
0000
0001
FFFF
0001
FFFD
FFFD
FFFD
0002
FFFF
0001
FFFF
0000
FFFE
0002
0002
FFFE
0000
FFFA
FFFE
0002
FFFF
0002
FFFF
0000
FFFC
FFFD
0001
0007
0003
0007
FFFE
FFFD
0000
FFFE
FFFC
FFFD
FFFE
FFFF
FFFE
0001
0006
0001
0007
0005
0000
0002
FFFE
FFFE
0002
0000
FFFD
FFFC
FFFD
0001
FFFF
0007
0008
0006
0002
FFFB
FFFF
FFFF
FFFD
FFFD
0000
FFFA
FFFC
FFFC
0001
000B
0003
0000
0001
FFF8
FFFF
FFFC
FFFD
FFFF
FFFB
FFFA
FFFE
FFFD
0005
0000
FFFF
0005
FFFD
FFFB
FFFF
FFFD
0002
FFFF
FFFB
FFF9
FFF8
FFF6
FFFD
FFFE
0005
0005
0003
FFFD
FFFF
FFFE
FFFC
0002
0002
FFFE
FFF9
FFF1
FFF9
0003
0003
0001
FFFE
0000
0001
0001
FFFD
0000
FFFD
0000
0000
FFF9
FFF9
FFF6
FFFF
0002
0001
FFFD
FFFE
FFFD
0000
0002
FFFD
0002
0004
0001
0003
0001
0001
FFFF
0000
FFFE
FFFD
0001
0002
0002
FFFF
0001
0001
FFFD
FFFE
FFFD
0001
0001
FFFF
FFFD
0002
FFFC
0001
FFFC
0000
FFFF
FFFE
FFFC
0001
0002
FFFF
0001
0001
0001
FFFF
FFFD
FFFE
0001
0004
0007
000C
000E
000D
0002
0007
000B
0007
0004
FFFC
FFFF
FFFE
0001
0005
000E
000F
000A
000C
0007
0007
0011
0010
000E
0002
0002
FFFB
FFFA
0001
0006
0004
FFFB
FFF7
FFF7
0003
0008
0011
0012
0006
0002
FFFC
FFFA
FFF5
FFFF
FFFD
FFF5
FFEF
FFEE
FFEC
FFFB
0002
0006
0005
0000
FFFC
FFFC
FFFC
0002
FFF8
FFF4
FFF1
FFED
FFEC
FFF1
FFF2
FFF4
FFEF
FFFC
FFFA
FFF5
FFFD
0005
FFFE
FFF8
FFF2
FFE9
FFE9
FFF0
0001
0001
FFF1
FFEB
FFFC
FFF6
0009
0008
0005
0005
FFF6
FFEF
FFEF
0005
000F
0011
0002
FFF8
FFFF
FFE4
0009
0008
000B
0006
FFFF
FFFC
0004
0005
0008
000D
0000
FFF6
FFFB
FFE9
FFFF
000B
000E
000A
FFFD
FFFA
0001
0002
FFFB
0000
FFF8
FFF5
FFF7
FFED
FFF3
0005
000F
000F
0000
FFFD
FFFF
FFFD
FFF6
FFF6
FFF0
FFF8
FFF8
FFEB
FFED
FFF4
0009
0014
0012
000A
000B
0000
FFF9
FFF8
FFFA
FFFA
FFFC
FFED
FFE8
FFF3
FFF4
0000
000C
0011
0007
FFFE
FFF7
FFF8
FFFC
FFFC
FFFC
FFF8
FFEC
FFEB
FFEE
FFEA
FFF0
FFF3
FFF3
FFF6
FFF4
FFF0
FFF2
FFFB
FFFE
FFFE
FFF4
FFF1
FFF0
FFF2
FFEB
FFE8
FFED
FFF2
FFF3
FFFA
FFFB
0002
FFFF
0000
FFFE
0002
FFFE
0003
0003
0003
0002
0005
0004
FFFD
FFFF
0000
FFFF
0001
0001
0001
0003
0001
0005
0005
0002
0009
0009
0007
FFFF
0001
FFFF
0000
FFFE
FFFE
0001
FFFD
FFFD
FFF8
FFFC
FFFC
0002
0002
0001
0002
0001
0002
0001
FFFE
0002
FFFC
FFFC
FFFE
FFFA
FFF6
FFFA
FFFB
FFFB
FFFF
0001
0002
0000
FFFC
0000
FFFF
0002
FFFD
FFF2
FFED
FFF9
FFFA
FFFE
FFFD
FFFD
0000
FFFF
0001
0006
FFFF
0005
FFFC
FFF7
FFF6
FFFC
0003
0000
FFFA
0000
0001
0002
0006
0003
0004
0007
FFFA
FFFC
FFFB
0000
0009
0005
FFFD
0000
FFFD
FFFC
0002
0005
0009
0009
0003
0001
FFFD
FFFE
0002
0002
FFFE
0002
FFFC
FFFF
FFFF
0005
000F
000C
0003
FFFD
FFFD
0000
FFFF
FFFC
FFFA
0001
0001
FFFB
FFFB
FFFB
000D
000A
0002
FFFF
0006
0005
FFFD
FFFE
0001
FFFF
0000
0002
FFFC
FFF8
FFFE
0008
0005
0005
0001
0001
0001
FFFF
0000
0000
FFFE
FFFF
0002
FFFD
FFF8
FFFC
FFF8
FFF7
FFFD
0000
FFFC
0000
FFFF
0002
FFFF
FFFD
0001
FFFD
FFFF
FFFA
FFF7
FFFC
FFFB
0001
FFFF
FFFD
FFFC
0002
FFFE
FFFD
0002
FFFD
0000
FFFE
FFFF
FFFF
0000
FFFE
FFFF
0001
FFFE
0003
0003
0004
0003
0009
000B
000A
000A
0005
0005
0007
0006
0005
0001
0004
FFFF
0007
0005
000D
000E
000E
0008
000A
000A
000F
000B
000A
0002
FFFE
FFFC
0000
FFFF
0001
0000
0001
0005
0006
000A
000B
0009
0007
FFFE
FFFE
FFF6
FFF5
FFF8
FFF8
FFF7
FFFC
0000
0000
FFFD
FFFB
FFFB
FFFA
FFFB
FFFE
FFF2
FFEE
FFFB
FFFF
FFFC
FFFB
0000
FFF7
FFF0
FFF2
FFF6
FFEE
FFEA
FFFA
FFF3
FFF4
FFFE
FFFC
FFFB
0006
FFFB
FFF5
FFF5
FFF6
FFFC
0000
FFF3
FFFF
FFF3
FFF9
0003
FFFE
0007
0004
0000
FFFC
FFFC
0000
0009
000F
FFF8
FFFC
FFF0
FFFA
0000
FFFF
0008
0004
0009
0005
FFF9
0002
0006
0009
FFF8
FFFF
FFE7
FFF4
FFF9
0000
0006
000A
0006
FFFA
FFFF
0007
0003
0000
FFF3
FFFE
FFEC
FFEF
FFF4
0003
0007
0005
0001
0009
0007
0003
0005
FFF7
FFF6
FFF8
FFED
FFEF
FFF2
FFFF
000B
0009
000F
000B
0009
0003
FFFA
FFF7
FFFB
FFFF
FFF1
FFF2
FFF6
FFF8
FFF9
0000
0001
FFFC
FFFB
FFF7
FFFB
FFF4
FFFE
FFFF
FFF9
FFF1
FFF1
FFF1
FFF2
FFF7
FFF2
FFF6
FFF7
FFF1
FFF5
FFF9
FFFF
0002
FFFA
FFF9
FFF5
FFF5
FFF9
FFF7
FFF8
FFF7
FFF4
FFF6
FFFD
FFFF
0002
0001
0003
0005
0009
0008
000F
000C
0000
0002
0008
0009
0003
0005
FFFC
FFFD
0008
0005
000A
0007
0009
000A
000C
000C
0012
000D
0013
0009
0002
FFFE
FFFE
FFF9
FFFE
0003
FFFF
FFFC
FFFF
0006
000B
000F
000A
0000
FFFC
FFFE
FFF7
FFF1
FFF8
FFFE
FFF7
FFFC
FFFA
FFF1
FFF4
FFF9
FFFA
FFFB
FFFE
FFF9
FFF1
FFF6
FFFD
FFFF
FFF8
FFFD
FFF4
FFEB
FFED
FFF7
FFF0
FFE2
FFEF
FFFE
FFEF
0000
0001
0002
0000
FFFF
FFED
FFF1
FFF1
FFFD
0006
FFEF
FFEE
FFF8
FFF2
0003
0006
0007
0005
FFF8
FFF9
FFFE
FFFB
0009
0010
0002
FFF2
FFFE
FFE5
0000
0004
000A
0007
0000
0004
FFFB
FFFC
0002
000B
FFFB
FFF0
FFFD
FFE8
FFFF
0008
000E
000C
0004
FFFF
FFFE
0000
0003
FFFF
FFF4
FFEE
FFF7
FFEE
FFF1
FFFF
0009
0010
FFFF
0000
0007
0009
0003
FFFE
FFF5
FFF8
FFF8
FFED
FFF0
FFF6
0006
000E
000B
000B
0004
0003
FFF9
FFFB
FFF9
FFF8
FFFC
FFF7
FFEC
FFF0
FFF6
FFF9
FFFA
FFF7
FFF6
FFF5
FFF6
FFF5
FFF3
0000
FFFD
FFFD
FFF5
FFEE
FFEF
FFEA
FFED
FFF1
FFEF
FFF2
FFF0
FFF7
FFF7
FFFD
0001
FFFD
FFFC
FFFB
FFF7
FFF9
FFF7
FFF1
FFF5
FFF6
FFFB
FFF6
FFFC
FFFE
0001
FFFE
0002
0009
0008
000E
000C
000B
0006
0009
0005
0007
FFFF
FFFE
FFFE
0003
0000
0009
0007
0005
0003
0004
0008
000A
000E
000D
000C
FFFE
FFFF
FFFB
FFFB
FFFB
FFFB
FFFB
FFFA
0000
0002
0008
0009
0006
0005
0001
FFFE
FFF9
FFF6
FFFB
FFF7
FFF9
FFFA
FFFB
FFF9
FFF9
FFF8
FFFB
FFF9
FFFB
FFFD
FFF4
FFF7
FFFC
FFFC
FFFB
0001
FFFB
FFF2
FFF4
FFF3
FFF7
FFF2
FFEC
FFFD
FFF1
FFF8
0003
0003
FFFF
0003
FFF8
FFF3
FFF4
FFF7
0000
0000
FFF2
FFF9
FFF3
FFFD
0006
0002
0006
0001
0000
FFFA
FFFB
0001
000B
000A
FFF9
FFFE
FFEC
FFFB
0003
0006
0003
0001
0000
0001
FFFC
0001
0005
0005
FFFB
FFFB
FFE9
FFF8
0001
0008
000C
000A
FFFC
FFFA
FFFE
0000
0001
0003
FFF4
FFFA
FFEB
FFF3
FFFA
0006
000A
0007
0006
0007
0007
0006
0003
FFFE
FFF9
FFFF
FFF4
FFF6
FFF3
FFF9
000A
000B
000D
0008
0003
0001
FFF9
FFFB
FFF9
FFFC
FFFC
FFF0
FFF2
FFF4
FFF7
FFF9
FFFA
FFFC
FFF6
FFF7
FFFB
FFF5
FFFA
FFFE
FFFF
FFF8
FFF3
FFF2
FFF6
FFF6
FFF2
FFF5
FFF5
FFF3
FFF9
FFF9
FFF9
0000
FFFC
FFFB
FFFA
FFF6
FFFA
FFF6
FFF4
FFF5
FFF9
FFFC
FFFF
FFF8
0001
FFFE
FFFE
FFFE
0009
0007
000B
000F
000E
0009
000B
000A
0008
0001
FFFF
FFFF
0003
0008
000B
000B
0010
000B
0006
0005
000B
000F
0012
0007
FFFE
FFFF
0003
FFFD
FFFF
0007
0008
0000
0007
0006
000B
000E
000F
0008
0000
FFFD
FFF9
FFF8
FFFA
FFFE
FFFE
FFFC
FFFE
0001
FFFE
0000
FFFE
FFFF
FFFB
FFFD
FFF2
FFF3
FFFB
0000
FFFC
FFFB
FFFD
FFF4
FFF2
FFF5
FFF3
FFED
FFF3
0000
FFEF
FFF2
FFFC
FFFC
0000
0001
FFF8
FFF0
FFF4
FFF7
FFFA
FFFC
FFF2
FFFB
FFF3
FFFA
0001
0005
0005
0006
FFF7
FFF5
FFF6
FFFD
000D
000A
FFF6
FFFC
FFEB
0001
0002
0006
0008
0002
0008
0000
FFF8
0003
0008
000A
FFF8
FFFC
FFEA
FFF6
FFFE
0005
0009
000C
0003
FFFB
FFFD
0002
0001
0000
FFF5
FFFE
FFE8
FFF2
FFFB
0003
000A
000B
0001
0000
0009
0003
FFFF
FFF9
FFF5
FFFA
FFF1
FFEF
FFF5
0005
000C
000E
000C
0008
000A
0002
FFFA
FFFB
FFF7
0000
FFF4
FFF3
FFF8
FFFB
0002
000A
0009
0003
FFFA
FFF5
FFF7
FFF8
FFFF
0001
FFFB
FFF3
FFF1
FFF3
FFF3
FFF6
FFF5
FFF5
FFF5
FFF3
FFF6
FFFA
FFFD
FFFE
FFFB
FFFC
FFF8
FFF6
FFF6
FFF8
FFF7
FFF7
FFF4
FFF6
FFFA
FFFC
0000
0000
0004
0001
FFFF
0001
0000
0002
0004
FFFE
0000
0003
0002
0004
0000
0005
FFFF
0003
0003
FFFD
FFFC
FFFB
FFFD
FFFA
FFFF
0002
0001
0000
0004
0004
0004
0004
0007
0003
0002
FFFA
FFF9
FFFE
FFFD
FFFE
0001
0003
0001
0000
0002
0005
0003
0003
0006
0006
0007
0005
0007
0007
FFFF
FFFF
0004
0003
0007
0004
FFFE
0000
FFF9
FFFB
0004
0004
FFFA
FFFD
FFFF
0003
0003
0006
0006
FFFF
0001
FFF8
FFF4
FFF5
0001
FFFD
FFF5
FFFD
FFFF
0005
0002
0005
0006
0004
0004
FFFB
FFF2
FFF2
000A
0008
0002
0002
0001
0006
0003
0005
0002
0002
0003
FFFC
FFF8
0005
0009
0009
0004
0005
0004
0002
FFFF
0003
0005
FFFE
FFFE
FFFF
FFFD
0004
0003
0002
FFFE
FFFF
0002
0002
FFFF
0002
0001
FFFF
FFFD
FFFF
0004
0003
FFF9
FFFC
FFFE
FFFC
0001
0003
0004
0000
FFFE
FFFE
0001
0003
0001
0000
FFFB
FFFE
0000
FFFF
0002
0002
FFFF
0001
0003
0001
0002
0004
0006
0006
0000
FFFB
FFFE
0003
0000
0003
0003
0004
0005
0003
0004
0004
0007
0009
0005
0001
FFFE
0005
0002
0000
0003
0005
0001
0003
0002
0008
0003
0008
0005
0000
FFFF
0000
0002
0000
FFFF
0004
0000
0002
0003
0001
0002
0004
0001
0004
0001
0001
0000
0005
0003
0004
FFFF
0002
0000
0003
FFFE
0000
0001
0001
0001
0002
0004
FFFF
0003
0004
0004
0005
0003
0001
0003
0000
FFFE
FFFE
0000
0000
0004
0005
0001
0002
0005
0001
0001
0001
FFFE
FFFF
0005
0003
0009
0003
0001
0002
0000
0002
0001
0004
0000
FFFA
FFFB
FFFD
FFF7
FFF9
FFFE
FFFE
FFFE
FFFF
0002
0005
0003
0001
0001
0002
FFFD
0000
FFFD
FFFA
FFFD
FFFF
0003
0000
0005
0005
0004
0001
0006
0004
000A
0009
0008
FFFF
0005
0002
0000
0003
0003
0001
0004
0005
0004
0009
000A
000C
0009
0004
FFFC
0002
FFFF
0000
0003
0005
0001
0003
0000
0002
0007
0005
0001
0000
FFFD
0004
FFFF
0005
0002
0000
0001
0003
0000
0004
0002
FFFB
0001
0002
0000
0005
0004
0003
0000
0004
0001
0001
0002
0001
FFFF
FFFE
0000
0000
0002
0003
0000
0005
0004
0000
0001
0003
0000
0002
FFFE
FFFE
0001
FFFF
0004
0005
0003
0000
0005
0002
0003
0002
0001
0000
FFFC
FFFE
FFFD
FFFF
0001
0003
0004
0000
FFFF
FFFF
0005
0001
0003
0001
0000
0001
0003
0004
0001
0002
0004
0004
FFFF
0000
0003
FFFE
FFF4
FFF1
FFF2
FFF0
FFF3
FFF3
FFF6
FFF9
FFFD
0001
FFFE
FFFF
FFFB
FFFA
FFEE
FFE7
FFE2
FFE5
FFDD
FFDF
FFE7
FFF2
FFF7
FFFA
FFFE
FFFE
0000
0003
FFFD
FFF1
FFEF
FFE8
FFEB
FFE8
FFE9
FFE8
FFED
FFF0
FFFB
0006
0003
0000
0007
0001
0000
FFF7
FFF8
FFF5
FFF4
FFF5
FFEF
FFEA
FFF5
0008
000A
0002
0008
000C
000D
000B
000B
000C
0008
0000
FFF2
FFEB
FFF1
000E
000E
FFFF
0001
0009
0008
000C
0017
0010
000E
0004
FFF4
FFEC
FFF5
000F
000A
0002
0000
FFF5
FFED
FFEB
0001
000B
0005
FFFF
FFF7
FFEF
FFF7
000C
0005
FFFF
FFFE
FFF2
FFE4
FFE6
FFED
FFF9
FFFF
0000
FFFD
FFFA
FFF8
FFFD
0000
FFFC
FFF7
FFF0
FFF2
FFF3
FFF4
FFFD
0007
0009
0001
FFFC
FFEC
FFF7
FFFC
FFF6
FFEF
FFF2
FFF7
FFFC
FFF7
FFF4
FFFC
FFF5
FFED
FFF1
FFF9
FFF8
FFF7
FFF4
FFF6
FFF4
FFF9
0000
FFFC
FFF1
FFEF
FFEB
FFE2
FFF2
FFFF
FFFB
FFFC
FFFE
FFFF
FFFB
FFF6
FFFE
FFFA
FFF6
FFF1
FFEF
FFE1
FFF1
FFFB
FFFE
0006
000B
0010
0009
0004
0005
0003
0003
FFF7
FFF5
FFEF
FFF6
FFF8
0001
0001
0006
000B
000B
0008
000E
000C
000C
0004
0001
FFFD
FFFE
0002
0001
FFFF
0001
0004
0002
0001
0002
0003
0002
0001
0001
0000
FFFF
FFFF
0001
0003
0004
0001
0002
FFFC
FFFC
FFFE
FFFF
FFFE
0001
0002
0004
0003
FFFF
0004
0003
0001
0004
0003
FFFB
FFF9
FFF7
FFF5
FFFB
FFFD
FFFD
FFFF
FFFF
0001
0002
0006
0008
0008
0007
0000
FFFF
0002
0004
0002
FFFC
0003
0005
0002
0005
0004
FFFF
0001
0002
0004
000A
0005
0006
0005
FFFC
0001
0005
0001
0002
FFFC
FFFA
FFF6
FFF6
FFF6
0003
0009
0003
0000
FFFD
0003
0000
0002
0001
FFF7
FFFB
FFF4
FFEC
FFF0
0004
0002
0002
0003
0001
0002
0002
0004
0001
FFFE
0006
0000
FFF0
FFF3
0000
0009
000A
0004
0003
0001
0002
0000
0001
0002
0001
FFFF
FFF6
FFFE
0000
0005
0001
0003
FFFC
FFFF
0003
0005
FFFF
0001
FFFA
FFF6
FFFD
0003
FFFE
FFFA
FFFF
FFFD
FFFE
0000
0001
FFFF
0005
FFFF
FFFE
FFFD
0001
0006
0000
FFF7
FFFD
FFFA
FFFF
FFFF
0005
0001
0002
0006
0002
0002
0008
0006
0001
FFFC
FFFB
FFFF
FFFF
0002
0002
0001
0004
0005
0007
000C
000A
0007
0006
0002
FFFE
0004
0004
0000
0004
0004
0002
0003
0002
0006
0008
0005
0005
0005
0001
0005
0001
0003
0002
0001
FFFE
FFFC
FFFD
FFFB
FFF9
FFF9
FFFD
FFFC
0000
FFFD
FFF9
FFFF
FFFF
FFFD
FFF8
FFFA
FFEE
FFEF
FFED
FFF1
FFF6
FFF3
FFF3
FFFC
FFF7
FFFF
0001
FFFC
0001
FFFB
FFF7
FFF5
FFF5
FFF3
FFF3
FFF0
FFF1
FFF0
FFF2
FFF9
FFFE
0002
0005
0004
0004
0002
FFF9
FFF8
FFF4
FFFA
FFFA
FFF7
FFF5
FFF2
0007
000B
000A
0004
0006
0003
0002
000A
000F
000A
0007
FFFE
FFF0
FFF3
000A
0009
0009
0000
0005
0003
0003
000F
0011
000C
0005
FFFF
FFF7
FFF5
000D
000C
0005
0008
0004
FFF7
FFEB
FFEF
0002
0007
0005
FFFE
FFFA
FFFF
0008
000F
0007
0003
FFFE
FFF2
FFE9
FFF3
0001
0008
0007
0008
0001
FFFC
0003
0002
0006
0002
FFFE
FFF4
FFF2
0002
0007
000A
0003
0000
FFF9
FFFA
FFFD
0000
FFFA
FFF7
FFF4
FFF8
FFFF
0003
0000
FFF8
FFFA
FFF2
FFF1
FFF8
0002
FFF4
FFF1
FFF4
FFFA
FFFC
0002
FFFD
FFF4
FFF2
FFEE
FFED
FFF2
FFFE
FFFA
FFF5
FFFF
FFFF
FFFF
FFFF
FFFC
FFF9
FFF6
FFF7
FFED
FFEF
FFEA
FFFA
FFFF
0000
0008
000B
0008
0005
0006
0004
0003
0000
FFF9
FFF5
FFF1
FFFC
0000
0006
0005
0006
0006
000A
000B
000B
000C
000C
0002
0003
FFFE
FFFF
FFFE
FFFD
FFFC
FFF8
FFF7
FFF5
FFF9
FFF7
FFF9
FFFB
0001
FFFB
0000
FFFE
0000
FFFB
FFF8
FFEE
FFEB
FFEA
FFEF
FFEC
FFEE
FFEF
FFF2
FFF7
FFFE
FFFB
0003
0001
0002
FFFE
FFF6
FFF2
FFF2
FFF2
FFF0
FFED
FFEB
FFEB
FFEE
FFFE
0004
0002
0008
0008
000C
0004
FFF7
FFF8
FFFE
0000
FFFC
FFF7
FFE9
FFF4
000A
0009
0002
0006
0006
0006
000B
0013
0011
0004
FFFB
FFF8
FFEA
FFF5
0011
000C
0003
0000
FFF8
FFFA
0000
000D
000D
0002
FFFE
FFF5
FFED
FFFA
000C
0010
0002
FFFB
FFF7
FFEB
FFE1
FFFF
000B
0001
FFFD
FFF7
FFF4
FFFC
0008
0008
0002
FFFF
FFF5
FFE6
FFE5
0004
0008
0008
0007
FFFF
FFFF
FFF1
FFFD
0003
FFF7
FFFC
FFF8
FFF4
0000
0008
0006
0005
0003
FFF9
FFF5
FFF9
FFFF
FFF9
FFF2
FFF1
FFF5
FFFC
0005
0000
FFF9
FFF5
FFF2
FFEB
FFEE
FFF8
FFF8
FFF4
FFF7
FFF4
FFF8
0001
0004
FFF9
FFF1
FFEF
FFE7
FFE2
FFFB
FFF9
FFFA
FFFB
0002
FFFF
0000
0002
FFFF
FFFD
FFFB
FFF2
FFEF
FFE3
FFFA
FFFA
0000
000A
0010
0010
0008
0007
000A
000B
0005
FFF9
FFF4
FFED
FFF4
FFFB
FFFF
0002
0005
0006
000A
0007
000D
0011
000E
0009
0001
0000
FFFB
FFFF
FFFD
0003
FFFF
FFFC
FFF6
FFF4
FFFA
FFFB
FFFC
FFFC
FFFC
FFFD
0000
FFFE
FFFE
FFFE
FFFD
FFF3
FFEE
FFF1
FFF8
FFF5
FFF6
FFFA
FFFA
FFFB
FFF8
0001
0000
0002
0002
0003
FFFE
FFF8
FFFB
FFF6
FFF9
FFF9
FFF6
FFF5
FFF1
FFF7
0006
000A
000A
000C
000A
0007
0002
FFFB
0000
FFFE
FFFE
FFFB
FFF0
FFF1
0007
000A
0007
0003
0007
0008
0007
000A
000C
0009
0006
0001
FFF1
FFF0
0008
000D
0004
0006
0002
FFFD
0001
000C
000F
0006
0004
FFFC
FFF4
FFF5
000F
000D
0004
0001
FFF9
FFF6
FFF0
FFF2
0003
0005
0005
FFFA
FFF5
FFFB
000D
0005
0000
FFFD
FFF9
FFF2
FFF1
FFF4
0006
0009
0007
0003
FFFA
FFF6
FFFA
0002
FFFF
FFFC
FFF6
FFF9
FFFA
0002
0006
0003
0004
FFF9
FFF6
FFF8
FFFC
FFFD
FFF9
FFF4
FFF6
FFFB
FFFF
0000
FFFC
FFFA
FFF5
FFF5
FFF4
FFF5
FFFB
FFF6
FFF8
FFF8
FFF6
FFFD
0000
FFFC
FFF4
FFF4
FFF2
FFEF
FFF3
FFFF
FFF8
FFF9
0003
0001
0000
FFFC
FFFF
FFFF
FFFC
FFF6
FFF3
FFEE
FFED
FFF9
FFFC
0002
000C
000A
0007
0009
0008
0009
0008
0000
FFFC
FFF9
FFF0
FFFD
0001
0004
FFFF
0007
0007
0006
000A
0008
000C
000F
0002
0005
FFFA
FFFE
FFFF
FFFE
0000
FFFC
FFFA
FFF2
FFF0
FFF5
FFF2
FFFA
FFF8
FFFC
FFFD
FFFF
0000
FFFC
FFFC
FFF3
FFEE
FFE4
FFE9
FFEC
FFED
FFEE
FFEE
FFF4
FFFB
FFFA
0003
0006
FFFF
0000
FFFB
FFFA
FFF8
FFF0
FFF3
FFF3
FFF5
FFF4
FFED
FFF2
0006
0004
0004
0001
0001
FFFE
FFFB
FFF6
FFFD
FFF8
FFF5
FFF8
FFEF
FFEF
0003
0009
000B
0006
0008
0006
0005
0009
000B
0008
0007
FFFD
FFF1
FFF2
0007
0009
0002
0004
0005
0007
000A
000D
0012
000A
0008
FFFC
FFEE
FFF3
0009
000E
0006
0007
0001
FFFB
FFEF
FFFA
0009
0004
0008
FFF9
FFF3
FFF8
0008
000E
0008
0004
FFFE
FFED
FFE6
FFF7
0005
0008
0004
0000
FFFA
FFF3
FFFE
0007
FFFF
FFFD
FFFC
FFF1
FFF6
0002
0006
000E
0004
0002
FFF5
FFF6
FFF8
FFFD
FFFA
FFF8
FFF6
FFF6
0000
0007
0002
FFFD
FFFB
FFF3
FFF0
FFFA
FFFF
FFF4
FFF5
FFF6
FFF7
FFF9
FFFF
0002
FFF9
FFF6
FFEF
FFEC
FFF4
FFFF
FFF9
FFF1
FFFF
0001
FFFF
FFFE
FFFF
FFFE
FFFB
FFF3
FFF3
FFEC
FFF1
FFFC
FFFE
0002
0009
0007
0005
0004
FFFF
0009
0006
FFFC
FFF6
FFF2
FFF5
FFFF
FFFF
0006
000A
000B
0007
0007
0009
000D
000A
0007
0002
FFFE
FFFE
FFFE
FFFE
FFFF
FFFF
FFFA
FFFA
FFFF
FFFD
FFFA
FFFE
FFFE
FFFF
FFFA
FFFA
FFFE
FFFA
FFFA
FFFA
FFFB
FFFF
FFFE
FFFD
FFFF
0001
FFFB
FFFF
FFFA
FFFE
FFFA
FFFE
FFFD
FFFB
0000
0000
0003
0003
0007
0002
0000
0002
FFFC
0000
FFFB
FFFB
FFFF
FFFB
FFFF
FFFE
0000
FFFE
0001
FFFE
0000
0000
0001
0000
FFFE
FFFC
FFFE
FFFD
FFFE
0002
0001
FFFB
FFFB
0007
0006
0009
FFFC
FFFA
FFFE
FFFD
0000
0000
0001
FFF9
FFF8
FFF9
0002
000C
0009
000A
0002
FFFB
FFFE
FFFC
FFFD
FFFD
FFF9
FFF6
FFFD
FFFF
FFFB
0002
0001
FFFE
FFFD
FFFC
FFFC
FFFB
FFFB
FFF9
FFFA
0003
0008
0002
FFF5
FFF5
FFF6
FFFB
FFFA
FFFE
FFFF
FFFD
FFFA
FFF9
0004
000A
0009
FFFF
FFF5
FFF4
FFFA
FFFA
FFFF
FFFE
FFFE
0000
FFF8
0001
0004
FFFF
0002
FFFA
FFFC
FFFB
0001
FFFB
FFFC
FFFB
FFFD
FFFD
FFF9
FFFF
0000
0001
000A
000D
0007
0007
0005
FFFE
FFFB
FFFB
FFFE
FFFA
FFFC
FFFB
FFFB
FFF9
0001
0008
0003
0008
0000
FFFF
FFF9
FFFE
FFFB
FFFD
FFF9
FFFE
FFFD
FFFC
FFFA
FFFD
FFF9
FFFB
FFFB
FFFC
0000
FFFC
FFFA
FFFF
FFFB
FFFF
FFF9
FFFB
FFFB
FFFA
FFFE
FFFC
FFFD
FFFA
0000
FFFA
FFFA
FFFF
FFFB
FFFA
FFFD
FFFF
FFFC
FFFE
FFFA
FFFD
FFFD
FFFE
FFFB
FFFA
FFFA
FFFF
FFFE
FFFF
FFFD
FFFC
FFFD
FFFB
FFFD
FFFC
FFFC
FFFE
FFFE
FFFB
FFFF
FFFF
FFFD
FFFD
FFFB
FFFB
0002
FFFE
FFFE
0000
FFFE
FFFD
FFFC
0000
FFFB
FFFE
FFFC
FFFD
0000
FFFE
0001
FFFF
FFFC
FFFC
FFFA
FFFC
FFF9
FFFD
FFFB
FFFC
FFFC
FFFF
FFFE
FFFA
FFF8
FFF9
FFFE
FFFF
0003
0000
FFF9
FFFA
FFFD
FFFF
FFFA
FFFB
FFFA
FFF0
FFF1
FFEE
FFF9
0005
0009
0001
FFFF
FFFC
0000
FFFB
FFFD
FFF8
FFFB
FFF5
FFF9
FFEB
FFF8
0000
0002
FFFE
0000
FFF9
FFFC
FFFA
FFFA
FFFF
FFFF
0007
0003
FFF5
FFF0
FFFB
FFFC
0000
FFFD
FFFE
FFFE
FFFE
FFF9
FFFF
0003
0002
0000
FFF1
FFF4
FFF7
FFFA
FFFC
FFFC
FFFD
FFFD
FFFA
FFFD
FFFC
FFF9
FFF8
FFFB
FFF7
FFFB
FFFA
FFF7
FFFC
FFFE
FFFA
FFFC
FFFD
FFFC
FFFA
FFF9
FFF8
FFFC
FFFF
FFFD
FFFF
FFFC
FFF9
FFFA
FFFC
FFFA
FFFD
FFFC
FFFB
FFF6
FFFC
FFF7
FFF4
FFF8
FFFC
FFFB
FFFC
FFFE
FFFC
FFFC
FFFC
FFFE
FFFC
0000
0000
0002
FFFE
FFFC
FFFC
FFFD
FFFD
FFFB
FFFB
FFFC
FFFE
FFFF
FFFB
FFFF
FFFB
FFF9
FFFB
FFFA
FFFB
FFFE
FFFC
FFFD
FFFB
FFFF
0002
0003
FFFF
FFFA
FFEE
FFE7
FFDA
FFDF
FFE9
FFEC
FFF9
FFFC
FFFE
0000
FFFE
FFF7
FFF2
FFFE
FFFA
FFFD
FFFB
FFFC
FFF9
FFF6
FFFC
FFFE
0004
FFFD
FFFC
FFF4
FFF6
FFFD
FFFC
FFFE
FFFA
0001
FFFB
FFF9
FFFB
FFFC
FFFE
0003
FFFC
FFFB
FFFA
FFFC
FFF9
FFFE
FFFB
0006
000C
0004
0004
0002
FFF9
FFFD
FFF9
FFFD
0002
000A
0004
0000
FFF6
FFF8
FFFD
0000
0005
0005
FFFE
0002
FFF5
0001
0009
000D
0010
0010
000A
FFF5
FFF4
FFFA
FFFF
0005
FFF9
FFF7
FFF7
FFFB
0002
0006
000D
000F
0014
0000
FFF3
FFF2
0001
000B
000C
0005
FFFE
FFF2
FFF3
FFF2
FFF8
000C
0010
0006
FFF9
FFFA
FFFD
0001
0005
0001
FFFE
FFF3
FFF5
FFFA
FFF9
0005
0005
000A
0000
FFFC
FFF9
FFFF
FFF6
FFFC
FFFA
FFF5
FFFE
0002
FFFF
0002
0002
0005
0006
0005
0003
0000
FFF6
FFED
FFF9
FFF5
0005
0004
0001
FFFC
FFFD
FFF9
FFFB
FFFF
FFFF
FFFD
FFF8
FFEE
FFFF
FFF4
FFFF
0005
FFFF
0001
FFFF
FFF9
FFF9
FFF9
FFFA
FFF9
FFFC
FFF7
0000
FFF1
FFEE
FFF5
0000
0008
0010
000C
0006
0005
0002
0001
FFF6
FFF8
FFFE
FFF8
FFEB
FFEC
FFEF
FFF8
FFF4
FFFE
FFFF
0002
FFFC
FFF3
FFFA
0000
FFFD
FFFD
FFFF
FFFC
FFFC
FFFC
FFFF
FFFE
FFFF
FFFA
FFFA
FFFB
FFFF
FFFB
0000
FFFB
FFFE
FFFA
FFFE
FFFE
0002
FFFD
FFFD
FFFA
FFFC
FFFC
FFFD
FFFF
FFFA
FFFE
FFFD
FFFC
FFFA
FFFE
FFFF
0003
0008
0003
0000
FFFC
FFFE
FFFD
FFFD
FFFD
FFFD
FFFE
FFFF
FFFC
FFFE
FFFB
FFFF
0000
0000
0002
0001
FFFD
FFFE
FFFF
FFFA
FFFF
0003
0006
0009
0003
FFFA
0002
0003
0002
FFFD
FFFB
FFFF
FFFE
0001
0000
000A
0008
000F
000D
FFFE
FFFD
0001
0002
FFFE
FFFE
FFFE
FFFD
FFFC
0000
FFFF
FFFB
000D
000A
FFFF
FFFA
FFFB
FFFD
0000
FFFD
FFFE
FFFF
FFFB
FFF8
FFF4
FFF6
0003
0007
0007
FFFD
FFF8
FFF7
FFFA
FFFE
FFFE
FFFB
FFFA
FFF6
FFFB
0000
000D
0003
0003
0000
FFFA
FFFA
0000
FFFF
FFFD
FFFF
FFF9
FFFF
0005
0007
000C
0003
0004
FFFF
0003
FFFC
FFFC
FFFE
FFFF
FFFF
FFFC
0006
000C
0009
0006
0007
0005
0002
0000
0002
FFFC
FFFA
FFFD
0000
FFFC
FFFE
0003
0005
0005
000D
0008
FFFF
FFFD
FFFF
FFFF
FFFC
FFFD
FFFC
FFFA
FFFA
FFF4
FFF8
FFFA
FFFE
FFFB
0000
FFFE
FFFE
FFFB
FFFE
FFFC
FFFC
FFFE
FFFE
FFFB
FFFD
FFFE
FFFD
FFF9
FFFC
FFFD
FFFA
FFFF
FFFD
0002
0001
FFFF
0001
0000
FFFC
FFF9
FFEE
FFF3
FFF6
FFF9
FFFC
FFFD
0000
0002
FFFC
0001
FFF8
FFF8
FFF5
FFF7
FFF7
FFF4
FFF3
FFF4
FFFF
0000
FFFE
0002
FFF8
FFF0
FFFC
FFFD
0000
0008
0007
000A
0005
0003
FFFE
0000
0001
FFFA
FFF7
FFF6
FFFC
0004
0007
0008
0006
0009
0006
0002
0001
0004
0004
FFFC
FFF5
FFFB
0000
0006
0005
0001
FFFB
FFFC
0001
0009
000A
0004
0001
FFF7
FFFD
FFFE
0002
0001
FFFE
FFFE
FFFC
0004
0008
0009
000C
0006
FFFF
FFFB
0003
0007
0004
FFFD
FFF4
0003
000A
000B
0009
000D
000A
0005
0002
FFFD
FFFD
FFF7
FFF7
FFF3
FFFB
0006
000C
0005
FFFD
FFF5
FFF5
FFF7
FFF9
FFF8
FFF1
FFF5
FFFB
0003
000A
000D
0002
FFF8
FFF6
FFF7
FFF6
FFFB
FFF1
FFFB
FFEF
FFF5
0005
000C
000C
0004
FFF4
FFF4
FFF7
FFFE
0001
FFFF
FFEF
FFFB
FFF2
FFFC
0004
0004
FFFE
FFFA
FFF8
FFFE
FFFC
0002
0003
FFFA
FFF2
FFFB
FFF4
FFF8
FFFD
FFF8
FFFC
000A
000D
0007
0003
0002
0000
FFF7
FFF7
FFFE
FFEF
FFF3
FFF7
FFFD
0001
000A
0007
0005
0006
0003
FFFC
FFF9
FFF9
0000
FFF2
FFF1
FFEA
FFF1
FFF0
FFF5
FFF8
FFF9
FFFC
FFF2
FFF9
FFFA
0002
FFFE
0000
FFFF
FFFC
FFF6
FFF2
FFE6
FFF0
FFF1
FFF9
FFF9
FFF8
FFFA
FFFC
FFFF
FFFC
FFF7
FFFA
FFFA
FFFB
FFFC
FFF4
FFF5
FFF2
FFFB
FFFE
FFF8
0005
FFF6
FFF6
FFF2
FFFE
FFFD
0003
000B
000A
000C
FFFF
FFFE
FFFF
0001
0004
FFF9
FFFB
FFFF
FFFD
FFFF
0003
0005
0006
0004
0002
0005
0001
0002
0002
FFF9
FFFE
0005
0008
000C
0007
FFFE
FFF8
FFFE
0004
000A
0006
FFFD
0000
FFF4
0001
0006
000C
000A
000C
0007
FFF5
FFFD
0004
000A
000B
0001
0003
FFF7
FFFE
0004
0003
0003
000B
000C
FFFE
0001
FFFD
0007
0005
0008
0002
FFFE
FFF3
FFF4
FFF4
FFF4
000A
0008
0000
FFFC
FFF5
FFF8
FFFA
FFFB
FFFA
FFF9
FFF3
FFF6
FFFE
0007
000E
0002
FFFF
FFFD
FFF8
FFF9
FFFE
FFF7
FFEF
FFF6
FFF1
FFFC
0008
000C
000C
FFF5
FFFB
FFFC
0002
0002
0003
FFF4
FFEF
FFF7
FFF2
0003
0004
0005
0003
FFFC
0001
FFFF
0005
0002
0003
FFF4
FFF5
FFFE
FFF4
FFFE
0002
0001
000C
000B
0009
0006
0007
0003
FFFC
FFF3
FFF6
0002
FFEF
FFEB
FFF8
FFF7
FFFC
0000
0000
0002
0002
FFFC
FFF5
FFF5
FFF7
0001
FFFB
FFF2
FFF4
FFEF
FFF1
FFF3
FFF4
FFF3
FFF4
FFF4
FFFB
FFF9
FFFF
0002
FFFD
0000
FFFD
FFF9
FFF6
FFF7
FFF4
FFF5
FFFA
FFF7
FFFA
FFFE
FFFC
FFFD
FFFA
FFF9
FFFA
FFFF
FFFD
FFFE
FFFE
FFFB
FFFA
FFF9
FFF9
FFFB
FFFE
FFF8
FFF9
FFF8
FFFB
0000
0000
0005
0008
0006
0006
0004
0002
0001
0005
FFFA
FFF9
FFFB
0001
0003
FFFF
FFFF
0005
FFFF
0002
0001
0001
0005
0001
FFF9
FFF6
FFFE
0003
0005
0006
FFFF
FFFA
FFF9
FFFD
0001
0002
0003
FFFF
FFF7
0000
0006
0008
000A
0006
0007
FFFF
FFFF
0000
0002
0007
0009
0002
FFF2
0000
0000
FFFE
FFFB
0001
0008
0005
0002
0000
0003
0002
0003
0006
0000
FFF4
FFF8
FFF4
FFF5
FFFF
0008
0009
0000
FFF8
FFF7
FFF9
FFFB
FFFE
FFFC
FFED
FFF5
0000
0003
0005
0005
FFFE
FFFD
FFFC
FFFE
FFFB
FFFA
FFF2
FFFA
FFEF
FFFA
0003
0005
0004
FFFB
FFF5
FFFD
FFFB
FFFF
FFFE
0000
FFEE
FFF9
FFF6
0000
0002
FFFF
FFFF
FFFC
FFFC
FFFE
0001
0004
0001
FFFD
FFF6
FFFE
FFF7
FFF6
0000
FFFF
0006
000B
0007
0006
0006
0002
0003
FFFD
FFF7
FFFE
FFF4
FFED
FFF2
FFFB
FFFB
0002
0005
0004
0003
FFFF
FFFD
FFF8
FFF8
FFFE
FFFC
FFF2
FFEC
FFF2
FFF1
FFF5
FFF6
FFFE
FFFB
FFF7
FFFC
FFFD
FFFB
0001
0002
0003
0002
FFFC
FFF0
FFE9
FFE2
FFE3
FFEE
FFF4
FFF7
FFF9
FFFB
FFFE
FFFB
FFFA
FFF9
FFFB
0001
0004
0006
0002
FFF4
FFFE
FFF9
FFFC
0003
FFFF
FFFA
FFEE
FFF9
0000
FFFF
FFFF
0003
FFFD
FFF7
FFFC
FFFC
0000
FFFF
FFF9
FFF8
FFF6
0002
0003
0001
0006
0004
0008
0003
FFFF
0004
0006
0002
FFFC
FFF7
0000
0003
0001
0004
0003
FFFE
FFFA
0000
0003
0007
0003
FFFB
FFF9
FFF9
0000
0007
0006
FFFF
0001
FFF8
FFFB
0004
0006
0009
0003
0002
FFF9
FFFD
0004
0003
FFFE
FFFB
0008
0005
0003
0002
0009
0008
0008
0001
FFF5
FFFA
FFFA
FFF8
FFF9
FFFF
000A
0009
0003
FFFA
FFFB
FFF6
FFF9
FFFB
FFFD
FFF2
FFF2
FFFD
FFFA
000A
000A
0005
FFF7
FFF7
FFF5
FFFA
FFFE
FFF3
FFF9
FFEC
FFFA
0002
0007
000A
0002
FFF4
FFF6
FFF8
FFFD
FFFE
FFFF
FFEA
FFF6
FFF4
FFFD
0006
0005
0001
FFF9
FFF9
FFFC
FFFB
0002
0004
FFFB
FFF1
FFFE
FFF5
FFFE
FFFC
FFF9
FFFB
0000
0002
0003
0002
0005
0003
FFFA
FFF8
0001
FFF2
FFEF
FFFD
FFFD
0008
000C
000E
000A
0007
0004
FFFF
FFF4
FFFA
0001
FFF7
FFF0
FFED
FFF4
FFF6
FFF4
FFFB
0000
0000
FFFA
FFF9
FFFE
0000
0000
FFFF
FFFC
0002
FFFC
FFFC
FFFE
FFFF
FFFF
FFFF
0000
0002
0000
FFFD
0001
0002
0002
0000
0000
FFFC
FFFB
FFF7
FFF6
FFF9
0000
FFFC
FFFC
FFFD
FFFF
FFFF
0001
FFFA
0000
0000
0003
0009
0007
FFFD
FFFC
FFFC
0000
0000
FFFC
FFFC
FFFC
FFFB
0001
0004
000B
000A
FFFD
FFFA
FFF9
FFFE
0000
0001
FFFF
0000
FFFD
0004
0006
0006
0001
FFF9
FFFB
FFF9
FFFA
FFFC
0001
FFFE
0000
FFFD
0005
0004
0009
FFFE
0005
0006
0006
0007
FFFF
FFFC
0000
0001
FFFF
0001
0003
0000
FFFF
FFFD
0006
0005
0004
FFF9
FFFA
FFFB
FFFF
FFFC
FFFD
0000
0001
FFFD
FFFC
0004
FFFE
0001
FFFF
FFFB
FFF9
FFFE
FFFE
0001
0001
FFFC
FFFB
FFFF
FFFF
FFF9
0004
000A
0001
FFFB
FFFA
0000
0002
FFFF
FFFF
FFFF
FFFB
FFFE
FFF7
FFF7
0000
0003
FFFF
0001
FFFC
FFFE
FFFF
0001
FFFE
FFFE
FFFF
FFFC
FFFF
FFFF
0005
0003
0003
0001
FFFF
0002
FFFF
0002
FFFC
FFFF
FFFE
0000
FFFE
0001
0003
0001
0003
0000
0000
FFFF
0000
0002
0001
FFFF
0002
0003
0000
0004
0001
0007
FFFF
0000
FFFD
FFFC
0002
0001
0000
0000
FFFF
0002
0000
0001
0005
0005
0001
FFFE
FFFF
0001
0001
0002
0001
0000
FFFE
FFFE
0000
FFFC
FFFE
0001
FFFF
FFFE
FFFF
FFFD
FFFF
0001
0001
0000
0002
0000
FFFF
FFFB
FFFF
FFFE
FFFE
0000
FFFC
0000
FFFD
FFFF
FFFF
0001
0002
FFFD
0001
0000
0005
0001
0000
FFFD
FFFE
FFFB
FFFE
0002
0000
FFFD
FFFD
0002
0002
0008
000B
FFFF
FFF4
FFF7
FFF9
FFFF
0002
0002
0001
0000
0000
0005
0005
000C
0003
0000
0003
FFFE
FFFB
FFFD
0003
FFFE
FFFD
0000
FFFE
FFFF
0003
FFFF
0008
0006
0004
FFFF
FFFB
FFFD
FFFE
0001
FFFE
0001
FFFA
FFFD
FFFA
FFFB
0003
0001
FFFB
FFF8
FFFB
FFFF
0003
0002
0002
FFFF
FFFD
FFFB
FFF6
FFFE
0009
0007
FFF7
FFFF
FFFD
0000
0001
FFFF
0001
FFFD
FFFC
FFFB
FFF9
FFFC
0006
0007
FFFD
0000
FFFD
FFFE
FFFE
0002
0001
0002
0001
FFFC
FFFE
0002
0009
0005
FFFF
0002
FFFD
FFFF
0000
FFFC
FFFF
0000
FFFE
FFFD
0003
0007
0007
0002
0001
0001
FFFD
FFFD
FFFE
FFFD
0001
FFFD
FFFD
0003
0003
0002
0000
0000
FFFE
FFFC
FFFB
FFFC
FFFD
0001
FFFE
FFFF
0000
0001
FFFC
FFFD
FFFE
FFF9
FFFB
FFFC
FFFF
0001
FFFD
0001
0000
0002
0000
0002
FFFF
0001
0000
FFFE
0003
0000
0001
0003
FFFE
0001
0001
FFFD
0002
FFFB
FFF7
FFF0
FFE4
FFEF
FFEA
FFF0
FFF6
FFFB
FFFD
0003
0002
FFFA
FFFC
FFF6
FFF3
FFE9
FFE7
FFE4
FFE1
FFE0
FFEB
FFF0
FFFF
FFFF
FFFD
FFF5
FFEC
FFEE
FFF2
FFF5
FFF4
FFEE
FFE9
FFED
FFEC
FFE4
FFEB
FFF5
FFF5
FFEF
FFEE
FFF0
FFF4
FFF2
FFFF
000B
0005
0000
FFFC
FFED
FFEB
FFF1
FFF5
FFEB
FFF5
FFF5
FFF2
FFF5
0008
000C
0011
0007
0005
FFF3
FFE6
FFEF
FFEE
FFF9
0002
0005
0003
FFF9
FFFA
FFFB
0004
0004
0001
FFEF
FFE9
FFF1
FFEC
0005
000C
0008
0004
FFFF
FFFA
0006
0012
000F
000B
FFFF
FFF7
FFF3
FFF2
0009
0009
000A
0007
FFF9
FFFC
000F
000D
0005
0002
FFF5
FFE9
FFF7
FFF1
FFFC
0002
0008
0007
FFFE
FFF9
0002
0007
FFF6
FFF2
FFEC
FFE4
FFF3
FFF1
FFF4
FFF8
FFFB
0001
FFF8
FFF9
FFFD
FFFD
FFFA
FFF8
FFEE
FFE9
FFFB
FFFB
FFF4
FFF6
FFF6
FFF5
FFEC
FFF4
FFFB
FFF7
FFFF
0000
FFFA
FFF6
FFFB
FFFD
FFF9
FFFC
FFFB
FFF7
FFF6
FFF7
FFF9
FFFC
0001
0000
0004
0000
FFFF
FFFF
FFFC
0001
0009
0003
0002
FFFC
FFFB
0007
0006
0007
0009
0007
FFFF
FFFF
0002
0007
000C
0009
000A
0008
0000
0005
000D
0006
0006
0001
FFFF
0001
FFFF
FFFE
FFFC
FFFE
0000
FFFF
0001
0001
FFFD
FFFE
0002
FFFF
0002
FFFE
FFFE
FFFE
FFFE
0001
0001
FFFC
FFFA
FFFB
FFFB
FFFB
FFFC
FFFF
FFFD
FFFC
FFFF
FFFE
FFFE
FFFC
FFFF
FFFD
0000
FFF9
FFF5
FFF8
FFFB
FFFE
0002
FFFD
FFFE
FFFB
FFF9
FFF6
FFF6
FFFD
000A
000B
0007
FFFD
FFF8
FFFA
0001
FFFD
0000
FFFD
FFFD
FFFB
FFFA
FFF8
FFF8
FFFE
0001
0003
0001
FFF9
FFFC
FFFF
FFFF
0000
0006
0009
000B
0001
FFF8
FFFB
0005
000B
0005
FFFE
FFFC
FFFC
FFFD
0002
000A
0008
0009
FFFA
FFFB
0000
0006
0007
0002
FFFF
0000
0002
FFFC
0003
0007
000C
0003
FFFA
FFEE
FFFE
0005
0001
FFFF
FFF8
FFFE
0002
0002
0000
0004
0003
0001
FFFE
FFF6
0003
0001
FFFB
FFFC
FFFD
FFFD
FFFF
0002
0001
FFFC
FFFA
FFF9
FFF4
0000
0005
FFFA
0002
FFFA
FFFC
FFFD
FFFF
FFFE
0003
0000
FFFB
FFF9
FFF5
0001
0001
FFFD
FFFE
FFFE
0001
0000
FFFD
FFFF
0003
FFFE
0002
0000
FFFC
0001
0000
FFFB
0002
0000
0004
FFFD
0001
FFFE
FFFF
0000
0004
0003
0005
0003
0004
0006
0003
0006
0000
FFFE
0002
FFFE
FFFD
0000
0006
0004
0002
0001
0002
0001
0004
FFFE
FFFF
FFFE
0000
FFFE
FFFD
0000
FFFD
FFFD
FFFA
FFF8
FFF7
FFF7
FFFA
FFFF
FFFA
FFFF
0000
FFFD
0001
FFF8
FFFA
FFF5
FFF0
FFF2
FFF2
FFF3
FFF2
FFF8
FFF7
0000
FFFC
0000
FFF5
FFF0
FFF4
FFF8
FFF7
FFF1
FFF1
FFF1
FFF3
FFF3
FFEF
FFF5
FFF7
FFF4
FFE8
FFF0
FFF7
FFFD
000A
000E
000C
0004
FFF9
FFF6
FFED
FFEE
FFF7
FFE9
FFEE
FFFD
0005
000A
000E
000C
0002
FFF9
FFF8
FFF7
FFEB
FFEF
FFF2
FFEC
FFFD
0008
000B
000A
0002
FFF9
FFFD
0002
0009
0002
FFF8
FFEE
FFF2
FFFB
0006
0007
0005
FFFF
FFFE
000C
000B
000C
000A
0000
FFF7
FFEF
FFF6
0004
0005
FFFE
FFFC
0001
0009
0009
000A
0006
FFFB
FFFA
FFEF
FFF1
FFF7
FFFE
FFFA
FFF6
FFFB
0001
0003
0004
0007
FFFF
FFFB
FFF7
FFF0
FFF3
FFF6
FFF6
FFF8
FFFC
FFFF
FFFB
FFFC
0003
0003
FFFA
FFF8
FFF6
FFF2
FFFA
FFF6
FFF0
FFF7
FFF4
FFF5
FFF4
FFFD
0000
FFF9
FFF6
FFF5
FFF7
0000
FFFD
FFF8
FFF8
FFF6
FFF8
FFFB
FFFB
FFFA
FFF4
FFF5
FFF9
FFFA
0005
000C
0000
FFFB
FFF6
0002
0007
0007
0007
FFFF
FFFC
0000
0009
000A
000B
0006
FFFB
FFFE
0001
0008
000A
0009
0008
000E
000F
0009
000D
0009
0008
FFFE
0001
0003
FFFC
0001
FFFC
FFF9
FFF7
FFF3
FFF7
FFF8
FFF7
FFF8
FFF9
FFFF
0002
0002
FFFA
FFF9
FFF7
FFF2
FFED
FFEF
FFE7
FFE9
FFED
FFF2
FFF8
0000
FFF9
FFF9
FFF7
FFF0
FFF0
FFF3
FFFB
FFF6
FFED
FFEE
FFEF
FFF0
FFED
FFEA
FFF6
FFF4
FFEE
FFEF
FFF4
FFF6
0001
0010
0013
000C
FFFC
FFF5
FFE6
FFE5
FFEB
FFF3
FFEF
FFF7
FFF7
0000
0008
0006
0006
FFFF
FFFB
FFF8
FFE8
FFE5
FFF0
FFED
FFF6
0007
000B
0007
0002
FFF1
FFFD
0006
000A
0003
FFFE
FFEC
FFF0
FFF1
0004
0009
0005
0009
FFF9
FFFF
000E
000B
000D
0007
FFFE
FFE5
FFF4
FFF2
0003
0006
0007
0002
FFFD
FFFC
0009
000C
FFFB
FFFC
FFF1
FFE4
FFF5
FFF5
FFFE
FFFD
0001
0009
FFFB
FFF3
0006
0004
FFF7
FFF2
FFED
FFE5
FFFA
FFF7
FFF2
FFFC
FFFA
FFFB
FFF3
FFFC
0004
FFFC
FFFA
FFF6
FFEE
FFED
FFF8
FFF6
FFF4
FFFB
FFF9
FFF2
FFF3
FFFE
FFFD
FFFE
FFFD
FFFE
FFF8
FFFF
FFFB
FFF9
FFF9
FFFA
FFFB
FFFB
FFFC
FFFB
FFFA
0000
0002
0004
0009
FFFF
FFF8
FFFF
0000
0004
000A
0008
0005
0003
0003
000C
000A
000A
0009
FFFF
FFFC
0003
0001
000C
0004
0006
000A
000E
000D
0009
000B
000B
0003
0004
FFFA
FFFF
0000
FFFA
FFFB
FFFA
FFF5
FFF8
FFF9
FFF6
FFF6
FFF9
FFFE
FFFD
0001
0001
0000
FFFC
FFF7
FFF6
FFF6
FFF9
FFF5
FFF4
FFF3
FFF5
FFF4
FFFC
0000
FFFB
FFFA
FFF3
FFF2
FFF5
FFFD
FFFD
FFF9
FFFB
FFFA
FFF7
FFF5
FFF4
FFFA
FFF8
FFF0
FFF1
FFF2
FFFB
FFFC
0009
000B
000D
0005
FFFE
FFF6
FFED
FFED
FFF8
FFEF
FFF6
FFFE
FFFE
0003
0004
0004
0002
FFFE
FFFB
FFF7
FFEF
FFF2
FFF4
FFF4
0006
0003
0009
0007
FFF8
FFF8
FFFF
0007
0004
0003
FFF8
FFEC
FFEF
0000
000B
0006
0003
0000
FFFF
0007
0009
000B
0007
0004
FFF5
FFEE
FFF2
0000
0006
0004
0001
0002
0004
0000
0007
0007
FFFE
FFF9
FFF3
FFEF
FFF3
FFF9
FFFF
FFFD
0001
0003
FFFC
FFFF
0005
FFFA
FFF8
FFF6
FFEC
FFF6
FFF5
FFF4
FFF9
FFFD
FFF9
FFFA
FFF9
FFFB
0001
FFFA
FFF9
FFF9
FFF6
FFFA
FFFE
FFF8
FFFC
FFF8
FFF8
FFF6
FFF8
FFF8
FFFC
FFF9
FFFA
FFFA
FFFF
0001
FFFD
FFFC
FFF9
FFFF
FFFF
FFFC
FFFC
FFF8
FFF8
FFFC
0003
0008
0004
0000
FFFC
FFF8
0009
0008
000A
0008
0002
0002
0005
000A
000B
000B
0009
FFFE
0001
0005
000A
000A
0006
0004
0006
0006
0006
0007
0009
0004
0001
FFFC
0003
0002
FFFF
FFFD
FFFA
FFF6
FFEB
FFE9
FFEF
FFEF
FFF4
FFFA
0000
0002
0001
FFFF
FFFD
FFF8
FFF4
FFED
FFF4
FFEE
FFEA
FFEC
FFF0
FFF2
FFF6
FFFF
0001
FFFD
FFF4
FFEF
FFF4
FFF8
FFFB
FFFA
FFF6
FFF9
FFF8
FFF0
FFED
FFF1
FFFC
FFF1
FFE9
FFF4
FFF6
FFF8
0002
0006
0001
FFF7
FFF5
FFF0
FFED
FFED
FFF4
FFEC
FFF4
FFF9
0001
0005
000B
000D
0005
FFFA
FFF8
FFF2
FFEA
FFF0
FFF1
FFEF
0000
0002
0007
0007
0000
FFFB
FFFE
0003
0002
FFFF
FFF0
FFF3
FFED
FFF8
0008
0006
0007
0000
FFF5
0005
0006
000C
000D
0004
FFF3
FFF0
FFF7
0001
0007
0002
0002
FFFB
0005
0006
0008
000C
0002
FFFB
FFE8
FFF6
FFF4
0002
FFFE
FFFD
0002
0002
FFFA
FFFA
0008
0001
FFFD
FFF5
FFED
FFF4
FFF7
FFF5
FFF9
FFFC
0001
FFFB
FFF9
FFFE
0003
FFF8
FFFA
FFF3
FFED
FFFA
FFF5
FFF5
FFF7
FFFA
FFFB
FFF6
FFFC
FFFD
FFF9
FFF6
FFF8
FFF7
FFFC
0000
0000
FFF6
FFF7
FFF9
FFFF
FFFC
FFFE
FFFC
FFF5
FFF7
FFFE
0005
0004
FFFD
FFFE
FFFA
FFFB
0001
0004
FFFF
FFFC
FFFA
0003
0007
000C
000B
0003
0000
0000
FFFE
0006
000C
0007
0009
000A
0006
000B
0009
000E
0003
0005
FFFB
