FFFD
0000
FFFF
FFFC
FFFC
FFF6
FFEF
FFFE
FFFD
FFFB
FFFA
FFF7
0001
FFFF
0000
FFFD
FFF9
FFF9
FFF4
FFF1
FFF2
FFEE
FFEB
FFE9
FFE9
FFF1
FFFA
FFFC
0003
FFF7
FFFB
FFF9
FFFA
FFF7
FFFD
0003
0005
0000
FFFA
FFF8
FFFA
FFF8
FFFA
FFEF
FFF4
FFF6
FFF9
FFF7
FFF8
0005
000A
0008
0004
FFFF
FFFA
FFEE
FFF9
FFF8
FFF6
FFF8
FFF8
FFFA
FFFF
0003
000E
000D
0009
0003
0000
FFE8
FFFD
FFF6
FFF7
FFF9
FFF6
FFFF
0005
0004
FFFC
0008
0007
000C
0009
FFEE
FFF9
FFF8
FFF4
FFFF
0001
0007
FFFF
FFED
FFE9
FFF5
FFFD
000B
000C
FFFC
FFF9
FFF9
FFF4
0003
0008
0009
FFF7
FFE1
FFE9
FFF5
FFFA
0008
000F
0002
FFF8
FFF0
FFF9
0002
0009
000C
FFEF
FFE5
FFEB
FFF4
0003
0003
000B
FFFB
FFF8
FFEF
FFF8
0001
0008
0011
FFFC
FFF2
FFF2
FFFB
0002
0006
0006
FFF8
FFED
FFF2
FFF8
FFFE
0004
0010
0005
FFF9
FFFB
0000
0000
0005
FFFA
FFF9
FFFD
FFED
FFF5
0002
0004
000C
000F
0007
0003
FFFA
FFFC
FFFE
FFFA
FFFC
FFFF
FFF6
FFF6
FFF4
FFF8
FFFB
0000
FFFF
FFFB
FFF5
FFEF
FFF1
FFFD
FFFD
0003
FFFD
FFFB
FFF8
FFEE
FFEE
FFED
FFEA
FFEE
FFF3
FFF4
FFF7
FFFC
0002
FFFC
FFFC
FFFC
FFFC
FFFC
FFFD
FFFE
FFFF
FFFD
FFFC
FFFE
FFFE
FFFE
FFFD
0001
FFFC
FFFC
0000
0000
FFFF
FFFE
FFFF
FFFC
FFFC
FFFE
FFFF
FFFC
FFFF
0000
FFFF
FFFE
FFF9
FFFA
0000
0001
0003
0007
0001
FFFF
FFFF
FFFE
FFFF
FFFB
FFFF
FFFF
FFF8
FFFE
0003
0004
0007
0005
0008
FFFD
FFFD
FFFA
FFFC
FFFE
FFFB
0000
FFFC
FFFF
0005
0004
0003
0004
0009
0004
0002
FFFC
FFFE
FFFF
FFFD
FFFE
0002
FFFF
0003
FFFD
FFF3
FFFD
0009
0005
000A
FFFD
FFFE
0000
FFFA
0004
0001
0005
0001
FFF8
FFED
FFF4
0006
0007
000B
0005
0000
FFFE
FFFB
0005
0006
0007
FFFB
FFF2
FFEF
FFF6
0005
0001
0007
0000
0000
0000
FFFE
0004
0008
0005
FFFD
FFF0
FFF2
FFFD
0002
0001
0008
0001
0001
0000
FFFD
0006
0006
0008
0004
FFF6
FFFB
0004
FFFF
FFFF
FFFE
FFFD
FFFF
FFFF
FFFD
0005
0001
000A
0005
0001
0000
FFFF
FFF9
FFFD
FFFB
0000
FFFE
FFFE
FFFC
FFFE
0003
0004
0008
0003
FFFC
FFFD
FFF9
FFFC
FFFA
0000
FFFC
0001
FFFB
FFFE
FFFE
0003
0004
0005
0000
FFFC
FFFD
FFFA
0001
FFFE
FFFF
FFFC
FFFD
FFFD
FFFD
FFF8
FFF7
FFFB
FFF8
FFFC
FFFC
0000
FFFC
FFFC
FFFF
FFFD
0003
FFFE
FFFD
FFFD
FFF5
FFFE
FFF0
FFF7
FFF3
FFF4
FFFA
FFFD
FFFC
FFFD
0000
FFFA
FFF8
FFF8
FFF3
FFF7
FFF4
FFF5
FFF2
FFF4
FFF4
FFF8
FFFA
0002
FFFF
FFF3
FFF7
FFFA
FFF8
0002
0006
0004
0003
FFFE
0001
FFF9
FFF3
0001
FFFC
FFF4
FFF7
FFF9
FFFE
0002
0003
000A
0007
0006
0002
0000
FFEB
FFFB
FFFF
FFF9
FFFB
FFFD
0001
0002
0007
0009
000E
0009
0008
0008
FFE7
FFFB
FFFE
FFF3
0001
0004
0006
0007
FFFF
FFF6
0003
0009
0006
0009
FFF5
FFFF
FFF8
FFFC
0007
0004
0007
FFFE
FFED
FFEE
FFF8
0006
0007
0008
0000
FFFD
FFF6
FFFD
0006
0007
000A
FFF8
FFEF
FFF3
FFF7
0007
0003
0009
FFFE
FFFE
FFF4
0001
0003
0008
000D
FFF8
FFEE
FFF3
FFFF
0003
0006
0008
FFFA
FFFB
FFF3
0001
0005
0004
000C
FFFC
FFF4
FFFD
0004
0002
0007
0004
FFF8
0002
FFF4
FFFD
0000
0007
000B
0009
0000
0002
FFFD
0002
0003
FFFD
FFF7
0001
FFF5
FFFD
0000
0005
0009
000A
0008
0005
FFFC
FFF9
FFF7
FFF7
FFF9
FFFD
FFFA
FFF7
FFF9
FFFA
FFFF
FFFE
0001
FFFA
FFF5
FFF4
FFF5
FFFA
FFFD
FFFF
0001
FFF9
FFF9
FFF5
FFF0
FFEE
FFED
FFF3
FFF0
FFF3
FFF6
FFFD
0001
0000
FFFE
FFFD
0000
0000
FFFD
FFFE
FFFD
FFFB
FFFD
0000
FFFC
FFFE
FFFB
FFFD
FFFC
FFFD
FFFF
FFFC
0000
FFFD
0002
FFFD
FFFD
FFFE
FFFB
0001
FFFC
0001
FFFD
FFFB
FFFF
FFFD
0001
0002
0005
0002
FFFF
FFFE
FFFB
FFFD
0000
0001
FFFB
FFFC
FFFD
FFFF
0002
0002
FFFF
0002
FFFB
FFFA
FFF9
FFFA
FFFF
FFFE
FFFF
0000
FFFE
FFFF
0006
0002
FFFC
FFFB
FFFE
FFFA
FFFA
FFFD
FFFC
FFFC
FFFD
0001
0003
0002
0001
FFFA
FFF7
FFFE
0003
0004
0002
FFFE
FFFD
0000
FFFE
0005
0002
0003
0000
FFF5
FFF7
0004
0009
0007
0000
FFF9
FFFC
FFFD
FFFE
0008
0006
0002
FFF5
FFF4
FFFB
0008
0005
000A
0001
FFFC
FFFE
FFFE
0002
0002
0003
0004
FFF9
FFF8
0009
000C
0002
0005
0000
FFFF
0001
FFFD
0002
0003
0003
0001
FFFB
FFFC
0009
0004
0003
0004
FFFF
FFFE
FFFF
FFFD
0001
0002
0001
FFFE
FFFB
FFFF
FFFE
0000
FFFD
FFFE
FFFF
0001
FFFD
FFFD
0000
0002
0000
FFFC
FFFA
FFFC
FFFD
FFFD
FFFB
FFFF
0002
0001
FFFC
FFFD
FFFE
0001
0001
FFFF
0001
FFFE
FFFA
FFFF
FFFC
FFFD
FFFC
FFFE
FFFB
FFFB
FFFE
0001
FFFB
FFFF
0001
FFFE
FFFB
FFFF
0000
0001
0002
FFFE
FFFF
0003
FFFF
0000
0005
0005
0003
0001
FFFF
FFFF
FFFF
0004
0001
0004
0001
0002
0004
FFFF
0003
FFF9
FFFB
FFF7
FFFA
FFF7
FFF1
FFF3
FFF9
FFFB
0004
0001
0004
FFF6
FFF1
FFEF
FFEF
FFF0
FFF0
FFF0
FFEC
FFE7
FFE8
FFF1
FFF7
FFFD
FFF6
FFF6
FFEC
FFEA
FFF1
FFF5
FFF5
FFF0
FFF2
FFEC
FFEA
FFEA
FFEB
FFFF
FFF4
FFF5
FFEE
FFEF
FFEC
FFF1
0003
0008
FFFB
FFEE
FFE6
FFE1
FFE8
FFFE
FFF2
FFEF
FFEA
FFE8
FFE9
FFF7
0007
0006
FFFE
FFED
FFE4
FFE5
FFE1
0000
FFF1
FFEC
FFE5
FFE2
FFE5
FFEF
FFEA
FFE8
FFEC
FFF4
FFF4
FFE9
FFF1
FFFF
FFF2
FFEC
FFE3
FFE6
FFE3
FFE1
FFDE
FFDD
FFEC
FFF6
FFF7
FFF5
FFF8
FFFD
FFF7
FFEE
FFE8
FFE6
FFDE
FFDB
FFD8
FFE9
FFF9
FFFB
FFFB
FFF6
FFF4
FFF9
FFF7
FFF5
FFF0
FFF0
FFE7
FFE0
FFF4
0008
0001
FFF7
FFF6
FFF7
FFFE
FFFD
FFFD
FFFA
FFFA
FFFA
FFFA
FFFB
0002
FFFC
FFFA
FFF9
FFFA
FFF9
FFFB
FFFD
FFFC
FFFF
0001
0008
0008
000B
000B
0006
0000
0002
FFF8
0002
0001
FFFC
FFF2
FFFD
0001
0007
000B
000B
0006
FFFD
FFF9
FFEE
FFFA
FFF5
FFFE
FFFD
FFFF
FFF6
FFEB
FFE7
FFE9
FFE5
FFE8
FFE9
FFEF
FFF4
FFF7
0001
FFFF
0002
FFFC
0001
FFFF
FFF7
FFF3
FFF5
FFF4
FFF4
FFFA
FFF9
FFFD
0000
0000
0001
0000
FFFC
FFF9
FFFC
0000
0001
FFFE
FFF9
FFF6
FFF2
FFF4
FFFE
0000
0002
FFF7
FFFA
FFF9
FFFE
FFFE
0004
0008
FFFB
FFF1
FFF0
FFEC
FFF5
FFFB
FFFF
FFF3
FFFE
FFF7
0000
FFFB
0003
FFFE
FFF7
FFF4
FFEC
FFED
FFFA
FFEF
FFFC
FFF5
FFFF
FFFC
FFFD
000A
0001
FFF7
FFF3
FFF9
FFFC
FFF4
0000
FFE8
FFFB
FFF3
FFFF
FFFC
000D
000A
0000
0005
FFFB
FFF7
000B
FFF9
000A
FFE9
FFFD
FFFB
0006
000B
0019
0006
0013
0013
FFF4
FFF1
000A
0004
000C
FFFB
FFFD
FFFB
FFFF
0013
0014
000C
001E
0007
FFF2
FFFE
0009
0006
0013
0003
FFFD
FFF5
FFF4
000A
000D
0013
0017
FFFE
FFEF
0007
000B
0004
0010
FFFD
FFFE
FFF5
FFEE
FFFD
000A
0015
000F
FFF9
FFF9
000A
0009
0001
0008
FFF8
FFFC
FFF5
FFED
FFF5
FFFD
0005
0002
0001
0004
000A
0002
0005
0002
FFF7
FFFB
FFF8
FFEF
FFEF
FFF8
FFFA
FFFA
FFFB
0003
0000
FFFA
0000
FFFB
FFFC
FFFF
FFFC
FFF4
FFEF
FFF2
FFFB
FFFF
FFFF
0001
FFFE
FFF6
FFF1
FFFA
FFFE
FFFF
0000
0001
FFF8
FFEE
FFEB
FFE5
FFE8
FFE6
FFE9
FFEC
FFF3
FFFF
0001
FFFD
FFFD
FFFA
FFFD
FFF7
FFF4
FFF2
FFF5
FFF6
FFF5
FFF5
FFF9
FFFC
0002
0001
FFFB
FFF6
FFF4
FFF9
FFFC
0001
FFFE
FFFD
FFF5
FFF8
FFF1
FFF3
FFFB
FFFD
FFF8
FFF5
FFF6
FFF9
0004
0003
0005
0003
0002
0000
FFFA
FFFD
FFF1
FFFF
FFF0
FFF9
FFFA
FFF9
FFFA
FFFF
0004
0006
0002
0001
0003
FFFE
FFF0
FFFC
FFF7
FFFD
FFFB
0000
0002
0002
0009
000B
0008
0005
0007
0006
FFEB
0000
FFF4
0001
0001
0004
FFFD
0003
0000
0000
0003
0005
0007
000C
FFF2
FFFB
FFFB
0005
0001
0004
0006
FFFB
FFE8
FFEC
FFF5
0003
000C
000D
FFFD
FFFD
0001
0005
0006
0006
0004
FFF3
FFE6
FFE9
FFF7
0005
0007
000D
FFFC
FFFC
FFFD
FFFF
0002
000C
0000
FFEF
FFE8
FFF1
FFFB
0004
0003
0008
FFF7
FFFC
FFFB
FFFF
0000
000C
0006
FFF7
FFF3
FFFE
0006
0003
0007
0003
FFFA
FFFC
FFF4
FFFE
FFFF
0001
0008
0006
FFFF
0003
0000
0002
0003
FFF8
FFFC
FFFC
FFF5
0001
0000
0009
0007
0004
000B
0002
0000
FFFD
FFFA
FFFD
FFFE
0001
FFF5
FFF9
0004
0009
000A
000D
0007
FFFB
FFF9
FFF2
FFF6
FFF8
FFFB
FFFF
FFFC
FFF5
FFF1
FFEC
FFEF
FFEA
FFEE
FFED
FFED
FFF2
FFF4
0000
FFFE
FFFD
FFFE
FFFD
FFF8
FFF2
FFF5
FFED
FFEF
FFF1
FFEF
FFF2
FFF6
FFF9
FFFC
FFFC
FFFE
FFF6
FFF8
FFF8
FFFD
FFFC
0003
FFFF
FFFD
FFFC
FFFA
FFF4
FFF9
FFF8
FFF6
FFF9
FFFB
FFFB
FFFD
0003
0006
0007
0007
FFFE
FFF8
FFF7
FFEA
FFFC
FFF3
FFF8
FFF7
FFFF
FFFF
FFFF
0001
0002
0000
FFFB
FFF5
FFF8
FFEC
FFFC
FFF3
FFFD
0001
0001
0004
0001
FFFD
FFFF
FFFE
FFFC
0001
FFF8
FFE6
FFFC
FFF5
0007
0003
0003
FFFF
FFF7
FFEB
FFF3
FFFC
0002
000A
0002
FFF6
FFFD
FFF9
0003
0008
0007
0000
FFEB
FFE8
FFEF
0006
FFFF
0006
0001
FFFD
FFFA
0000
0005
000C
0004
FFFB
FFE2
FFE6
FFFF
0007
0006
0006
FFF8
FFF4
FFF9
0003
0007
0009
0007
FFF8
FFE8
0002
000D
0007
0004
0003
FFF2
FFF3
FFFD
0002
0004
0005
0008
0001
0005
0009
0009
FFFF
0000
FFFC
FFEE
FFF7
FFF8
FFFA
0003
0001
0003
0005
000B
0006
0004
FFFE
0004
FFFE
FFF9
FFFF
FFFA
FFF3
FFF9
FFFC
FFFD
0002
0004
0002
0000
FFFC
FFF6
FFFD
FFFD
FFFF
FFFD
FFF3
FFF5
FFF4
FFF6
FFF8
FFEB
FFE4
FFE4
FFE9
FFF4
FFF7
FFFA
FFFF
0001
FFF3
FFF5
FFE8
FFE4
FFE2
FFED
FFEC
FFF0
FFEF
FFF3
FFF8
FFFC
0002
FFFF
0000
FFFF
FFFB
FFF4
FFF6
FFFE
FFFF
FFFD
FFF8
0000
FFFD
FFFE
0000
0001
FFFC
FFFC
FFF4
FFF3
FFEF
FFF3
FFFD
FFF9
FFEF
FFED
FFF1
FFF4
FFFC
0002
0001
FFFA
FFF5
FFF7
0001
0001
0004
FFFA
0001
000D
0008
FFFF
FFF8
FFFA
FFFC
FFF9
FFF2
FFF3
FFF3
FFFD
FFF7
FFF3
FFF8
0003
0003
FFFC
FFEE
FFFC
FFFB
FFF5
FFFA
FFF4
FFF5
FFFE
0000
0001
0000
FFFB
FFF6
FFF0
FFED
FFF8
FFF9
FFF7
FFFC
FFFB
FFF6
FFFD
0010
0010
FFFE
FFF5
FFF4
FFF1
FFF4
FFFB
FFFD
FFFE
FFFB
FFF5
FFF1
FFF5
0016
0010
FFF5
FFF3
FFF4
FFF4
FFF4
FFFE
FFFE
FFF5
FFF6
FFF5
FFF2
FFF3
0013
000B
FFF4
FFF3
FFF9
FFF5
FFF5
FFFB
FFF8
FFEA
FFE7
FFF2
FFF2
FFF7
0010
0005
FFEE
FFF4
FFFA
FFF8
FFF9
FFF9
FFF8
FFE9
FFEB
FFF7
FFF6
0002
0011
FFFB
FFF8
FFFC
FFFE
FFFD
FFFE
FFF9
FFFF
FFFF
FFFB
FFFC
FFFA
FFFF
000A
0001
FFFF
FFFE
0002
FFFE
FFFF
FFF9
FFFC
0004
0003
0001
FFFE
FFF8
0002
000C
0005
FFFF
FFFA
FFF7
0002
FFFE
FFF1
FFFC
0000
FFFE
FFF8
FFEF
FFF3
0001
0004
FFFD
FFFD
FFFB
0001
FFFD
0000
FFF8
FFEF
FFEE
FFEA
FFEB
FFEF
FFED
FFF5
FFFA
FFF9
FFFF
FFFD
0007
0004
0004
0009
0004
0006
0006
0009
0005
0007
0003
0004
0007
0006
0003
0003
0007
0006
0007
0007
0007
0006
0005
0009
0005
0003
0007
0006
0003
0003
0004
0005
FFFD
0000
0007
0005
0000
0004
0007
0004
0005
0005
0007
0003
0004
FFFF
FFFB
FFFB
0003
0003
FFFE
0003
0005
0004
0001
0006
0006
0008
0005
FFF9
FFFC
FFF9
0004
0007
0002
FFFA
FFFE
0002
0002
0003
0003
0005
0002
FFFF
FFF8
FFFA
000C
0010
FFFF
FFF7
FFFB
FFFE
0005
0009
0007
0005
0004
FFFF
FFFB
FFF6
000A
000F
FFF8
FFFA
FFFA
0001
0004
0007
0008
0005
0000
FFF8
FFF7
FFF7
0009
000C
FFF9
FFF3
FFFC
0002
0006
0003
0007
0007
FFFA
FFFB
FFFB
0001
000A
000B
FFF5
FFF5
FFFF
0004
0008
0005
0005
0008
FFFE
FFFD
0001
0003
000B
0000
FFF8
FFFD
0002
0006
0008
0006
0006
0005
0004
0002
0004
FFFF
0000
FFFD
FFFC
0003
0005
0004
0009
0007
0006
0007
0007
0003
0007
0002
FFFE
0003
0008
0008
0009
0003
0004
0004
0006
0007
0009
0007
0004
FFFA
FFFD
0005
0008
0004
0005
0004
0008
0003
0007
0003
0003
0005
0001
FFFB
FFFC
FFFD
0006
0008
0002
0003
0007
0006
FFFF
0003
0001
FFFD
FFFC
FFFB
FFFC
0000
0001
FFFA
FFF5
FFFC
FFFE
FFFD
FFFD
0000
0001
FFFB
FFFC
FFF6
FFFE
0006
FFFC
FFF1
FFFC
FFFC
FFF7
FFF5
FFFF
0001
FFFD
FFF8
FFF6
FFF8
0001
000B
0003
0000
0008
0005
FFFA
FFF5
0001
0001
FFF8
FFF5
FFF6
FFF5
FFF8
0000
FFFB
FFFB
FFFE
FFFF
FFFC
FFF1
FFFC
FFFE
FFF8
FFF7
FFF8
FFF6
FFF7
0009
0004
FFFE
FFFD
FFF9
FFF0
FFF1
FFFC
FFFD
FFF8
FFFC
FFFD
FFFC
FFF6
0010
0007
FFFD
FFFA
FFFA
FFF7
FFF7
FFF9
0000
FFFB
FFFA
FFFC
FFF4
FFF7
000D
000E
FFFA
FFFB
FFF8
FFFB
FFF8
FFFE
0001
FFF6
FFF7
FFFB
FFF4
FFFE
000A
0009
FFF7
FFF8
FFFA
FFF9
FFFC
FFFF
FFFD
FFF2
FFF6
FFF9
FFF8
0004
000E
FFF8
FFF8
FFFA
FFF8
FFF8
FFFE
FFFE
FFF7
FFF3
FFF9
FFFB
FFFB
0007
0009
FFF8
FFF9
FFFA
FFFE
FFFF
FFFA
FFFD
FFFA
FFF9
FFFF
0001
0004
0002
0005
FFFE
FFFD
FFFF
FFFF
FFFB
0000
FFFF
FFFA
0004
0003
0006
FFFD
FFF7
FFFD
0006
0005
FFFE
FFFB
FFF8
0003
0003
FFF5
FFFB
FFFF
FFFC
FFF4
FFED
FFF5
FFFD
0000
FFFE
FFFD
FFF9
FFFE
FFFF
FFFD
FFF3
FFF0
FFF2
FFEF
FFEE
FFF2
FFF0
FFF9
FFFB
FFFB
FFFB
FFFC
0005
0008
0005
0005
0007
0007
0006
0005
0005
0008
0007
0006
0006
0005
0003
0007
0006
0006
0003
0005
0009
0009
0002
0005
0007
0009
0003
0003
0005
0004
0007
0001
FFFE
0003
0004
0003
0007
0008
0009
0004
0005
0003
0003
0006
0002
0000
FFFA
FFFD
0001
0004
0006
0003
0000
0003
0006
0003
0008
0008
0001
FFFD
FFFC
FFFC
0005
0005
0002
FFFC
FFFF
0006
0009
0009
0006
0003
0003
0001
FFF9
FFFF
000C
0006
FFF7
FFF9
0003
0005
0005
0006
0008
0006
0005
0001
FFF6
FFFE
0009
FFFD
FFF8
0002
0005
0007
0007
0007
0005
0004
0002
FFFF
FFF9
0008
000C
FFF2
FFF3
0007
0008
0004
0009
0004
0006
0007
0001
FFFF
0001
0005
000A
FFF6
FFFB
0004
0007
0004
0008
0005
0006
0006
0000
0002
0006
0005
0005
FFF4
FFFB
0007
0009
0009
0004
0008
0005
0002
0008
0004
0003
0002
0002
FFF8
FFFF
0001
0007
0003
0003
0007
0009
0009
0009
0007
0001
FFFD
0004
0008
0003
0005
0007
0008
0003
0008
0007
0008
0008
0006
0006
0005
0005
0009
0005
0004
0004
0008
0007
0003
0004
0006
0007
0003
0002
0004
0007
0005
0006
0005
0009
0006
0003
0008
0008
0009
000C
0009
0009
0008
0009
000A
0007
0005
0007
0006
000A
0007
000A
000C
0004
0005
FFFD
FFF8
FFF9
FFFD
FFF6
FFF1
FFF6
FFF5
FFF7
0003
000A
0003
FFFE
FFF5
FFED
FFE8
FFE6
FFE1
FFDC
FFDF
FFEE
FFF9
FFFF
FFF6
0001
0001
FFFC
FFEC
FFEE
FFE4
FFDE
FFD6
FFD2
FFE2
FFF2
FFF4
FFF3
FFEF
FFFF
FFF6
FFF2
FFED
FFEC
FFE8
FFDB
FFD7
FFD9
FFE5
FFF3
FFF4
FFE5
FFEB
FFFF
FFF9
FFF4
FFFB
FFFC
FFF6
FFE8
FFDD
FFDF
FFE7
FFED
FFEA
FFE9
FFF0
0000
FFFA
FFF9
FFFB
FFF8
FFF8
FFEA
FFE1
FFE8
FFEC
FFEF
FFF0
FFF2
FFF8
0006
FFFC
FFFC
FFFC
FFEF
FFE5
FFE4
FFED
FFF1
FFEB
FFE9
FFF4
FFF8
FFFF
0004
FFFF
FFF6
FFF2
FFEC
FFE5
FFEE
FFEE
FFE7
FFE1
FFE7
FFF0
FFF1
FFF3
0002
FFF2
FFE6
FFE6
FFE7
FFE8
FFFB
FFE4
FFE0
FFEE
FFF8
FFF7
FFF9
FFFA
0000
FFF4
FFEF
FFEE
FFF5
FFF5
FFF0
FFE9
FFF0
FFF8
FFFA
FFFF
FFFF
0000
0000
FFFD
0007
0007
0004
FFF7
FFF4
FFF5
0006
0006
0000
FFFB
FFFE
0009
0002
FFFE
000A
0007
0002
FFFA
FFFA
0008
0004
FFFE
FFFE
FFFD
0000
0009
0006
FFF3
FFEE
FFEE
FFE8
FFEB
FFEB
FFE8
FFE9
FFF5
FFFB
FFFB
0005
0006
0007
0003
0002
0003
FFFC
FFFA
0002
FFFF
FFF9
FFF9
FFFD
0001
0006
0002
0001
0001
FFFD
FFFD
0003
000E
0011
000A
0006
000B
FFFF
FFF9
FFFD
0003
0002
FFFD
FFFC
FFF3
FFF5
0004
0002
0003
0010
000E
0006
000C
FFFE
FFF9
FFFF
FFFA
FFF7
FFEE
FFEB
FFE4
FFE4
FFFF
000F
0000
0006
000D
FFFF
FFED
FFFD
FFFA
FFF9
FFF3
FFEC
FFE0
FFE0
FFF6
FFFF
FFFA
0004
0002
FFF8
FFE9
0001
FFFB
FFF9
FFFA
FFEF
FFE2
FFF0
FFE5
0000
FFFD
FFF9
FFF4
FFED
FFEE
0003
FFFE
FFFD
FFF9
FFEA
FFF1
FFF2
FFE2
000B
0002
FFF6
FFF3
FFF5
FFF8
0003
FFF9
FFF3
FFF2
FFF4
0000
FFE4
FFF4
0011
FFF5
FFEF
FFF6
FFF7
FFFC
0002
FFF3
FFE8
FFF7
FFFB
FFE8
FFDF
000B
0013
FFEB
FFEE
FFF5
FFF6
FFFA
FFFE
FFF9
FFFE
0006
FFF7
FFE1
FFEB
0009
FFFE
FFE9
FFF1
0000
FFF8
FFFD
0003
0003
0010
0001
FFEF
FFE9
FFFE
FFF6
FFE4
FFF0
FFFC
0001
FFFE
0002
0002
0003
0008
FFFE
0005
0008
0000
FFEA
FFF5
0001
0003
FFFD
FFFA
0003
0002
FFFA
FFF6
000B
0011
000A
0001
0000
000C
000B
0000
FFFF
FFFC
0006
0005
0004
0000
FFF8
FFEF
FFE8
FFE7
FFE8
FFEB
FFED
FFF6
FFFF
0002
0006
0007
0007
0006
0000
FFFA
FFF7
FFFF
0000
FFF9
FFF8
FFFD
FFFE
0003
0005
0004
0004
0000
FFFD
FFFC
0008
000A
000B
0008
0004
FFFE
FFFE
FFFA
FFFC
0003
FFFE
FFF9
FFF7
FFF5
FFFF
0003
0005
0002
0001
0008
0009
FFFE
FFF3
0001
0000
FFF7
FFF4
FFF4
FFF5
FFF7
FFF4
FFF6
FFF6
FFFF
FFFE
FFF6
FFEF
0002
FFFB
FFF6
FFF6
FFF5
FFF9
FFF6
FFF8
FFFB
FFFF
FFFB
FFF5
FFEB
FFF0
0000
FFFB
FFF5
FFF5
FFF8
FFF7
FFFF
0005
000A
FFF8
FFF4
FFF2
FFEF
FFF6
0005
FFFC
FFFA
FFF6
FFF6
FFF5
0001
0008
0008
FFF7
FFF2
FFF1
FFF5
FFF9
0004
FFFD
FFF7
FFF7
FFF4
FFF0
0003
000C
0007
FFF0
FFF3
FFF6
FFF2
FFF8
0005
FFF6
FFED
FFF1
FFF4
FFF8
0001
0010
FFF8
FFF2
FFF5
FFF9
FFF7
FFFD
0000
FFF5
FFF5
FFF4
FFFC
FFFA
0007
0006
FFF8
FFFB
FFFC
FFFB
FFFA
FFFD
0002
FFFC
FFFB
FFFF
0000
FFFC
0006
FFFA
FFFA
FFFF
0002
FFFF
FFFF
FFFF
0003
FFFD
0002
0002
0000
FFF8
FFF1
FFF7
0003
0007
FFFF
FFFA
FFFB
0009
0002
FFFD
0007
0009
0007
FFFE
FFF8
0006
0006
FFFF
FFFF
FFFA
0003
0004
0005
FFFB
FFF0
FFF2
FFEE
FFEA
FFEE
FFEB
FFEF
FFF7
FFF9
0001
0003
0006
FFFD
0000
FFFC
FFFC
FFF6
FFF6
FFFE
0000
FFFA
FFF8
FFF9
FFF8
FFFC
FFFF
0002
0000
FFFD
FFF9
FFFB
FFFF
0007
0002
FFFE
0004
000A
0005
FFFD
FFF8
FFFC
0001
FFFA
FFF7
FFFA
FFFC
FFFA
FFF2
FFEC
FFFB
0004
FFFD
FFF9
FFF1
FFFD
FFFA
FFF6
FFF5
FFF6
FFF8
FFF8
FFF3
FFF5
FFFD
FFFC
FFEE
FFE7
FFEA
FFFB
FFF6
FFF5
FFF8
FFF5
FFFB
0009
0009
0002
FFF8
FFEE
FFEB
FFE8
FFF0
FFFA
FFFB
FFF5
FFFA
FFF4
FFF4
000F
000B
FFF8
FFEE
FFEA
FFEF
FFF2
FFF7
FFFF
FFFC
FFF8
FFFB
FFF2
FFF0
0010
0001
FFF2
FFEB
FFEE
FFF4
FFF7
FFF3
FFFF
FFF8
FFF3
FFF3
FFF3
0005
0015
FFFA
FFE7
FFE7
FFEE
FFEF
FFF8
FFF7
FFFF
FFF2
FFEE
FFF1
FFF8
000A
000E
FFF5
FFEF
FFF4
FFFB
FFFA
FFFA
FFFB
FFF9
FFF7
FFF2
FFFE
0009
0009
0008
FFF5
FFF7
0005
0001
FFFE
FFFF
0000
FFFF
FFFE
0003
000B
0008
FFF4
FFEF
FFF3
FFF9
0004
FFFF
FFFE
FFFF
FFFB
FFFC
FFFF
0008
000D
FFFF
FFEF
FFF7
FFF8
FFFC
FFFA
FFFA
FFFB
FFFF
0002
FFF8
FFF5
0001
FFF0
FFE9
FFE7
FFE9
FFF7
FFFC
FFFC
FFF9
FFFC
FFFC
FFFF
0002
FFF4
FFF3
FFED
FFE4
FFE2
FFE6
FFE9
FFF1
FFF6
FFFD
FFFF
0001
FFFD
0001
0003
FFFA
FFFB
FFF9
FFF1
FFF8
0004
FFFF
FFFA
FFFB
FFFA
0002
0001
0002
FFFB
FFFA
FFFA
0000
0005
0005
0001
FFFF
FFF4
FFED
FFF4
FFFE
FFFF
FFFF
FFFF
FFFF
0001
0005
0007
0008
000E
000B
000C
0002
FFFB
FFEF
FFFE
FFFF
0006
0001
0000
0003
0005
0009
0009
0005
0008
0000
0001
FFF1
FFF4
FFF2
0004
0003
0003
0002
0003
FFFF
0004
0003
0001
0004
0001
FFF4
FFF0
FFF8
FFF9
FFF7
FFF7
FFEF
FFF4
FFEE
FFF1
FFFC
FFFF
0000
FFFD
FFF5
FFF5
FFFA
FFF7
FFF0
FFE8
FFE7
FFEE
FFEA
FFE6
FFF1
FFFA
0000
FFFA
FFF6
000A
FFFD
0001
FFF8
FFEB
FFF1
FFF4
FFFE
FFFC
FFFB
FFFA
FFFC
FFF2
FFF7
000D
FFFB
0000
0003
FFFB
FFFA
0001
000B
000B
0006
FFFD
FFFC
FFF7
0000
0012
FFF8
FFFD
000B
0008
0002
0006
000D
000A
0008
0006
FFFE
0001
0005
000F
FFFB
FFFB
0005
0005
0004
000A
0004
0000
0003
0009
0006
0007
0009
0006
FFFE
FFF8
0000
0004
0007
0003
0001
FFF8
FFFE
0004
000A
0006
0004
0005
0000
FFF5
FFF7
FFEC
FFF0
FFF7
FFFF
FFF9
FFFC
FFFB
FFFB
FFFE
FFFE
0004
0002
FFFE
FFFA
FFF3
FFE6
FFEE
FFEF
FFF6
FFF9
FFF5
FFF4
FFF2
FFF8
0000
0002
FFFE
0000
FFFD
FFFD
0000
FFFD
FFFD
0002
0002
FFFD
FFFE
FFFF
FFFF
FFFF
FFFE
0001
0004
0000
0007
0005
0002
0004
FFFF
FFFD
FFFD
FFFE
FFFF
0000
FFFE
FFFE
0003
0000
0003
0006
0001
FFFF
FFFC
FFFD
FFFB
FFFC
0001
0003
0000
0000
0001
0004
0004
0003
0000
0003
FFFF
FFFF
FFFE
FFFB
0000
0002
FFFE
0000
0001
FFFF
FFFD
FFFF
FFFE
0002
0001
FFFF
FFFB
FFFD
0002
FFFE
FFFD
FFFC
FFF6
FFF5
FFF7
FFF2
FFF9
0001
FFFF
0001
FFFF
FFFE
FFFE
0002
0000
FFF3
FFF1
FFF4
FFF2
FFF8
FFFA
FFFD
FFFE
FFF9
FFFA
0004
0003
0002
0002
FFFA
FFF9
FFFE
0003
0001
0003
0000
FFFC
FFFC
FFFE
0008
0000
FFFD
0003
0005
0005
0003
0006
0006
0000
FFFD
FFFC
0000
0000
0008
0000
FFFE
0003
0007
000A
0008
0009
0003
0000
0000
FFFF
0000
0006
0005
FFFE
FFFE
FFFF
0005
0004
0008
0003
0001
FFFA
0003
0009
0002
0005
0006
0000
0001
0003
0002
0001
0001
FFFE
FFFB
FFFE
0003
0008
0003
0004
0004
FFFE
FFFD
FFFD
FFFE
0000
FFFD
FFFD
FFF7
FFF9
0002
0004
0003
0000
0002
0002
0001
FFFE
FFFD
FFFE
FFFE
FFFC
FFFA
FFFF
FFFF
0000
0001
FFFF
0003
FFFE
0002
FFFE
FFFC
FFFC
FFF7
FFFD
0000
0000
0000
FFFB
FFF2
FFF6
0000
0000
FFFF
FFFC
FFF8
FFFE
0002
0003
0008
0003
0002
0001
FFF7
FFF9
FFF5
FFFD
0002
FFFF
FFFC
0002
0007
0006
0007
0006
0008
000A
0000
FFFE
FFF4
FFF9
FFFC
0001
0001
0005
0005
0002
0007
0005
0009
0003
0004
FFFE
FFF8
FFF4
FFF8
0001
FFFE
FFFF
FFFE
FFFF
FFFF
FFFE
0000
0006
0003
FFFF
FFF4
FFF4
FFF9
FFFC
FFFC
FFF6
FFF5
FFF4
FFF1
FFF1
FFFC
0003
0005
FFFE
FFF4
FFFF
FFFC
FFF7
FFF2
FFED
FFEE
FFF1
FFEE
FFF0
FFFA
FFFF
0002
FFF8
FFF6
0008
FFFC
FFFC
FFFB
FFF3
FFF6
FFFC
0000
FFFF
FFFC
FFFE
FFF9
FFF7
FFFB
000F
FFFA
0001
0008
0008
0004
0006
000B
0008
0003
FFFC
FFFB
FFFE
0008
000D
FFFD
FFFC
0007
000A
0005
0007
000D
0009
0001
0004
0002
0007
0008
000E
FFFD
FFFC
0007
0006
0004
0006
0005
FFFF
0000
0004
0006
0006
0009
0005
FFFE
FFFD
0000
0002
0006
0000
FFFB
FFF9
FFFE
0004
0008
0007
0008
0002
FFFB
FFF7
FFF1
FFF3
FFF3
FFF8
FFFC
FFFC
FFFB
FFFD
FFFB
FFFB
0000
0005
FFFD
0001
FFF5
FFEF
FFEC
FFF4
FFF5
FFFB
FFFA
FFF4
FFF7
FFF3
FFFC
0004
FFFE
0001
FFFD
FFFD
0001
FFFF
0000
FFFE
0001
FFFD
0002
0000
0000
0002
0002
0001
FFFE
0003
0003
0006
0007
0005
0002
FFFE
FFFC
FFFD
0003
FFFE
FFFE
FFFE
0002
0005
0005
0005
0003
0002
FFFC
FFFD
FFFE
FFFF
0001
FFFE
0002
0003
0002
0000
0000
FFFB
FFFA
FFFA
FFF5
FFFA
FFFB
FFFE
FFFF
0000
0002
0000
0002
FFFD
FFFD
FFFB
FFF9
FFFF
FFFF
0001
FFFF
FFFE
FFFE
FFFE
FFFD
FFFC
FFFA
FFF5
FFF7
FFF1
FFFC
FFFD
0004
0007
0002
FFFE
FFFF
0001
FFFE
FFFD
FFF6
FFFA
FFFA
FFFC
0002
0006
0007
0007
0000
0001
0000
FFFD
0001
0000
FFFE
0002
0004
0006
0005
0005
0002
0000
FFFE
0001
0005
FFFE
FFFE
0003
0006
0004
0002
0005
0001
0000
FFFA
FFFF
0002
0005
0002
FFFF
FFFF
0001
0005
0005
0007
0000
FFFB
FFF7
FFF8
FFFB
0002
0002
0003
0000
0002
0003
0003
0002
FFFF
FFFA
FFF9
FFF8
FFFD
FFFD
FFFE
FFFE
FFFE
FFFF
0002
0001
0003
0001
FFF8
FFF9
FFF9
FFFB
FFFD
FFFC
FFFD
FFFF
FFFF
0002
0003
FFFE
0000
0000
FFFB
FFF9
FFFA
FFFE
FFFF
FFFC
FFFE
0002
0001
FFFD
0002
FFFF
0000
0001
FFFC
0000
FFFD
0002
FFFC
FFFF
0000
0002
0003
FFFD
FFF9
FFFD
FFFA
FFFF
FFFA
FFFE
FFFA
FFFC
FFF9
FFFC
FFFB
FFF9
FFFB
FFF9
FFFD
FFFA
FFFC
FFFF
0003
0005
0005
0007
FFF1
FFEA
FFF0
FFF1
FFF9
FFF7
FFF9
FFFF
0000
000E
0012
0017
000F
000E
0000
FFF9
FFE8
FFE2
FFEE
FFF7
FFFB
0000
0005
0010
0011
000B
000A
000A
000B
FFF8
FFE6
FFDF
FFE1
FFF0
FFFD
0003
0012
0014
0016
0014
000F
000B
FFFE
FFF0
FFE6
FFE8
FFEA
FFE8
FFFA
0008
0013
0017
0017
001B
0011
0005
FFF9
FFE9
FFE9
FFF1
FFF1
FFFA
FFFA
0001
000B
000A
0006
FFF9
FFEC
FFEE
FFED
FFE9
FFED
0002
000B
0008
FFF7
FFF5
FFF0
FFFB
0001
FFFE
FFF6
FFF5
FFEF
FFF4
0003
000A
0012
0013
FFFE
FFF6
FFF0
FFFB
FFFF
0003
0001
0000
FFFD
0005
0010
0016
0016
0013
FFFC
0004
0000
FFFB
FFFB
0009
000E
0012
0013
0013
001B
0018
0019
0012
FFFA
0004
0008
0002
0000
0006
000D
000E
000F
0011
0013
000F
000D
000F
FFFB
0004
0006
0005
000D
0007
0004
0000
0009
000C
000C
000F
000A
0001
FFF9
FFFB
FFFE
FFFA
FFFC
FFFD
FFF8
FFFD
FFFE
0008
0003
FFFF
0002
0004
FFF9
FFF7
FFED
FFE9
FFE3
FFED
FFF6
FFF8
FFF4
FFEC
FFF0
FFF2
FFFF
FFFC
FFFE
0002
FFFF
FFFC
FFFC
FFF9
FFFA
FFF8
FFF4
FFF0
FFF8
0003
FFFF
FFFF
FFFD
0001
FFFC
0006
0002
0000
FFFF
FFED
FFEA
FFE4
FFE5
FFF0
FFFF
FFFE
FFFE
0000
0000
0003
0001
FFF9
FFF1
FFE9
FFDF
FFE1
FFE5
FFE5
FFED
FFF8
0000
0004
0002
FFFF
FFFA
FFF1
FFEB
FFE6
FFE8
FFEE
FFF4
FFFB
FFF1
FFF7
FFFD
0001
0000
FFFF
FFF8
FFE3
FFEB
FFF0
FFF7
FFF6
0001
0006
FFF7
FFEF
FFFF
FFFE
FFF5
FFFC
FFEB
FFE4
FFEE
FFF4
0003
000C
0008
0009
FFFF
FFF7
0000
FFF9
0001
FFFF
FFEE
FFED
FFF0
FFFB
000E
000E
000E
000F
FFFD
0004
FFFD
000A
001B
000D
FFF4
FFF7
FFFB
001B
000A
000F
000C
0001
FFF6
000D
0000
000A
0012
0011
000C
0006
0006
0011
0004
FFFB
FFF8
FFF2
FFF2
0013
FFF4
FFFF
FFFF
0015
0018
0011
000A
0009
FFF3
FFEF
FFEF
FFEF
0004
0014
FFFD
0001
0000
000D
000A
0007
000A
FFFD
FFED
FFED
FFF4
FFF9
0009
000E
FFFD
FFF3
FFFA
0000
FFF9
FFFA
FFF8
FFF0
FFE6
FFF2
0007
0004
000B
0005
0000
FFFB
0001
FFF3
FFF1
FFF0
FFF3
FFF4
FFF1
FFFB
FFFE
0003
0001
0000
0001
0001
FFFD
FFEF
FFE6
FFE1
FFEA
FFED
FFF3
FFF7
FFF0
FFF3
FFF8
FFFF
FFFD
FFFD
FFFD
FFFF
FFFD
FFFE
FFFD
FFFF
FFFE
FFF3
FFF3
FFFC
FFFE
0003
FFFE
0000
FFFE
0004
0002
0008
0007
000A
0005
FFFB
FFF6
FFF1
FFF5
FFFD
FFFE
FFFF
0002
0001
0008
0004
0004
0004
0003
0003
FFFE
FFF9
FFF1
FFFA
0000
0004
0006
0002
0008
0006
0009
0007
0004
FFFE
0000
FFFE
FFF8
FFEF
FFFB
FFFE
0005
FFFF
FFFE
0004
FFFF
FFFF
FFFD
FFFD
0002
FFFD
FFF3
FFED
FFF8
FFFE
FFFA
FFF8
FFF7
FFF7
FFF1
FFF2
FFF9
FFFC
FFFF
FFF9
FFEE
0003
FFFB
FFF9
FFF5
FFEF
FFED
FFED
FFEF
FFF7
FFF5
FFF9
FFFE
FFF9
FFF3
000A
FFFC
0004
0000
FFFB
FFF8
FFFF
FFFD
0002
FFFC
FFFC
FFFC
FFF6
FFFF
000F
FFFB
0007
0007
0006
0007
0009
0007
0005
0001
FFFF
FFFE
0002
000D
0015
FFFC
0009
000A
0006
0008
0009
000A
0006
0001
0005
0004
000B
000E
000E
FFFD
0004
0006
0006
0008
000C
0008
0002
0005
0006
000C
000C
000A
000C
FFFC
FFFE
0002
0006
0009
000B
0001
FFFA
FFFE
0007
000C
0006
000B
FFFF
0001
FFFB
0000
FFFC
FFFD
FFFA
FFF8
FFF9
FFFD
0002
0003
0002
FFFA
0004
0000
FFF8
FFF1
FFEC
FFED
FFEE
FFF3
FFF5
FFF5
FFF4
FFEF
FFF1
FFFE
0001
FFFF
FFFF
FFFD
FFF8
FFFF
FFFF
0000
0001
0000
FFF7
FFF0
FFFA
FFFE
0001
FFFD
FFFB
0001
0001
0007
000A
000A
0008
0003
0001
FFFA
FFEF
FFF0
FFF8
FFFD
FFFE
0002
0006
0004
0006
0000
0002
FFFF
FFFA
FFF5
FFF3
FFEF
FFF3
0000
0005
0006
FFFF
FFFE
0001
0000
FFFC
FFF5
FFF4
FFF9
FFF0
FFED
FFEB
0001
0001
FFFD
FFF6
FFF8
FFFA
FFFB
FFFA
FFFF
FFFD
FFFC
FFF2
FFEF
FFF2
FFFC
FFF8
FFF0
FFEF
FFF0
FFED
FFE9
FFF1
FFF8
FFF9
FFF9
FFEC
FFFA
0003
FFFD
FFF4
FFEB
FFED
FFFD
0000
0004
0004
FFFF
FFFF
FFF7
FFFA
000B
000E
FFFC
0002
FFFD
000B
000E
0011
000C
000D
0008
0009
0003
000A
000E
0013
FFFB
0009
000C
0007
0009
000D
000E
0004
0005
0001
0007
000C
0014
0015
FFFA
000A
0005
0008
000A
0008
0002
FFF8
FFFF
0000
0006
000C
000F
000A
FFFE
0005
0004
0006
0005
FFFD
FFF7
FFF9
FFF9
0002
0009
000D
0013
0004
FFFA
FFFD
FFFC
FFF8
FFF9
FFFA
FFF9
FFF8
FFF8
FFF9
0002
FFFF
0000
0007
FFFF
FFF2
FFEF
FFEC
FFEE
FFEC
FFE9
FFED
FFF4
FFEF
FFF4
FFF7
FFFD
FFFE
0002
FFF8
FFEE
FFE9
FFDE
FFE4
FFF2
FFF2
FFF4
FFF1
FFF7
FFFB
0000
0002
FFFF
FFFF
FFFC
FFFC
FFF6
0002
FFFA
FFFB
FFF5
FFF8
FFF7
FFFD
0002
FFFF
FFFE
FFFC
0003
0002
FFFF
0005
000D
000C
0008
0005
FFFB
FFF7
FFFB
FFF9
FFFE
0004
0007
0009
0002
0003
0005
0007
FFFF
FFFF
FFF6
FFF5
FFF0
FFF7
FFFA
0001
000B
000D
000A
000B
000C
0009
0008
0006
0002
FFF8
FFF3
FFF1
FFF6
0003
0009
0005
FFFF
FFFD
FFF4
FFFD
0008
000A
0005
FFFF
FFF0
FFF1
FFFA
0000
FFFF
FFF6
FFEC
FFEA
FFEA
FFFA
000A
0007
0003
FFFF
FFF2
FFF3
FFF6
FFFA
FFF7
FFEA
FFE8
FFED
FFFC
000E
000D
0007
FFF9
FFEE
FFF0
FFF7
0002
0008
FFF8
FFF1
FFF4
FFF6
0009
000B
0009
0003
FFFC
FFF5
FFF8
FFF8
0005
000B
0009
FFFE
FFF4
FFEF
FFF5
FFF9
FFFF
0008
0009
0003
FFFE
FFF2
0001
000D
000E
0006
FFFB
FFED
FFF1
FFF8
0002
0006
0006
0007
FFFF
FFF5
0007
0006
0012
000B
0008
FFFC
FFF3
FFFB
0003
0004
0006
0004
FFF6
FFF5
0001
000A
000B
000B
0004
0005
0002
FFFC
0001
0001
0001
FFF8
FFF3
FFFB
FFFF
0006
0007
000F
000D
000D
0004
0003
FFFD
FFFC
FFF7
FFF5
FFF9
0000
FFFE
FFFD
FFFC
FFFA
FFFB
0004
0005
0001
FFFB
FFFB
FFFC
FFFE
FFFC
FFFF
FFFF
0000
FFFF
FFFE
FFFF
FFFF
FFFF
0002
0001
0001
FFFC
FFFF
FFFC
0001
FFFC
0000
0001
0000
FFFF
0004
0004
FFFF
0001
FFFF
FFFB
FFFC
FFFD
FFFF
0000
0001
0003
0006
0006
0001
0002
0004
FFFF
FFFF
0000
FFFA
FFFE
FFFC
0000
0000
0002
0002
0005
0002
0002
0003
FFFE
FFFF
FFFE
FFF9
FFFE
FFFE
FFFE
0003
0002
FFFF
FFF9
FFFA
0000
0006
0005
FFFF
FFFF
FFFD
FFFA
FFFD
0001
FFFE
FFFD
FFF5
FFF2
FFF6
0001
0007
0004
0001
FFFB
FFF8
FFFC
0001
FFFE
FFFE
FFF8
FFF3
FFF6
FFFE
0006
0005
0000
0000
FFF9
FFFB
FFFB
0002
FFFD
0000
FFFA
FFFA
FFF8
FFFF
0000
FFFE
0002
FFFF
FFFD
FFFE
FFFE
FFFE
0002
0001
0001
FFF9
FFF5
FFF4
FFF5
FFF9
0005
0004
0001
FFFE
FFFD
FFFC
FFFE
0008
0007
FFFE
FFF9
FFF7
FFF7
FFFC
0009
0004
0004
FFFD
FFFF
FFFE
0002
0006
0005
0002
0002
FFFC
FFFD
0005
0006
0002
0001
FFFA
FFFC
0001
FFFE
0005
0004
0006
0002
FFFD
0000
FFFD
FFFE
FFFE
FFFA
FFFC
FFFD
FFFF
FFFE
0003
0005
0006
0005
0003
0002
0003
0000
FFFC
FFFB
FFFD
FFFD
0000
0002
0001
0000
FFFF
0004
0003
0002
FFFE
0000
FFFE
FFFF
FFFD
FFFE
FFFF
FFFE
0002
FFFE
FFFB
FFFB
FFFE
FFFC
FFFA
FFFB
FFF9
FFF7
FFF6
FFFB
FFFD
0001
FFFA
0001
0002
0003
0001
0005
0002
0004
0002
FFFE
FFF6
FFEE
FFFC
0003
0003
0008
0008
0003
0002
0005
0005
0002
0001
FFFD
FFF8
FFF5
FFF3
0003
0004
000E
0007
0005
0004
0002
0007
0003
0005
0002
FFFF
FFF4
FFF3
FFFC
FFFD
000D
0008
FFFF
FFF3
FFF7
0003
000B
0006
0007
FFFD
FFF2
FFF2
FFFD
0001
0001
FFF4
FFF2
FFF2
FFF4
0006
0007
0005
0001
FFFC
FFF3
FFF3
FFF6
FFFE
FFF7
FFED
FFF5
FFF4
0003
0007
0009
0004
FFF6
FFF2
FFF6
FFF6
FFFE
0002
0000
FFF3
FFF6
FFF5
0001
0000
FFFE
0001
0003
FFFE
FFF9
FFF7
0005
0006
000B
FFF8
FFF4
FFF0
FFF4
FFF8
FFF8
0007
0003
0004
FFFF
FFF3
FFFD
0009
000D
0006
FFFB
FFF3
FFF6
FFF5
FFFE
0006
0007
0006
FFFB
FFF4
0000
000A
0010
000A
0008
FFFE
FFF9
FFFD
0003
0006
0004
FFFF
FFF7
FFF8
0006
0007
0007
0007
0006
0003
0005
0001
0006
0002
0000
FFFA
FFF2
FFFC
0000
0004
000A
000A
000A
000A
000B
0002
0001
FFFC
FFF9
FFF9
FFFA
FFFC
0001
FFFD
FFFB
0003
0003
0005
0004
0003
FFFD
FFFC
FFF8
FFF9
FFFE
FFFF
0000
FFFD
0001
FFFC
FFFE
FFFE
FFFF
0001
0000
FFFD
FFFB
0000
FFFD
0001
FFFE
FFFF
0001
0002
0003
FFFF
0000
FFFC
0000
FFFC
FFFF
FFFC
FFFC
FFFE
FFFD
0002
0002
FFFF
0000
0004
0001
FFFF
FFFE
FFF9
FFFF
FFFF
FFFF
FFFE
FFFE
FFFF
0005
0000
0000
FFFE
FFFD
0000
FFFF
FFFD
FFFD
0000
0001
FFFD
FFFE
0001
FFFE
FFFA
FFFA
FFF5
FFFD
0002
FFFF
FFFE
FFFD
FFFD
0001
FFFD
FFFF
0002
FFFB
FFFA
FFFA
0000
0008
0007
FFF9
FFFC
FFFB
0001
FFFF
FFFF
FFFF
FFFE
FFFB
FFF7
0002
0005
0003
FFF8
FFF7
FFF4
FFFC
FFFE
0001
0001
0000
FFFE
FFFB
FFF7
0002
0001
FFF8
FFF7
FFFB
FFFB
FFFB
0001
FFFD
0001
FFFE
0001
FFFD
FFFC
FFF5
FFF9
FFF2
FFFD
FFFF
0000
FFFC
FFFF
FFFC
0000
0002
0005
0000
FFFA
FFF9
FFF9
FFFE
0004
0003
0002
FFFD
FFFC
FFFF
0002
0000
0003
FFFF
0003
FFFA
FFFD
0003
0004
FFFF
0001
FFFC
FFFE
0000
FFFC
FFFD
0003
0002
0004
0000
0000
0001
FFFA
FFFA
FFFC
FFFF
0000
FFFC
FFFF
FFFC
FFFF
0003
0000
FFFF
0000
FFFF
FFFA
FFFE
0001
0000
0002
0001
FFFE
FFFD
0000
0000
0001
FFFF
0001
0001
FFFD
0002
FFFD
0001
0002
0002
FFFF
0002
0001
0003
FFFE
0000
FFFE
FFFE
FFFE
FFFE
0000
FFFD
FFFF
0003
FFFE
0002
0001
FFF9
FFF9
FFFD
FFFA
FFF9
FFF7
FFF4
FFEE
FFF6
FFFC
FFFA
FFFF
FFFF
0004
0009
000F
0012
0011
0010
0002
FFF4
FFE9
FFE7
FFE9
FFE5
FFF6
0002
0009
0010
0014
0017
0013
0009
FFFF
FFF6
FFEC
FFDE
FFDF
FFE5
FFEF
FFFE
0010
000E
0011
001C
001D
0017
000A
FFFD
FFF3
FFEE
FFE8
FFE5
FFE7
FFFD
000C
000F
0012
0012
000D
0006
0011
000F
000F
0010
FFF9
FFE6
FFEF
FFFE
FFFE
FFFD
FFFB
0000
0008
0013
0010
0014
0015
000A
FFF3
FFE8
FFFC
FFF7
FFFB
FFF5
0003
000A
0010
000E
000F
0011
0006
FFF4
FFE3
FFED
FFF6
0006
FFFF
FFFF
FFFD
000B
0016
0014
0013
000C
0005
FFF5
FFEA
FFF0
FFEF
000C
000E
0003
FFFC
FFF7
FFFD
0004
0006
0008
FFFE
FFF2
FFF6
FFF3
FFED
0004
0011
0011
000A
0002
FFFB
0001
0008
000B
0005
FFFD
FFF5
FFEE
FFF4
0005
000B
000E
000D
0005
0002
0007
0008
0005
FFFF
FFFD
FFF1
FFF4
FFFD
0005
0009
000A
0007
000C
0009
000B
0007
0005
FFFE
FFF4
FFF6
FFFC
FFFE
0002
0001
0006
0006
000C
000F
0009
0002
FFFD
FFFD
FFFB
FFFA
FFFE
FFFE
FFFC
FFFE
FFFE
FFFA
FFFA
FFF9
FFF5
FFF6
FFF4
FFF4
FFF8
FFF9
FFFD
0001
FFFD
0003
0006
0003
0002
0000
FFF7
FFF5
FFF1
FFEA
FFE9
FFF4
FFF7
0000
FFFE
0009
0006
0003
0002
FFF9
FFF2
FFF0
FFE9
FFE7
FFED
FFEE
FFEB
FFF7
FFFB
000F
0000
0003
FFFB
FFEE
FFE2
FFE6
FFEF
FFEC
FFF4
FFFD
FFF2
FFEF
FFFD
0009
0005
0001
FFEE
FFEB
FFF0
0002
0014
000D
000A
0010
FFF1
FFEC
FFFD
0001
0004
0008
0008
FFFD
FFF6
0002
0014
0010
0010
000E
FFF3
FFED
FFFC
FFFF
0001
0012
000B
FFFC
FFED
FFFA
0002
FFFD
FFFD
FFF4
FFEB
FFF6
0004
0007
FFFB
FFF5
FFF4
FFF0
FFE0
FFEB
FFE6
FFF4
FFF1
FFEB
FFF1
FFF6
000A
000A
FFFF
FFF1
FFE0
FFD8
FFD3
FFE3
FFE7
FFF0
FFFE
FFFC
FFFE
FFF3
0003
000C
0008
FFFB
FFE6
FFD8
FFDA
FFDB
FFE9
0007
0009
0009
0004
FFEF
0005
0005
000B
FFFD
FFF5
FFEA
FFE0
FFE2
0000
000B
0007
000A
FFFF
FFF2
0003
000A
000B
0006
FFFF
FFF1
FFF0
FFFB
000A
000A
0008
FFFC
FFF3
FFF8
FFFC
FFFE
0002
0003
0000
FFF6
FFF4
FFF8
FFFA
FFFF
FFFE
FFF6
FFFA
FFFA
0000
0000
FFFE
FFFD
FFF5
FFFE
0002
0002
FFFA
FFF8
FFFC
FFF6
FFFE
FFFD
FFFC
FFFF
FFFC
FFF9
FFFB
FFFB
FFF7
FFF9
FFF6
FFF6
FFFB
FFF8
FFFB
FFFD
0000
0000
0007
0009
0009
0004
0003
0001
FFFD
FFFD
FFFA
FFF3
FFF1
FFFA
0001
000D
0009
0008
0006
0006
0005
0002
0002
FFFF
FFFC
FFF2
FFF2
FFF5
0000
000D
000E
0008
0003
0002
0000
0006
0003
0000
0000
FFFB
FFEF
FFEE
0002
000E
000C
0002
0002
FFFC
FFFE
0006
000A
0007
FFFF
FFFD
FFF2
FFEE
FFFD
0005
FFFF
FFFD
FFF6
FFF7
FFF9
000D
000C
0009
0007
FFF6
FFEC
FFF6
FFFE
0001
FFF9
FFF3
FFF6
FFF9
0007
0010
0008
0004
FFFC
FFF3
FFEF
FFF4
0005
0006
FFFA
FFF3
FFF8
FFFE
0007
0006
0002
FFFB
0004
FFFE
FFF7
FFF2
0008
0011
0006
FFF9
FFF4
FFFA
FFF6
FFF9
0000
0003
0008
0005
0000
FFF1
0009
0011
000D
0004
FFF7
FFEE
FFF0
FFF9
0004
000B
0004
0004
FFF9
FFF1
0007
0011
000C
000B
0007
FFFF
FFF7
FFFF
000A
0006
0003
FFFF
FFF3
FFF6
0005
000F
000C
000E
0003
0003
FFFE
0005
0008
0004
0000
FFF5
FFEF
FFF8
0003
0006
0008
000B
000A
0008
0004
0007
FFFF
0004
FFF6
FFF5
FFF9
0000
0000
FFFD
0004
0007
0009
000E
000A
0005
0000
FFFC
FFF5
FFFA
FFFC
FFFC
0003
FFFE
FFFD
FFFC
FFF8
FFFA
FFFC
FFF6
FFF9
FFF7
FFF6
FFF8
FFFA
FFFC
FFFC
0002
0005
0008
000A
0009
0007
0003
0005
FFFD
FFF9
FFF0
FFEC
FFF6
FFFE
000A
000B
0009
0004
0003
0005
0003
0002
FFFE
FFF6
FFF5
FFEC
FFF2
FFFE
000C
0009
0002
0000
FFFA
FFFB
FFFE
FFFE
FFFB
FFFB
FFEE
FFEC
FFEB
FFFF
0006
0002
FFF4
FFF3
FFEE
0002
0012
000A
000A
0000
FFEB
FFEB
FFF1
FFFE
FFFC
FFF2
FFEF
FFF2
0002
000C
000F
0008
0003
FFF7
FFE8
FFE9
FFF8
FFFB
FFF9
FFF1
FFF3
0002
000A
000D
FFFC
FFFD
FFFD
FFF9
FFF8
FFF2
FFF5
0006
0001
FFF7
FFF2
FFF2
FFF8
FFF8
FFF7
FFF5
FFFA
0003
FFFF
0001
FFF1
0008
000A
0005
FFF9
FFEF
FFEE
FFF1
FFF8
0005
0002
FFFE
FFFD
FFF6
FFF2
0007
0012
000B
0003
FFFA
FFF5
FFFE
000B
000E
0006
FFFF
FFF8
FFEF
FFF2
0007
000C
0009
0008
0004
0006
0006
0006
0006
0002
FFFD
FFF1
FFEC
FFF8
0002
000B
0006
0007
0008
0004
0006
0004
0001
FFFF
FFFB
FFF5
FFFB
0000
0003
0005
0001
0005
0007
000A
000A
0003
FFFD
0005
FFFC
FFF4
FFFB
0000
FFFE
FFFD
0005
0005
000B
000A
0001
FFF1
FFF7
FFFE
FFF4
FFF9
FFFC
FFFF
FFFE
0001
FFFC
FFFB
FFF8
FFF1
FFF1
FFF6
FFF0
FFF2
FFFB
0000
FFFF
0001
FFFE
FFF7
FFF8
FFF2
FFED
FFE2
FFE5
FFF1
FFF2
FFEE
FFF5
FFF7
FFF6
FFFB
FFFD
FFFE
0001
0001
FFF8
FFF1
FFF8
FFFF
FFFE
FFFA
FFFC
0001
0008
FFFD
FFFB
0004
FFFE
0004
0001
FFFE
FFF4
FFE9
FFEB
FFF2
FFF9
000A
000C
0005
FFFB
FFF9
FFFB
FFFD
FFFD
FFFD
FFF7
FFEB
FFED
FFF2
FFFD
0001
FFFF
FFFD
FFF2
FFF1
FFF2
FFFA
0000
0007
0005
FFF2
FFF4
0004
FFFF
FFF9
FFF2
FFF0
FFF5
FFF9
FFFB
0006
000F
0016
0013
FFF2
0003
000B
FFFF
FFFB
FFF2
FFF5
FFF7
FFFD
FFFF
000C
000C
000D
0010
FFFD
0007
000C
0009
FFFF
FFF7
FFF9
FFFF
FFF6
FFFB
0004
0009
0006
000E
0007
0010
000B
0006
FFFD
FFF8
FFF5
FFFB
FFFC
FFF0
FFEF
FFF5
FFF1
FFF8
0005
0007
FFFF
FFF6
FFF7
FFF4
FFEF
FFFB
FFFA
FFF2
FFEB
FFEB
FFEF
FFF0
FFFB
0004
FFFA
FFF7
FFF6
FFF6
FFF2
FFFF
FFF5
FFF1
FFEC
FFF4
FFF4
FFF5
FFF8
FFFC
0003
0006
0000
FFFF
FFF8
0003
FFF5
FFF2
FFF4
FFFC
FFFE
FFFE
0000
0000
0003
0003
0002
FFFF
FFFB
0003
FFFE
FFFD
FFF3
FFF2
FFF4
FFE8
FFE8
FFEA
FFE9
FFF0
FFF4
FFFC
FFFF
FFFE
FFFE
FFFF
0002
0002
FFFF
FFFC
0000
0002
FFFD
FFFE
FFFD
FFFF
FFFE
FFFF
0001
0002
0002
FFFB
FFFB
FFFC
FFFD
FFFC
0000
0002
0000
FFFE
0002
FFFE
0003
0002
0000
0001
FFF9
FFFB
FFFC
FFFD
0005
0006
0006
0002
0002
FFFD
0001
FFFE
0003
FFFE
FFFF
FFFC
FFFA
FFFC
0004
0002
0005
0000
0003
0002
FFFE
FFFC
0001
FFFE
0004
FFF9
FFF2
0003
0003
FFFE
0004
FFFC
FFFE
0003
FFFC
FFFB
FFFF
0009
000A
FFF9
FFFA
0007
0000
FFFA
FFFE
FFFA
FFFE
FFFE
0002
0001
0008
0008
000E
FFFB
0002
000C
0002
FFFD
FFFD
0001
FFFF
FFFE
FFFD
0002
0009
0007
0008
0000
0006
000C
0005
0000
FFFC
FFFB
FFFF
0000
0000
0001
0003
0006
0000
0001
000A
0005
FFFC
FFFD
FFFA
FFFC
0000
0003
FFFE
FFFE
FFFA
FFFC
FFF9
0002
000A
0001
FFFC
FFFE
FFFA
0000
FFFF
0000
FFFD
FFFD
FFF5
FFF7
FFFA
FFFF
0001
0001
FFFF
0002
0000
FFFF
0001
0003
0001
FFFC
FFF9
FFF9
FFFE
0000
FFFF
0001
0003
0003
0002
0002
FFFD
0001
FFFE
FFFC
FFFC
FFFD
FFFA
FFFE
FFFE
0003
0000
FFFF
FFFF
0002
0000
0000
0003
0002
FFFD
0000
FFFC
FFFD
FFF8
FFFB
FFFE
0002
0003
0002
0000
0000
0000
FFFE
FFF8
FFF5
FFF3
FFEF
FFF1
FFF4
FFF2
FFF6
FFF6
FFF7
FFFC
0000
FFFE
0002
FFFB
FFF3
FFF1
FFEE
FFF5
FFF8
FFF9
FFFA
FFFB
0004
FFFC
0003
FFFC
FFFD
FFFE
FFFD
FFFB
FFF7
FFFC
FFFD
FFFE
0003
0006
0008
FFFF
FFFD
FFF9
0000
0002
0003
FFFF
FFF8
FFF2
FFF7
FFFF
0001
0004
000D
0005
FFFC
FFF8
FFFF
FFFC
0002
0002
FFFC
FFEE
FFF6
FFFD
0000
0003
FFFE
FFF9
FFF6
FFF5
FFF8
FFFE
0004
000C
0009
FFF4
0002
0004
0002
FFFA
FFF2
FFF0
FFF9
FFF6
FFFD
0005
000C
000D
000D
FFF8
000A
0009
0003
FFFB
FFF0
FFF5
FFFF
FFFD
FFFF
000B
0009
000E
000B
0001
0009
000B
0008
0001
FFF5
FFF7
FFFF
FFFD
FFFE
0004
0007
0006
0006
000A
0009
0007
FFFD
FFF9
FFF7
FFF3
0000
FFF5
FFEF
FFF8
FFF7
FFF6
FFFC
0006
0006
FFFE
FFF7
FFF5
FFF4
FFEE
FFFD
FFFA
FFF2
FFF1
FFF6
FFF8
FFFA
FFFC
FFFD
FFF9
FFF9
FFF9
FFF6
FFF4
0001
FFFA
FFF1
FFF7
FFF9
FFF8
FFFA
FFF9
FFFE
0004
0007
0001
FFFF
FFF9
FFFE
FFFF
FFF5
FFF5
FFF7
FFF8
FFFB
FFF9
FFFD
FFFF
0001
0001
FFFA
FFFE
FFFF
FFFF
FFFE
FFF3
FFF2
FFF2
FFEC
FFEB
FFE7
FFEB
FFF1
FFF6
FFFB
FFFB
FFFE
0001
FFFD
0000
0001
FFFE
FFFC
0003
0000
0001
0002
0000
FFFD
FFFF
FFFE
FFFF
FFFE
FFFE
FFFD
0000
FFFE
0001
0003
FFFF
0004
0000
0002
0003
FFFD
0003
0000
0001
0001
0000
FFFE
0002
0007
0006
0004
0007
0001
FFFF
FFFE
0003
0003
FFFE
0000
FFFF
FFFB
FFFC
000A
0009
0008
0003
FFFF
0000
0003
FFFF
FFFD
0003
0001
0002
0002
0004
000C
000C
0005
FFFF
0002
0003
FFFE
0002
FFFE
0003
0008
0006
FFF6
000A
0008
0002
0003
FFFC
0001
0004
0001
FFFD
0000
0007
0007
0002
FFF9
0007
0005
FFFE
FFFF
0003
0000
0001
0002
0000
0001
0005
0005
FFF8
0000
000A
0005
FFFD
FFFD
0001
0000
FFFE
FFFF
FFFD
0000
0000
FFFB
FFF8
0003
0005
FFF9
FFF7
0000
0002
0001
0000
0000
FFFF
0000
FFFA
FFF5
FFFC
0004
0002
FFF8
FFFA
FFFE
FFFF
FFFE
0001
FFFF
FFFC
FFFE
FFFC
FFFD
0005
0004
0005
FFFF
0002
FFFE
0001
0002
0002
FFFF
0000
0001
FFFF
0003
0005
0002
0007
0002
0001
0000
FFFF
0000
0001
0002
0003
FFFC
FFFE
0001
FFFF
0001
0005
0002
FFFF
0000
FFFD
FFFE
0002
FFFE
FFFD
FFFF
0003
FFFF
FFFE
0000
FFFE
0002
0000
0002
0000
0002
0001
0001
0003
0001
FFFF
0005
FFFD
FFFA
FFFE
FFFC
FFF9
FFFF
FFFF
0003
0004
0003
FFFC
FFFC
FFFC
FFF5
FFEF
FFED
FFF1
FFF5
FFF8
FFF8
FFF7
FFF7
0000
0003
FFF8
FFF7
FFF5
FFEC
FFE8
FFE5
FFE5
FFEA
FFEE
FFF8
0004
0007
0002
FFFF
0000
FFF9
FFF0
FFE8
FFDE
FFD4
FFD7
FFD3
FFD6
FFF2
0006
FFFE
FFFA
FFF7
0000
FFF2
FFEA
FFDC
FFD8
FFD9
FFD9
FFD1
FFD5
FFE8
FFF4
FFF4
FFF7
FFF7
FFEF
FFEB
FFE5
FFDE
FFDF
FFE0
FFDD
FFD1
FFDF
FFE9
FFF0
FFEA
FFEA
FFF0
FFF2
FFEF
FFE9
FFF0
FFF8
FFEE
FFDE
FFDE
FFE9
FFF6
FFFE
FFF6
FFFA
FFF9
FFFC
0002
0006
000D
0012
0005
FFF2
FFFC
0012
0014
0006
FFFC
FFFB
0000
0003
0009
000E
0009
000B
0001
0006
000E
0013
0009
0004
FFF8
FFF5
FFFB
FFFD
0001
000B
0007
0002
FFFD
0005
FFF8
FFF5
FFFF
FFF9
FFF5
FFF2
FFFD
FFF3
FFF0
FFF2
FFEC
FFE4
FFEB
FFEC
FFEB
FFEE
FFF0
FFF2
FFED
FFF1
FFFB
FFF0
FFED
FFEC
FFEA
FFEC
FFED
FFEF
FFF9
FFFD
0002
FFFD
FFF7
FFFD
FFFF
FFF4
FFF4
FFF7
0000
0005
0003
0005
000A
0009
0007
0001
FFFD
FFFD
FFFF
FFFA
FFF5
FFF0
FFF1
FFEE
FFEC
FFE9
FFEC
FFEF
FFF0
FFF6
FFFB
0003
FFFF
0001
FFFC
FFFB
FFEF
FFEC
FFF3
FFF4
FFF2
FFF7
FFF4
FFFA
FFFD
FFFF
FFFD
0000
FFF8
FFF8
FFF0
FFF3
FFF4
FFFC
0004
0004
FFFF
0002
FFFC
0000
FFFE
FFFD
0001
0008
0006
000A
000A
000E
0016
001D
0014
0010
0006
0001
FFFA
0003
FFF7
FFFA
0000
0013
0016
001D
0021
001D
001A
0010
0015
0002
FFF7
FFF5
FFEF
FFF4
000A
001B
0013
001E
0013
0016
0016
000C
000A
0001
FFF8
FFF5
FFF5
0003
0010
0014
0012
0017
000A
0016
000B
0001
FFF9
FFEA
FFF9
FFFF
0009
000B
0007
000A
0018
FFFF
0001
0012
0006
FFFF
FFF1
FFF2
0001
FFFF
0000
0007
FFFB
0005
0009
FFEC
FFF4
000B
0005
0008
FFFE
FFF8
FFFD
FFEF
FFF6
FFF2
FFF2
FFF8
FFEF
FFE2
FFF9
0007
0008
0005
0000
FFF6
FFFD
FFF8
FFF0
FFEC
FFF3
FFF3
FFED
FFF4
000C
FFFC
FFF6
FFFE
FFF6
FFED
FFFA
FFEF
FFF5
0004
0001
FFFC
FFF9
000A
0005
FFF1
FFF2
FFF3
FFF1
FFF4
FFFB
FFFA
FFFA
0000
FFFF
0000
0008
0006
FFFD
FFFE
FFFF
FFFC
FFFC
FFF8
0000
FFFB
FFF4
FFF2
0000
0004
000A
0008
000C
000A
0006
0005
FFFC
FFFD
FFFF
0001
FFFD
FFF4
FFF7
FFF6
FFEE
FFF2
FFEF
FFEE
FFEC
FFF2
FFFD
0001
FFFF
FFFF
FFFC
FFFA
FFF0
FFED
FFEC
FFEF
FFF4
FFF4
FFF4
FFFB
FFFC
FFFF
0002
0004
FFFC
FFF6
FFF1
FFF4
FFF2
FFF7
FFFE
FFFC
FFFE
0004
0005
0000
FFFF
FFFD
0005
0005
0001
FFFE
FFF8
FFFA
0001
000B
0009
000E
0010
0001
FFFA
0000
FFFB
0000
FFF8
FFF9
FFF5
FFF3
FFF5
0000
0005
000C
0009
0000
FFF7
FFF8
FFF9
FFFC
FFF8
FFFB
FFF0
FFEE
FFF3
FFFD
FFFF
0005
FFFF
FFF4
FFF5
FFF4
FFF7
0002
0006
0003
FFFE
FFEF
FFF8
0000
FFFF
FFFD
FFEC
FFED
FFF9
0000
0005
0006
000E
0013
000A
FFF7
0000
0006
FFFF
FFFE
FFF4
FFFB
FFFC
FFF8
0006
000D
0008
000A
0002
FFFD
0008
000D
000B
0003
FFFD
FFF9
FFFC
FFFA
0003
0005
0008
0009
0002
000A
000F
000C
0005
FFFF
FFF0
FFF8
FFFE
FFF5
FFF9
FFFE
0000
FFFD
0003
0006
000A
FFFC
FFFA
FFF4
FFEF
FFF5
FFFF
FFF1
FFF1
FFF1
FFEF
FFF0
FFF9
FFFD
FFF8
FFF9
FFF5
FFF5
FFF6
FFF5
FFFD
FFF4
FFF4
FFF2
FFF1
FFF5
FFF8
FFF5
FFF9
FFF9
FFFE
FFFE
FFFD
FFFC
0001
FFFA
FFF7
FFF4
FFFB
FFFE
FFFC
FFF8
0005
0005
0001
FFFC
0001
FFFE
0004
FFFF
FFF8
FFF3
FFF3
FFF2
FFF0
FFEF
FFF1
FFF4
FFEF
0000
FFFF
0000
FFFF
FFFC
FFF6
FFF2
FFE8
FFE6
FFEF
FFEF
FFF4
FFF2
FFF4
FFF4
FFF7
FFFC
FFFA
0001
FFFE
FFF7
FFF2
FFEF
FFFA
FFFA
FFFB
FFFA
0002
0005
0005
FFFE
FFFD
FFFD
0002
0003
FFF7
FFF6
FFF3
FFF5
FFF8
FFF7
0005
000E
000B
0005
FFFB
0003
0000
FFFC
FFF4
FFF2
FFED
FFEE
FFEF
FFF8
0000
0001
FFF9
FFFE
FFF5
FFF8
FFF9
FFFD
FFFC
0000
FFF0
FFF2
000A
0004
FFFE
FFF6
FFEB
FFE8
FFF4
FFF8
FFFE
0007
0011
0011
FFF4
0005
000E
0003
FFF9
FFF5
FFEF
FFF6
FFF6
0002
0007
000C
0010
0012
0003
000D
000F
0006
0009
0008
0003
FFF7
FFFE
FFFD
0009
000C
000D
0005
0008
0011
000B
0005
000A
0002
FFFD
FFF7
FFFA
FFF5
FFF9
FFFD
FFEF
FFF2
FFFE
000D
FFF8
FFF6
FFFC
FFF6
FFF6
FFF1
FFF9
FFED
FFEE
FFEF
FFEA
FFF4
FFFA
FFF8
FFF0
FFF3
FFF6
FFF2
FFF0
FFF2
0000
FFF6
FFEF
FFEF
FFF5
FFF9
FFF9
FFF6
FFF3
FFF3
FFF5
FFF9
FFF8
FFF8
FFFE
FFF4
FFF5
FFF8
FFFD
FFFF
FFF9
FFFA
FFFC
FFFD
0000
FFFE
FFFD
FFFF
FFFC
FFFB
FFF4
FFF6
FFF9
FFEE
FFF2
FFEF
FFEE
FFF4
FFF7
FFF8
0002
FFFC
FFFD
FFFC
FFF1
FFF4
FFF6
FFED
FFE9
FFEE
FFE7
FFF1
FFF2
FFFE
FFFA
0001
FFFE
0002
0002
0000
FFF9
FFF8
FFF4
FFFD
FFFE
FFFA
FFFA
FFF8
0001
0002
0001
FFFC
FFF4
FFF4
FFF6
FFF2
FFF1
FFF9
FFFF
0002
FFFC
FFF4
FFF4
0002
0002
FFF2
FFF1
FFF5
FFF8
FFFF
FFFD
FFFB
FFFD
FFFF
FFFA
FFFF
0000
0003
FFFA
FFEA
FFF3
FFF7
0000
0002
0003
FFFA
FFF9
0001
0002
0001
0007
0008
FFF9
FFEE
FFEC
FFF7
0005
0005
0002
FFF9
FFF0
FFF8
FFFC
0007
0013
0011
FFF1
FFF0
FFF2
0003
0004
000B
000C
0004
FFF7
FFF3
FFF1
FFF5
000E
0019
FFFA
FFF8
FFF9
0003
0005
000B
0010
000A
FFFF
FFFA
FFF8
FFE8
FFED
0002
FFFB
FFF9
FFF6
FFF6
FFFC
0005
0009
0007
FFF7
FFFC
FFFF
FFFB
FFEF
FFEF
FFF5
FFFF
FFFD
FFFB
FFEF
FFF2
FFF8
FFF4
FFF6
FFFD
0005
FFFD
FFFA
FFF2
FFFF
FFFD
0002
0011
0001
FFF5
FFF5
FFF8
FFFC
0001
0004
0005
0001
FFF8
FFF3
FFFE
FFFB
000A
0009
0008
FFFE
FFFB
FFFE
0003
0003
0005
0003
0000
FFFA
FFFA
FFFD
FFFA
0000
0009
0005
0002
0001
0004
0004
0008
0007
FFFF
FFFB
FFFA
FFFE
FFF8
FFFC
0006
0003
0007
0001
FFFC
FFFA
FFFD
0003
0001
FFFF
FFFC
FFFC
FFF2
FFEF
FFF9
FFFE
FFFD
FFF7
FFF8
FFF9
FFF8
0004
FFFA
0005
0007
0001
0004
0004
0005
0005
0003
0002
0002
0003
0006
0002
0001
0003
0002
0002
0004
FFFF
0000
FFFA
0002
0002
0001
0003
0005
0002
0002
0002
0005
0003
0001
0004
0003
FFFF
FFFE
0001
0004
0003
0007
0005
0003
0003
0003
FFFD
0003
0005
0005
0003
FFFD
FFFF
0004
0007
000B
000F
0002
0002
0003
FFFB
0003
0007
0009
0000
FFF7
FFF4
FFFD
FFFF
000A
0011
0008
0003
0001
FFFF
0001
0008
0008
0007
FFF5
FFF3
FFF8
FFFA
0002
000C
0006
0006
FFFF
0000
0000
0003
000A
0005
FFFA
FFF5
FFF6
FFFB
FFF8
0005
0007
0006
0005
0002
FFFC
0003
0004
FFFC
FFF7
FFF9
FFFD
FFFD
FFFA
0000
0003
0006
0000
0000
0000
FFFB
FFFA
FFF7
FFF7
0002
0002
0006
0002
0005
0004
0004
0004
0000
FFFF
FFFF
FFF9
FFFB
FFFD
0002
0006
0003
0007
0001
0003
0004
0001
0004
0005
0005
0001
0000
0001
0001
FFFF
0004
0004
0005
0000
0001
0000
FFFF
0005
0009
0002
0004
0003
0003
FFFE
0002
0003
0006
0003
0003
0004
0003
0000
0003
0003
0006
0004
0001
0003
0000
0003
0003
0003
0006
0002
0000
0000
0003
0002
0007
0003
0005
0006
0001
0003
0006
0004
0001
FFFE
FFFC
FFFD
FFFD
FFF8
FFF4
FFF0
FFF9
FFF9
FFF7
FFF4
FFFC
0000
FFFE
FFFD
FFFA
FFF5
FFF3
FFEE
FFF7
FFF6
FFFC
FFFF
FFFA
FFF9
0000
FFFD
0002
FFF9
FFF0
FFF5
FFFB
FFFC
FFFB
FFFB
FFFA
0002
FFFF
0001
0007
0007
FFFA
FFEF
FFEF
FFFA
FFFD
0002
0002
FFFD
FFFE
FFFF
0000
0004
0009
000C
FFFF
FFF5
FFEB
FFFD
0005
0007
0009
FFFD
FFF0
FFF4
FFF5
0005
0010
000F
FFF8
FFF1
FFF2
0003
0004
0008
0008
0002
FFF3
FFF0
FFF0
FFEF
0007
0013
FFFA
FFF7
FFFA
0000
0001
0007
0008
0004
FFF7
FFF6
FFF4
FFED
FFEC
0004
FFFF
FFFC
FFF8
FFF7
FFF6
0007
0005
FFFB
FFF7
FFFD
FFFF
FFFA
FFF7
FFF4
FFFA
FFF7
FFFA
FFFA
FFEF
FFF3
FFF1
FFF3
FFF4
FFFF
0006
FFFF
0002
FFF7
0000
FFFB
FFFD
0003
FFFD
FFF4
FFF9
FFF6
FFFE
0002
0002
0006
0003
FFFC
FFFB
FFF6
FFFB
0005
0007
0006
FFFF
0001
0004
0002
0006
0007
0007
0001
FFFB
FFF6
FFF8
FFFA
0005
0003
0005
0004
0004
0002
0001
0005
0001
0000
FFFE
0003
FFFD
FFFA
FFFB
0005
0003
0006
0000
FFF9
FFFD
FFFF
0002
0000
FFFF
FFFE
FFF9
FFF8
FFF5
FFF8
FFFE
FFFB
FFFB
FFFC
FFFA
FFFD
0003
0000
0006
0004
0003
0006
0001
0001
0001
0001
0005
0005
0003
0000
0003
0001
0001
0005
0003
0002
0000
FFFE
FFFD
0004
0001
0000
0004
0001
0002
0003
0002
0004
0002
0000
0002
FFFF
0001
FFFF
FFFE
0002
0004
0009
0002
0004
0002
FFFF
0004
0000
0005
0001
FFFE
FFF8
FFFD
0000
0007
0007
0009
0007
0005
0002
0005
0005
0007
0003
FFFA
FFF4
FFF5
FFF6
FFFE
0009
0005
0004
0002
0002
0004
0005
0003
000A
FFFA
FFF8
FFF6
FFF4
FFFC
0000
0005
0001
0004
0002
FFFF
FFFE
0006
0004
FFF6
FFF5
FFFB
FFFE
FFFE
0000
0004
0003
0002
FFFF
0000
FFFC
FFFF
FFFB
FFF5
FFFD
0001
FFFF
FFFA
FFFF
0005
0001
0002
0005
0005
FFFB
FFF8
FFF6
FFFD
0001
000B
0007
0001
FFFF
0003
0006
0001
0001
0003
0002
0001
0003
0002
0001
0005
0006
0003
0006
0004
0005
0003
0005
0001
0004
0003
0005
0002
0004
0006
0004
0008
0001
0006
0001
0006
0003
0000
0006
0008
0004
FFFF
0000
0001
0000
0005
0002
0004
0006
0002
0006
0004
0004
0001
FFFF
0000
FFFA
FFFE
0005
0002
0003
0000
0001
0002
0005
0000
0001
0001
0000
0005
0006
0004
0000
0003
0002
0003
0006
0002
0000
0000
FFFF
FFFE
FFFE
FFFB
FFFB
FFFA
FFFE
FFFD
FFFC
0002
0003
0001
FFFA
FFFB
0000
FFF9
FFF7
FFF6
FFF3
FFF9
FFF9
0004
FFFC
FFFB
FFFB
FFFC
FFFD
FFF3
FFEB
FFE1
FFE4
FFF0
FFFF
000B
000F
000F
0008
0006
FFFF
FFFF
FFED
FFED
FFE1
FFE5
FFEB
FFFA
000A
0018
001C
001B
0018
0014
000A
FFF6
FFE8
FFE9
FFE0
FFE4
FFED
FFFC
000F
0018
001E
001D
001E
001E
0018
FFF7
FFEC
FFEA
FFEA
FFEC
FFF5
0006
000F
0015
0018
0015
0021
0023
001B
FFF4
FFF5
FFFC
0001
0000
000D
0014
001B
0006
FFF5
FFEE
FFF9
000C
0004
FFFB
0001
0013
0014
0010
0014
0014
0007
FFFD
FFF5
FFE7
FFE3
FFDF
FFF1
FFF6
FFFD
0008
000C
0013
0014
0009
FFFE
FFF8
FFF0
FFED
FFEF
FFEA
FFF5
FFF4
0006
0015
000B
0001
0005
0006
0006
FFFB
FFF6
FFF2
FFF2
FFF1
FFF4
FFFC
0000
0011
0019
000F
000E
000E
0003
0000
FFF8
FFFC
FFFD
FFFB
FFF8
FFF9
FFFC
0003
0007
0007
0003
0004
0004
0006
FFFE
0003
0004
FFFF
0003
FFFF
FFFF
FFFA
FFFA
0005
0006
0005
0009
0002
0002
FFFD
FFFD
0001
FFFD
0000
FFFF
FFEF
FFF5
FFFA
0004
0002
FFFF
FFFD
FFFA
FFFF
0001
FFFE
FFFB
0008
0005
0005
FFFF
FFFC
FFFB
FFF9
FFFA
FFFF
FFFB
FFFD
0003
0004
0008
0007
0005
FFF8
FFF9
FFF7
FFF8
FFFA
FFFA
FFFD
FFF5
FFFA
0001
FFFE
0008
0003
FFF3
FFFA
FFFF
0006
FFFA
FFF3
FFEC
FFF3
0008
000D
0005
0005
0003
FFFF
FFEF
FFF9
FFFE
FFF8
FFF6
FFEF
FFEA
FFF0
FFFF
000C
000A
0008
000B
FFFF
FFEE
FFF7
FFF5
FFF7
FFFB
FFFD
FFED
FFD2
FFDB
FFEB
FFF0
0008
0018
FFFF
0000
FFFE
FFF3
FFF9
0001
0001
FFE7
FFCD
FFCB
FFD6
FFDA
0007
001A
FFFF
0000
FFF3
FFEC
FFFC
FFF9
FFFA
FFEC
FFD6
FFD6
FFDD
FFD8
FFED
000C
0001
FFFD
FFF8
FFE7
FFDE
FFE9
FFF4
FFF3
FFE0
FFE0
FFE5
FFE8
FFE7
FFFA
FFFD
0005
0012
FFF3
FFDE
FFE4
FFEE
FFEE
FFEA
FFF0
FFF8
FFFC
FFF7
FFF5
0001
0005
000F
0004
FFEB
FFE5
FFE5
FFF7
0000
0001
0003
0003
0005
FFF8
FFFF
0002
0006
000B
FFF5
FFEE
FFEE
FFFD
0001
0006
0003
0004
0004
0000
0003
0006
0001
0000
FFEF
FFEF
FFF1
FFF0
FFFE
0005
FFFF
0008
0004
0002
0007
0002
FFFC
FFF5
FFE8
FFEF
FFF1
FFF8
FFFC
FFFA
0000
0003
FFFE
0003
0004
0004
0005
FFF6
FFEE
FFED
FFF3
FFF8
FFFC
FFFA
FFF8
0000
0007
0005
0003
0003
0000
FFFF
FFFC
FFF4
FFF4
FFFB
FFFF
0000
FFF8
FFF8
FFFE
0002
0003
0001
FFF5
FFF0
FFF9
FFF5
FFF9
FFFA
FFFB
FFFA
0000
0000
FFFD
0002
0004
FFF2
FFF8
FFFD
0001
FFFE
0001
FFFC
FFFE
0005
0002
0002
0009
0009
FFFC
FFEC
FFF1
0000
0001
0000
0001
FFFD
FFFE
0002
0008
000A
000F
000C
FFFC
FFF0
FFF7
FFFE
0002
0007
0003
FFFD
FFFB
FFFA
0003
000F
0013
0015
FFF9
FFF2
FFF9
FFFF
0006
000A
0007
FFFE
FFF5
FFF6
FFF8
0002
0014
0014
FFFF
FFF6
FFF7
0002
0000
0006
0009
FFFC
FFF0
FFF3
FFF3
FFF1
FFF5
0001
FFFF
FFF8
FFFD
FFFF
FFFE
0007
0007
FFFA
FFF4
FFF8
FFFC
FFF9
FFF6
FFF5
FFFA
FFFD
0007
0000
FFFC
FFFB
FFF3
FFF5
FFF4
0000
0000
0001
0000
FFF3
FFFD
FFFC
0007
0003
FFFC
FFF5
FFF7
FFFB
FFFF
0004
0000
0002
0001
FFFA
FFFD
FFFF
0005
0009
0006
0007
0008
0006
0006
0006
0002
0006
0005
FFFA
FFFD
FFFE
0002
0006
0004
0006
0001
0003
0001
0004
0004
0009
0002
0003
0001
0002
FFFE
FFFF
0006
0006
0003
0005
FFFE
FFFF
0001
0000
0006
0004
0006
0000
FFF7
FFF6
FFFD
0000
0004
FFFD
FFFA
FFFB
FFFE
0002
0004
0005
0001
FFFD
FFFA
FFF9
FFF9
FFF2
FFEC
FFF5
FFFB
FFFD
FFF4
FFF3
FFF7
FFFD
FFF9
FFF9
FFF8
FFF3
FFF7
FFF7
FFF8
FFFF
0005
0001
FFFC
0003
0002
FFFE
FFFD
FFF1
FFF8
FFFC
0001
0003
0004
0002
0006
0009
0009
0003
0007
0008
FFFA
FFED
FFF2
0002
0004
0002
FFFE
FFFA
0005
000D
000C
0011
0015
0013
FFF8
FFEC
FFFC
0005
0004
0005
FFFE
FFF9
FFF6
FFF9
0004
0019
001E
001C
FFF2
FFFC
0002
0005
0007
0008
0003
FFFC
FFF6
FFF3
FFEB
FFF7
000C
000D
FFF7
FFFC
0000
FFFE
0006
0004
FFFD
FFF3
FFF0
FFF3
FFEF
FFF0
FFFC
FFEF
FFF2
FFFA
FFF2
FFEF
FFF0
FFF2
FFF1
FFEA
FFF2
FFF9
FFF4
FFF6
FFFD
FFF9
FFF2
FFF8
FFFE
FFF6
FFEE
FFEF
FFF1
FFF7
0004
FFFF
FFFA
FFFA
FFFB
FFF8
FFFC
FFF8
0008
0007
0003
000A
0005
0008
0003
0004
0004
0000
FFF7
FFF9
FFFD
FFFD
FFFD
0004
0003
000B
0005
0008
0005
0004
0009
FFFE
FFFF
FFFD
FFFC
0001
FFF3
FFFB
0000
0004
0009
0005
0004
0004
FFFE
FFFD
FFFF
FFFA
FFFE
FFFF
FFF3
FFF3
FFFC
0001
FFFF
FFF9
FFFC
0002
FFFE
0004
FFFB
FFFD
0001
FFF8
FFF0
FFF2
0002
0000
FFF5
FFEC
FFEE
FFF1
FFF9
FFFB
0000
FFFD
0001
0000
0005
0004
000B
0010
0005
FFFA
FFFA
0009
0009
0005
0000
FFFF
FFFE
0008
0007
0009
0007
0006
000B
0008
0005
000C
0012
000F
0005
0002
FFFF
FFFE
FFFA
0005
0006
FFFE
FFF9
FFF9
0002
000B
0015
0010
000D
0005
FFF7
FFF5
FFF5
FFFC
FFFF
FFFA
FFF4
FFF7
FFF9
FFF7
0001
FFFF
FFFE
FFFB
FFFD
FFF7
FFEF
FFF8
FFFE
FFF9
FFF8
FFF6
FFF1
FFED
FFF4
FFF4
FFF3
FFF4
FFF8
FFF2
FFF2
FFFE
0001
FFFA
FFFB
FFFA
FFEF
FFEF
FFF5
FFFC
FFFB
FFF0
FFFC
FFF1
FFF8
0003
0004
FFFF
0001
FFFE
FFF1
FFF8
FFFC
000E
000E
FFF7
0000
FFF0
FFF4
0004
0005
0006
0008
FFFA
FFFE
FFF9
FFFD
000E
000D
FFFC
FFF8
FFEA
FFEB
FFFF
0007
0011
000D
0005
FFFE
FFF9
0002
0002
0006
FFFE
FFF9
FFF5
FFEB
FFF8
0008
0010
000E
0000
FFF8
0006
0003
0000
0000
FFF5
FFF5
FFEE
FFEA
FFF2
FFFB
000D
0015
0011
000A
000B
0005
0000
FFF9
FFFA
FFFF
FFFB
FFEB
FFEA
FFF3
FFF7
FFFC
0003
FFFA
FFFC
FFF8
FFF4
FFF3
FFF7
0000
FFFC
FFF9
FFF0
FFF1
FFEF
FFF2
FFF6
FFF4
FFF0
FFF5
FFF0
FFF4
FFFF
0002
FFFC
FFFE
FFFB
FFFA
FFF4
FFFA
FFF8
FFF3
FFF4
FFF8
FFF7
FFFD
0001
FFFF
FFFE
FFFE
FFFD
0003
0004
0005
0006
0003
0003
0003
FFFF
0001
0001
FFFE
FFFF
FFFE
0003
0002
FFFF
0000
0004
0007
000B
0008
0007
FFFC
FFFC
FFFC
FFFC
FFFF
0003
0000
FFFF
FFFE
FFFB
0003
0000
0004
0002
FFFD
FFFE
0001
FFFD
FFFC
FFFB
FFFA
FFFB
FFFD
FFFB
FFF5
FFF5
FFFA
FFFE
FFFD
FFFC
FFFE
FFFF
FFFE
0000
0000
FFFC
FFFA
FFF4
FFF1
FFF4
FFF8
FFFB
FFFC
FFFF
FFFB
FFFD
FFFD
0002
0004
FFFF
FFFC
FFF3
FFF2
FFF2
FFFB
0001
FFFB
FFFE
FFFF
FFFA
0003
0007
0006
0006
FFFE
FFFA
FFFB
FFFC
0005
0005
FFFF
FFFA
FFFD
FFFE
FFFE
0005
0006
0008
FFFE
0006
0000
0001
0001
0005
FFFD
FFFC
FFFF
FFFB
FFFC
0000
000B
000C
0001
FFFF
0000
0006
0001
FFFF
FFFC
FFFE
0000
FFFA
FFF6
FFFD
000A
000A
0006
0000
0002
0006
0003
FFFB
FFFD
FFFD
FFFC
FFFC
FFF4
FFF6
FFFF
000B
0002
FFFF
0004
FFFF
0001
FFFE
FFFC
0000
FFFF
FFFC
FFF6
FFF6
FFFA
0004
0006
0002
FFFE
FFFF
FFFD
FFFE
0000
FFFF
0000
0001
FFFD
FFFB
FFF5
FFF5
FFF4
FFF9
FFF9
FFFD
0000
FFFE
FFFE
FFFD
FFFE
FFFD
FFFD
FFFD
FFF8
FFFE
FFFC
FFFA
FFFF
0000
FFFF
FFFF
0001
FFFC
FFFD
FFFE
0006
0009
0006
0009
0008
0005
0004
000B
000D
000C
0005
0003
0000
0001
0000
0003
000B
000B
0008
000A
0008
0008
000D
000E
0008
FFFE
0001
FFFB
FFF9
0002
0007
0004
FFFC
FFFE
0006
000C
000E
000A
0008
0000
FFFF
FFF7
FFF7
FFFB
0001
FFFA
FFF8
FFFD
FFF6
FFF8
FFFC
FFFE
FFF8
FFF8
FFFB
FFF6
FFF6
FFFB
FFFC
FFFC
FFFA
FFFE
FFF3
FFF0
FFF5
FFF9
FFF7
FFEE
FFF9
FFF2
FFF3
FFFD
0000
0000
0005
FFFD
FFEE
FFEF
FFF3
FFFA
FFFE
FFF1
FFFB
FFF8
FFF8
0005
0005
0007
0009
FFFC
FFFA
FFF9
0001
000E
000C
FFFB
FFFB
FFFA
FFF6
0002
000A
000A
0005
0005
0003
FFFA
0003
0008
0007
0001
0001
FFF7
FFEF
FFFB
0006
000D
000B
0007
FFFC
0001
0003
0004
0003
FFFC
FFFF
FFF6
FFED
FFF5
0006
000B
000C
0005
0000
0008
0003
0006
FFFF
FFFA
FFF9
FFF1
FFEE
FFF3
FFF6
0009
000C
000B
0006
0004
0000
FFFD
FFF8
FFF8
0002
FFFD
FFF0
FFEF
FFF5
FFF9
FFF9
FFFB
FFFB
FFF8
FFF7
FFF6
FFF7
FFFC
0000
FFFF
FFFB
FFF8
FFF6
FFF5
FFF4
FFF3
FFF8
FFF8
FFF6
FFF3
FFF9
FFFC
0002
0002
FFF9
FFF8
FFFA
FFF7
FFF9
FFF9
FFF9
FFF3
FFF6
FFF6
FFFA
FFFE
FFFD
0000
0001
0000
0001
0003
0005
0003
0002
0002
FFFF
FFFF
0001
FFFD
FFFF
FFFE
FFFC
FFFD
0003
0000
0001
0006
0008
0008
0001
FFFF
0000
FFFE
FFFF
FFFF
0001
FFFD
FFFE
FFFF
0001
0001
0000
0001
FFFD
FFFC
FFFF
FFFD
FFFD
FFFD
FFFF
FFFE
FFFF
FFFE
0001
0000
FFF9
FFF8
FFF8
FFF9
0000
FFFE
FFFB
FFFC
FFFE
0002
FFFF
0003
0004
FFFD
FFF4
FFF9
0000
0001
FFFE
FFFB
FFFD
FFFE
0001
0003
0005
0005
FFFD
FFF8
FFFB
0000
0003
0003
FFFF
FFFD
FFFE
FFFF
0002
0005
0007
0004
FFF9
0004
0004
0000
0006
FFFD
FFF8
FFFD
0000
FFFC
0001
0006
000A
0004
0002
0008
FFFD
0004
0007
FFFC
FFF8
0001
FFFD
FFF9
FFFF
0004
000B
0000
FFFC
0000
0005
0004
0005
FFFE
FFFB
FFFC
0001
FFFE
FFFA
FFFE
0005
0003
FFF8
0001
0006
0000
FFFC
0000
FFFE
FFFF
0000
FFFC
FFF8
FFF9
FFFF
0000
FFF9
FFFC
FFF8
FFFC
0000
FFFE
FFFC
FFFE
FFFB
FFFE
FFFC
FFF7
FFFD
FFF9
FFFB
FFF8
FFFB
FFFD
FFFE
FFFC
FFFF
FFFB
0001
FFFD
FFFC
FFFD
FFF8
FFFC
0000
FFFC
FFFF
FFFE
FFFD
FFFF
FFFD
FFFD
FFFE
0001
FFFE
FFFB
FFFC
FFFD
FFFA
FFFE
0000
FFFF
0000
0001
FFFD
0001
FFFC
FFFC
FFFE
0001
FFFB
0002
0007
0002
0004
0004
0005
0002
0001
FFFF
FFFF
0000
FFFF
0003
0000
FFFF
FFFE
0006
000F
0010
000E
000A
0003
0006
FFFE
FFFF
FFFB
FFF1
FFEC
FFEE
FFF2
FFF9
0008
0014
0012
000F
0005
0001
FFFF
FFF7
FFF1
FFE8
FFEA
FFE6
FFEA
FFF2
0004
000F
0012
000F
0000
FFFA
FFFC
FFF0
FFE6
FFE8
FFE9
FFE9
FFE8
FFF7
0005
0006
0003
FFFA
FFF2
FFED
FFF6
FFF0
FFE2
FFE5
FFE5
FFE1
FFEC
FFFA
FFF9
0001
0002
FFEA
FFE3
FFE9
FFF9
FFF2
FFEE
FFE3
FFDD
FFDE
FFEE
FFF4
000C
0014
0008
FFF8
FFEF
FFEE
FFFA
FFF5
FFF5
FFE9
FFE2
FFE0
FFF2
0012
0010
0006
FFFC
FFFE
FFF3
FFED
FFFA
FFEE
FFFD
FFF0
FFE6
FFE6
FFF7
000C
0000
FFF8
FFFB
FFFA
FFF4
FFF1
FFFD
FFE4
FFF6
0001
FFFE
FFED
FFEB
FFF5
0005
0007
0001
FFFC
FFF2
FFF9
FFF8
FFED
FFF0
FFFF
000D
000C
000B
0012
0011
000B
0005
FFFE
FFF8
FFF5
FFF9
FFEF
FFEA
FFF1
0000
0010
000F
0012
0008
FFFF
FFFF
FFF5
FFF3
FFFC
FFFB
FFF7
FFEE
FFEC
FFEC
FFF3
FFEF
FFEF
FFF3
FFF5
FFEC
FFEF
FFF9
FFFB
FFFA
FFFA
FFFD
FFF4
FFF3
FFF5
FFF3
FFEE
FFF3
FFF1
FFF3
FFF7
FFFF
FFFD
0000
FFFE
0003
0007
000A
000D
000C
0006
000C
000B
0009
FFFE
FFFE
0000
FFFB
FFFE
0006
0008
000A
000B
000F
000E
0014
0016
0013
000D
0008
FFFA
FFFE
FFF9
FFF9
FFFC
0001
000B
0013
001B
0017
000E
0011
000F
000B
FFFF
FFFB
FFF4
FFF8
FFFC
000A
000F
0018
0017
0008
0008
0008
0006
0003
FFF8
FFF5
FFF0
FFF8
0003
000A
0015
0018
0013
000C
FFFC
FFEF
FFF1
FFEF
FFF4
FFF9
FFF0
0002
0006
000F
0011
0010
0013
0004
FFE4
FFE3
FFE9
FFF3
FFE7
FFFB
FFEC
0001
0003
000E
0014
000E
0017
FFEB
FFE4
FFE6
FFF2
0007
FFF6
FFFB
FFE9
FFF5
0001
0011
000E
0018
0011
FFFD
FFF1
FFF2
0006
000F
FFFF
FFFC
FFE9
FFE8
FFF3
0008
000F
001B
0015
0015
0003
0009
000E
0008
0000
FFF8
FFEF
FFE7
FFE4
FFF7
0001
000C
0007
0005
000F
000E
000A
0003
FFF6
FFFC
FFEE
FFE8
FFE5
FFEB
FFF3
FFF8
FFF3
0002
000C
0009
0003
FFF9
FFF4
FFFC
FFF6
FFED
FFE7
FFE6
FFEF
FFF2
FFFA
0002
FFFE
FFFB
FFF9
FFF7
FFF4
0000
FFFB
FFFB
FFF2
FFEA
FFE4
FFE9
FFE9
FFF0
FFEF
FFF2
FFEF
FFF7
FFFC
FFFC
FFFE
FFFF
FFF9
FFF2
FFF4
FFF1
FFF2
FFF2
FFEE
FFF4
FFF6
FFFD
FFFB
FFFF
0001
0001
0007
000C
000B
0008
0006
0005
0009
000A
000A
FFFF
FFFE
FFFA
FFFC
0005
0009
000A
0005
0002
0003
000C
0012
0016
0011
000B
0004
0002
FFFB
FFFA
FFFE
FFFF
0000
FFFA
0001
0003
000B
000F
000C
0008
FFFE
FFF9
FFF3
FFFA
FFF7
FFF7
FFF6
FFFA
FFF8
0001
FFFA
FFF9
FFFB
FFF9
FFFB
FFF8
FFF3
FFF6
FFF8
FFFB
FFFB
FFF7
FFF6
FFEF
FFEE
FFF4
FFF4
FFF1
FFE9
FFF8
FFF4
FFFA
0000
FFFD
FFFE
FFFB
FFFC
FFEC
FFEE
FFF4
FFFE
0004
FFF3
FFFD
FFF3
0003
0006
0003
0003
0006
0002
FFF6
FFF8
0002
000E
0009
FFFF
FFFD
FFED
FFFC
0002
0003
0009
0008
0005
0006
FFFF
0002
000B
000B
FFFC
FFFE
FFEA
FFF7
FFFE
0003
0007
000C
000B
0001
0000
0002
0007
FFFF
FFF5
FFF9
FFE9
FFF2
FFF4
0002
0003
000A
0002
FFFF
000A
0009
0001
FFFE
FFF3
FFF7
FFEE
FFEE
FFF4
0005
000B
0006
000D
000D
0009
0003
FFFB
FFF5
FFF3
FFFA
FFF3
FFEF
FFF2
FFFE
000C
000A
000C
0006
FFFC
FFFC
FFF8
FFF0
FFF6
FFFC
FFF9
FFF3
FFF4
FFF5
FFF2
FFF4
FFF5
FFF6
FFF3
FFF2
FFF4
FFF6
FFFC
0001
FFFF
FFF9
FFF4
FFF4
FFF4
FFF7
FFF1
FFF6
FFF4
FFF2
FFF8
FFFE
FFFD
FFFF
0005
0004
0008
000D
0010
000E
000A
0007
0009
0010
0009
0001
0002
0000
FFFF
0005
0005
0008
0002
FFFE
FFFF
0006
0013
0014
000E
000D
0004
0002
FFFB
FFFC
FFFE
FFFD
FFF4
FFF0
FFF4
FFFD
FFFF
0004
0003
FFFD
FFFD
FFFD
FFF5
FFF9
FFFE
FFF9
FFF7
FFF4
FFF4
FFF5
FFF7
FFF1
FFF4
FFEF
FFF2
FFFB
FFF4
FFF9
0000
0001
FFFD
FFFC
FFF5
FFEE
FFF1
FFFD
FFFF
FFF3
FFE6
FFFB
FFF7
0003
0008
0005
0006
FFFB
FFEF
FFFB
0004
000A
000F
0009
FFF6
FFFD
FFF1
0008
0008
0009
0004
FFF4
0006
0007
0005
000A
000E
0004
FFFD
FFFB
FFEC
0002
000B
000A
FFFF
0000
000C
FFFE
FFFD
0007
0001
FFEE
FFF2
FFF9
FFE8
FFFC
0004
0010
0008
0002
FFFD
0000
0004
0007
0000
FFF1
FFF0
FFFA
FFEC
FFF1
FFFE
0005
0006
0005
0008
0008
000E
0002
FFFE
FFF6
FFF4
FFFD
FFEE
FFEA
FFF5
FFF8
FFFD
FFFD
0004
0005
FFFF
0002
FFF6
FFF5
FFF5
FFFC
FFF3
FFE9
FFF1
FFEF
FFF2
FFF1
FFF2
FFF4
FFF3
FFF6
FFF8
FFFC
FFF8
FFFC
FFFC
FFF0
FFEF
FFEE
FFEE
FFED
FFE7
FFE4
FFED
FFEC
FFF7
FFFC
FFFF
FFFF
FFFB
FFF7
FFF2
FFED
FFF2
FFEA
FFEA
FFEF
FFF1
FFF5
FFFC
FFFC
FFFD
FFFE
FFFD
0000
FFFD
FFF9
FFF5
FFF7
FFF8
FFFB
FFFD
FFFB
FFFF
FFFE
FFFD
0001
FFFE
FFFC
FFF4
FFEF
FFEC
FFF0
FFF0
FFF5
FFF6
FFF4
FFFB
FFFE
FFFE
0000
FFFD
FFFF
0001
FFFB
FFF5
FFF0
FFF0
FFEF
FFED
FFED
FFED
FFEF
FFF9
0005
0006
0001
0008
0008
0007
0001
FFF7
FFF6
FFF4
FFF6
FFF6
FFF1
FFF0
000A
000A
0009
0005
000B
0011
000F
0009
000B
0007
0002
0003
FFF7
FFF2
0010
000C
000A
0005
0005
0005
0005
000B
000F
000E
000A
0004
FFF5
FFEF
000A
0012
000E
0003
FFFA
FFEF
FFE8
FFED
FFFC
0008
0006
FFFF
FFF3
FFFA
0004
0009
0007
FFFB
FFF9
FFED
FFE5
FFE8
FFFA
000D
000E
0000
FFFB
FFFA
FFF8
0002
FFFC
FFF8
FFF9
FFEF
FFF1
FFEF
0003
000D
0003
FFFE
FFF8
FFF2
FFF7
FFFB
FFF8
FFEF
FFF2
FFF2
FFF9
0001
0004
0001
FFF6
FFF2
FFEF
FFF7
FFFB
FFF7
FFF7
FFF2
FFF1
FFF2
FFFB
0003
FFF9
FFF3
FFF3
FFEE
FFF0
FFF7
FFFB
0000
FFFF
FFFE
FFFB
FFF7
FFFB
FFFF
FFFC
FFF5
FFEE
FFEE
FFEC
FFFB
FFFF
0003
0006
000E
0008
0006
0008
0007
0009
FFFF
FFF5
FFF4
FFF1
FFFD
FFFF
FFFC
0006
0005
0009
0009
0007
000C
000F
0008
0003
0003
FFF8
FFFF
0004
0004
0006
0003
0003
0003
0001
FFFF
0003
0001
0002
0004
0001
0004
0004
0001
0000
FFFF
0001
FFFA
FFFE
FFFC
FFFA
FFFF
0002
0003
0006
0005
0005
0006
0006
0003
0001
0001
FFF9
FFF6
FFFB
FFFD
FFFC
0001
FFFF
0002
0006
0007
0006
0009
000A
000A
0000
0001
0004
0005
0000
FFFF
0001
0003
0004
0009
0006
0002
0008
0005
0003
0007
0009
0006
0001
0003
FFFC
0004
0002
000A
0003
0003
0001
FFFC
0001
0005
0009
0006
FFFF
0001
0001
0001
0002
0008
0002
0003
FFFB
FFF4
FFEE
FFFD
000A
0007
FFFE
0003
0003
0003
0000
0006
0004
0000
FFFC
FFEF
FFF0
0003
0005
0004
0002
0001
0003
0001
0000
0003
FFFF
FFFD
FFFA
FFF4
FFFC
0004
0001
0004
0004
FFFE
0004
0004
0005
0005
FFFE
FFF7
FFF9
FFFB
0001
0002
FFFE
FFFB
FFF9
FFFD
0003
0004
0003
0001
FFFC
FFFA
FFF8
0001
0005
FFFD
FFF8
FFF6
FFFB
FFFC
0005
0005
0002
0001
0000
0003
0003
0005
0005
0002
FFFC
FFFA
FFFD
0000
0002
0003
0001
0002
0009
0005
0008
0007
0005
0008
0001
FFFE
FFFF
FFFE
0004
0001
0000
0002
0002
0005
000A
0006
0008
0007
0008
0002
0000
0003
0000
0004
0002
FFFF
FFFE
FFFB
FFFB
FFFC
FFFC
FFF6
FFFA
FFF9
FFFB
FFFA
FFFD
FFFF
FFFF
FFFD
FFFE
FFF7
FFF2
FFF3
FFF3
FFF7
FFF3
FFF6
FFF3
FFF7
FFFB
FFFD
FFFF
FFFD
FFFC
FFFB
FFF9
FFF9
FFF4
FFF3
FFF7
FFF2
FFF6
FFF3
FFF6
FFF7
0005
0006
0001
0008
0005
0003
0000
FFFA
FFFB
FFFC
FFFF
FFF7
FFF3
FFF0
0006
0008
0009
0005
0003
000A
0006
0009
000E
000C
0007
0004
FFF5
FFF1
000C
000D
0009
0003
0006
0000
0001
0009
0012
000A
0007
FFFE
FFF3
FFEF
0009
000D
0008
0000
0001
FFF6
FFEB
FFF5
0005
0008
0005
FFFC
FFF5
FFF6
0005
000C
0003
FFFE
FFF8
FFF6
FFED
FFF3
0004
000A
0006
FFFF
FFF7
FFF8
0000
0004
FFFD
FFFC
FFF9
FFF7
FFF2
0000
0003
0006
FFFE
FFFE
FFF8
FFF3
FFFF
FFFB
FFFD
FFF3
FFF4
FFF4
FFFC
0003
0002
FFFA
FFF8
FFF5
FFF4
FFF7
FFF8
FFF1
FFF5
FFF4
FFF6
FFF8
FFFF
0003
FFFB
FFF5
FFF5
FFEF
FFED
FFF6
FFFC
FFF4
FFFE
0004
0001
FFFE
0004
FFFF
FFFD
FFF7
FFF6
FFF0
FFED
FFFF
FFFD
0006
0009
000B
000A
0009
0009
0009
000A
0006
FFF9
FFF8
FFF4
0001
0002
FFF9
0005
0004
0007
000A
000A
000E
000A
000C
0002
0003
FFF7
FFFD
0004
0003
0006
0000
0005
0001
0005
FFFF
0000
0001
0004
0002
0003
0005
0005
0000
0006
0002
0003
0000
FFFB
FFFB
0001
0001
0001
0003
0003
0005
0002
0005
0000
0002
0002
0000
FFF8
FFFB
FFFC
FFFF
0002
0002
0000
0001
0002
0005
0008
0005
0007
0004
0003
0005
0005
0008
0006
0004
0005
0002
0001
0006
0005
0002
0001
FFFF
0000
000A
0008
0005
FFFF
0002
0004
0000
0004
0004
0003
FFFC
FFF9
FFF4
FFF9
0004
0006
FFF8
FFF9
0002
0001
0003
0001
0007
FFFF
0002
FFFB
FFEE
FFF4
0008
000A
FFFF
0001
0001
0002
0002
0005
0000
0000
0002
FFFC
FFF5
0002
000B
000A
0005
0004
0004
0003
0003
0003
0002
0002
FFFF
FFFF
0002
0009
0005
0004
FFFE
0000
0004
0005
0003
0005
0004
0000
FFFD
FFFF
0005
0007
0002
FFFD
0000
0001
0005
0002
0006
0006
0004
0001
0000
0002
0002
0006
0001
FFFF
FFFF
0005
0006
0000
0003
0001
0000
0005
0001
0002
0006
0007
0008
FFFF
0001
0003
0004
0005
0004
0003
0006
0005
0003
0005
0006
000A
0007
0004
0001
0000
0003
0001
0002
0000
0006
0005
0008
0007
0004
0007
0003
0005
0003
0005
0002
0000
0003
FFFE
FFFE
0000
FFFF
FFFF
0001
FFFB
FFFF
FFFD
FFF9
0000
0000
FFFF
FFFE
0001
FFFC
FFFF
FFFA
FFF9
FFF5
FFF8
FFF3
FFF3
FFF4
FFF7
FFFA
FFFE
FFFF
FFFF
FFFD
FFF8
FFF0
FFE9
FFEC
FFE8
FFE3
FFE8
FFEC
FFEC
FFE9
FFED
FFF8
0003
0001
0007
0001
0005
FFFD
FFF6
FFEF
FFE6
FFE6
FFEE
FFEA
FFEF
FFEF
000A
0003
000C
000D
000F
0009
0006
0000
FFF5
FFEA
FFEE
FFF1
FFF0
FFE9
0009
000A
0005
0007
0006
000C
000F
0012
000A
FFF9
FFF7
FFF2
FFF0
FFF1
000F
000C
0003
0007
000E
000C
0000
FFF4
FFFE
FFFA
FFF5
FFF3
FFF4
0000
0008
000D
000A
000B
FFFA
FFE4
FFD6
FFDD
FFF8
FFFD
0006
0003
FFFF
0001
0001
0007
0008
0000
FFF9
FFEB
FFE2
FFEC
0005
000E
000D
0007
FFFE
FFF7
FFFC
0000
FFF9
FFFE
FFF6
FFF7
FFF1
FFF3
FFF3
FFFD
FFFB
FFF1
FFF0
FFF8
0002
FFF8
FFEF
FFE9
FFE6
FFEB
FFF1
FFE3
FFE5
FFEB
FFE5
FFE8
FFED
FFF6
FFF5
FFF4
FFF1
FFF2
FFF1
FFED
FFE2
FFE4
FFE7
FFE6
FFE8
FFE7
FFE6
FFFA
FFFD
0004
000B
0007
FFFB
FFF0
FFEF
FFF3
FFEF
FFEA
FFEA
FFEC
FFF6
FFFB
FFFD
0004
000B
000E
000C
0008
000C
0011
000E
0001
0002
FFFF
0005
FFFF
0000
0002
0002
FFFF
FFFB
FFF8
FFF8
FFF7
FFFC
FFFF
FFFF
0004
0000
0000
0000
0003
FFFA
FFF4
FFE9
FFEB
FFE5
FFED
FFF0
FFF1
FFF4
FFFE
FFFD
0005
0003
FFFD
0006
0001
0003
FFF2
FFEB
FFE8
FFED
FFEF
FFEC
FFED
FFF3
0001
000D
0002
0008
0009
0005
FFF5
FFEC
FFF0
FFEF
FFFB
FFF8
FFF4
FFF1
FFF2
000A
0007
FFFB
FFF4
FFEB
FFE2
FFE5
FFE6
FFE7
FFFA
0007
0006
FFFD
FFEF
000C
0005
FFF1
FFF1
FFDC
FFDC
FFE6
FFEF
FFF9
0007
0008
0009
FFFB
FFEE
0008
0003
0003
FFF5
FFE9
FFF6
FFFF
0001
0009
0014
0004
0006
FFF6
FFF4
0000
0005
000E
0001
0011
0015
0006
FFF5
0004
000D
0008
0006
FFFB
FFFF
0003
FFFE
FFFF
000D
001A
0015
FFF9
FFF1
0008
0003
000A
0002
FFFF
FFF7
0000
FFFB
FFF6
0004
000D
0002
FFF1
000B
0002
0007
0004
FFFB
FFEE
FFF4
FFFD
FFFD
0006
0006
0004
FFFC
0002
000D
0001
FFF7
FFF9
FFEE
FFE8
FFF6
0003
000C
000C
0009
000A
0009
0010
0000
0000
FFF5
FFF4
FFF1
FFEB
FFFF
0003
0006
0004
000D
0012
0012
0009
0004
0007
0000
FFF3
FFF4
FFEE
FFFE
0001
0004
0004
0009
0010
000C
000C
000C
0010
000B
0002
0000
FFFF
0001
0005
0004
FFFF
FFFF
FFF8
FFF9
FFF7
FFF6
FFF9
FFFB
FFFC
0000
0001
0002
0003
FFFF
FFF7
FFF3
FFEE
FFEE
FFF3
FFEE
FFEF
FFF4
FFF0
FFF7
FFF7
0000
0003
FFFE
0004
0006
0003
FFFA
FFF6
FFF3
FFF1
FFF2
FFEF
FFF2
FFF0
FFF3
0008
0005
000C
000B
000A
000A
0004
0002
FFFD
0000
FFFD
FFFE
FFF4
FFF1
000D
0008
0009
0004
0009
0001
FFFC
0004
0006
0005
0008
0003
FFF4
FFEE
000D
000B
0005
0004
0005
0000
0001
0010
000E
0009
0005
FFFD
FFED
FFEF
0011
000C
0005
0003
0001
FFF4
FFF0
FFF6
0004
000C
0003
FFFC
FFF6
FFFA
0009
000A
0002
0001
FFFE
FFEF
FFE9
FFF3
0003
000C
000A
0001
FFFD
FFFA
0003
0002
FFFE
FFF9
FFF6
FFF1
FFED
FFF5
0005
0009
0004
FFF9
FFF5
FFF4
0001
FFF9
FFF7
FFF4
FFF3
FFF8
FFF8
0001
0002
FFFD
FFF8
FFEF
FFF0
FFFA
FFFD
FFFB
FFF5
FFF5
FFF8
FFFB
FFFE
0002
FFF4
FFF1
FFF1
FFEC
FFE9
FFF7
FFFD
FFFF
0000
0001
0000
FFFF
0003
FFF8
FFF8
FFF4
FFEC
FFEA
FFEC
FFFC
0001
0002
0007
0005
0001
FFFF
FFFA
0002
0004
FFFD
FFF9
FFF2
FFF8
FFFF
0004
0008
000A
000C
000E
0009
000D
000B
000D
0004
FFFF
0001
0002
0002
0002
0002
FFFF
FFF9
FFF6
FFF3
FFF3
FFF5
FFF7
FFF8
FFF7
FFFE
FFFF
0003
FFFF
0000
FFF4
FFED
FFEF
FFF3
FFF1
FFF3
FFF1
FFF0
FFF5
FFF2
FFF5
FFF8
0000
0000
0000
0005
0003
FFFE
FFF6
FFF7
FFF3
FFF7
FFF6
FFF1
FFF0
FFF2
0003
0005
0009
000B
000A
0009
0009
000A
000C
000A
0006
0002
FFF7
FFEA
0009
000D
0004
0001
0002
0006
0009
0010
0010
0009
0005
FFF9
FFEC
FFEC
000A
0009
0001
FFFE
FFF5
FFF6
FFF0
FFFC
0002
FFFA
FFF5
FFED
FFF0
FFF8
0010
0005
FFFD
FFF8
FFF7
FFE6
FFE8
FFF9
0002
FFFE
0001
FFFC
FFFF
0000
0008
0003
FFFB
FFFD
FFF6
FFF0
FFF4
0009
0009
000B
0006
0000
FFFD
FFF0
FFFD
0001
FFF9
FFF9
FFFB
FFF8
0005
0009
0002
FFFA
FFFA
FFF0
FFEF
FFF4
0000
FFF7
FFF0
FFF1
FFF7
0005
0004
FFF7
FFF0
FFF2
FFED
FFE5
FFEA
FFF1
FFF6
FFF6
FFF7
FFFD
FFFF
0001
FFFD
FFF2
FFF4
FFF0
FFEB
FFE9
FFF3
FFF9
FFFC
0003
000A
000F
0008
0004
0002
0000
FFF6
FFED
FFEB
FFF0
FFEF
FFF9
FFFF
0008
000E
000E
0008
0007
000F
0010
0007
FFFC
FFFC
FFFB
FFF6
0002
0000
0002
0009
0009
0005
000A
0011
0015
000F
0001
FFFE
FFFC
0001
FFFF
0003
FFFD
FFFD
FFFF
FFF4
FFF4
FFEF
FFF6
FFEF
FFF5
FFFB
FFFC
0000
0001
FFFF
FFFF
FFF5
FFF5
FFF2
FFF1
FFF0
FFEC
FFED
FFF0
FFF5
FFFA
FFFA
FFFB
FFFC
FFF8
FFF7
FFF1
FFF7
FFFA
0000
0000
0005
FFFE
FFF8
FFFC
FFFB
0001
FFF3
FFF5
FFF3
FFF5
FFFA
FFF4
FFFD
0007
0007
0005
0007
0003
0005
0000
FFF3
FFFB
FFFD
0003
0003
0005
0001
FFFB
FFF9
FFFC
0002
0003
0004
FFFF
FFF3
FFF7
0002
0008
0013
000F
0011
0003
FFF1
FFFB
0007
000C
0007
0002
FFF5
FFFA
0001
000C
000E
000C
0013
000A
0002
FFFC
0005
000A
000B
0005
FFFB
FFF3
FFF9
FFFB
FFF4
FFF8
000C
000E
000A
FFFC
FFF6
FFF6
FFFD
FFFF
FFF8
FFEF
FFF7
FFF9
FFF7
FFF9
000D
000C
000B
FFFD
FFFB
FFFA
FFFC
FFF9
FFF6
FFF5
FFF3
FFFC
FFF9
0004
000C
FFFD
FFFD
0000
0000
0002
0002
FFF2
FFF8
FFF4
FFF4
FFFD
0003
FFFF
0002
FFF8
FFFB
FFFC
0001
0000
FFFF
FFF3
FFFA
FFF3
FFF3
0004
0008
0007
000C
0007
0008
0004
0005
0001
FFFE
FFF8
FFFC
FFF5
FFEE
FFF1
FFF9
FFFD
0009
000C
0006
0006
0003
0004
FFFC
FFFA
FFFD
FFFF
FFF4
FFF2
FFEA
FFED
FFF2
FFF5
FFF9
FFFC
FFFD
FFF8
0000
FFFC
FFFC
FFF8
FFFD
FFF9
FFFC
FFF9
FFFA
FFF8
FFF7
FFFD
FFFA
FFF9
FFFC
FFF8
FFFD
FFF8
FFFC
FFFB
FFFD
FFFC
FFFA
0001
FFFF
FFF9
FFFC
FFF8
FFF8
FFF8
FFF8
FFF9
FFF7
FFFB
FFFA
0001
0005
0006
0006
FFFE
FFFB
FFFE
FFFA
FFFD
FFFA
FFF8
FFF8
FFFE
0002
0001
FFFE
FFFC
FFFE
FFFE
0001
FFFD
FFFE
FFF8
FFF9
FFFC
FFFF
0001
0006
0005
FFFC
FFF7
FFFD
0002
0001
0002
FFFC
FFFD
FFFB
FFFA
FFFD
0005
0007
0004
0000
FFFD
FFFC
0001
0001
0004
FFF9
FFFD
FFF8
FFFB
FFFD
FFFE
FFFB
0003
000B
0003
FFFF
FFF9
FFFE
FFFE
FFFB
FFF8
FFFC
FFF9
FFFA
FFF7
FFF9
0005
0006
0002
FFFB
FFF7
FFF6
FFFB
FFFC
FFF8
FFF9
FFF6
FFF4
FFFA
0000
000A
0005
FFFF
FFF8
FFFA
FFF7
FFFA
FFFA
FFFC
FFFD
FFF7
FFFE
0000
0004
0003
FFFD
FFFC
FFFC
FFFB
FFFB
FFFA
FFF8
FFFD
FFF7
FFFB
FFFB
0000
FFFF
0000
0000
0001
0000
FFFF
FFFE
FFFC
FFF9
FFFD
FFF9
FFF6
FFFC
0001
FFFA
FFFD
0003
0003
FFFC
0002
0001
FFFB
FFFC
FFFA
FFFD
FFF8
FFF8
FFFC
FFFE
0000
0004
0006
FFFD
FFFD
FFFF
FFFA
FFF8
FFFC
FFFA
FFFB
FFFB
FFF6
FFF3
FFF7
FFF9
FFF9
FFFA
FFF8
FFF9
FFFD
FFF7
FFF9
0003
0000
FFFD
FFFB
FFFB
FFFD
FFF8
FFF2
FFF6
FFFA
FFF7
FFFC
FFFD
FFFB
FFFD
FFFB
FFFD
FFFA
FFF8
FFF7
FFF9
FFF8
FFF8
FFF4
FFF4
FFFA
FFFD
0001
0002
FFF5
FFF5
FFF8
FFFE
FFFC
0004
0003
0004
0003
0000
0001
0000
0002
0000
FFFA
FFFB
FFFB
FFFE
0001
0007
0003
0003
0004
0000
0002
0005
FFFF
FFFF
FFF7
FFFF
0001
0005
0007
0000
FFFB
FFF6
FFFC
0004
0005
000A
FFFB
FFFE
FFF6
FFFF
0008
000A
0007
000A
FFFE
FFF7
0000
0004
0007
0007
0005
FFF6
FFFB
FFFE
0001
FFFF
FFFE
000B
0009
0001
FFFF
FFFF
0004
0004
0002
FFFC
FFFD
FFFA
FFF6
FFF9
FFF5
0009
000C
0002
FFF9
FFF8
FFFB
FFF8
FFFE
FFFC
FFFB
FFF5
FFFB
0000
0004
000E
0002
FFFF
FFF9
FFFB
FFF8
FFFE
FFF6
FFFF
FFF3
FFF7
0000
0009
0006
0005
FFF7
FFFB
FFFF
FFFD
FFFC
0001
FFF1
FFFF
FFED
FFFA
0000
0004
0002
0001
FFFB
FFFC
FFFE
0006
0004
FFFF
FFF3
FFFA
FFF2
FFF4
0002
FFFF
0000
0006
0008
0008
0007
0007
0005
FFFA
FFF7
FFFF
FFF9
FFEE
FFF1
FFFA
0000
0002
0008
0007
0004
0002
FFFF
FFFC
FFFA
0000
FFFC
FFF1
FFEF
FFED
FFF0
FFF1
FFF7
FFFC
FFFB
FFFB
FFF8
FFFA
0000
FFFC
FFFE
FFF7
FFF9
FFF9
FFFB
FFFC
FFFC
FFF8
FFFA
FFFA
FFFD
FFF9
FFF8
FFFA
FFFB
FFFB
FFFD
FFFA
FFFC
FFF8
FFFE
FFFD
FFFC
FFF8
FFFD
FFFB
FFFA
FFFA
FFFD
FFFA
FFFB
FFFD
FFFD
0001
0005
FFFF
0000
0000
FFFC
FFFC
FFFD
FFF8
FFF7
FFFB
FFFB
FFFF
0003
FFFC
FFFD
FFF9
FFFC
FFFA
FFFC
FFFA
FFF8
FFFC
FFF8
FFFF
0000
0005
0000
FFFE
FFF9
0005
0005
0002
FFFD
FFFB
FFFA
FFFB
FFFC
FFFD
FFFC
FFFB
0000
FFFD
FFFC
0007
0007
0001
FFFA
FFFA
FFF9
FFF9
FFF9
FFFB
FFF5
FFF5
0001
0001
FFFC
FFFA
FFFF
FFFC
FFFA
FFF8
FFF8
FFFD
FFF9
FFF9
FFF8
FFFC
0005
FFFD
FFF5
FFF6
FFF6
FFF8
FFF8
FFFD
FFF9
FFFC
FFF9
FFFB
0000
0007
0007
FFFD
FFF3
FFF6
FFF7
FFFD
FFFE
FFFA
FFFA
FFFB
FFFB
FFFC
0006
0006
0006
FFF9
FFFC
FFFF
FFFD
FFFD
FFFD
FFFC
FFFB
FFF8
FFF7
FFFE
FFFE
FFFF
0001
0000
0005
0007
FFFD
FFFD
FFFB
FFFC
FFFC
FFFC
FFF9
FFF9
FFFB
FFFE
0001
0005
0006
0002
FFFE
FFFB
FFFA
FFFD
FFF7
FFFC
FFFA
FFFD
FFF9
FFF8
FFF8
FFF6
FFF8
FFFB
FFFA
FFF9
FFF9
FFFC
FFF7
FFFB
FFFB
FFF9
FFF8
FFF7
FFF8
FFF7
FFF9
FFFA
FFF8
FFF8
FFF9
FFFC
FFFB
FFFB
FFFA
FFFA
FFFE
FFFC
FFFB
FFF7
FFF8
FFF7
FFF8
FFF9
FFF9
FFFE
FFFE
FFF8
FFF7
FFF7
FFF8
FFF8
FFF4
FFF2
FFF8
FFF5
FFEE
FFEF
FFEE
FFF9
FFF9
FFF9
FFFC
FFF1
FFE8
FFF7
0003
000E
0011
000F
000A
0005
0000
FFF9
0003
FFFA
FFF6
FFEE
FFEE
FFF8
000B
0012
0011
0011
0003
FFFB
FFF4
FFFB
FFF9
FFF9
FFF8
FFF1
FFEE
FFF4
FFFB
FFFD
0006
000A
0008
0002
0001
FFFC
FFFA
FFF1
FFFA
FFFF
0004
0004
0001
FFEE
FFF5
0007
000F
000E
0009
FFFF
FFFA
FFF5
FFFE
000F
001A
0018
0013
FFEF
FFF8
000B
0011
0018
0016
000B
0004
FFFA
FFFD
0004
0005
0005
0001
FFF8
0006
000F
0014
000F
000B
FFFB
FFF3
FFF8
FFF2
FFEC
FFEB
FFEF
FFFB
0006
0008
0008
FFFC
FFF8
FFEA
FFF3
FFF7
FFF8
FFE9
FFE3
FFF1
0000
0007
FFFF
FFFB
FFFD
FFF4
FFF0
FFF1
FFF7
FFF1
FFF5
FFED
FFF2
FFF1
FFF7
FFED
FFEE
FFF4
FFF6
FFF5
FFFB
FFFA
FFF6
FFEE
FFF8
FFF8
0003
0002
FFFB
0000
0009
0009
0002
FFFF
0000
FFFF
FFF4
FFF3
FFF9
FFF0
FFF4
FFF8
FFFC
000A
000A
0009
000C
0008
0003
FFFA
FFFB
FFF8
FFFB
FFF0
FFF0
FFEA
FFF0
FFF2
FFF3
FFF7
FFF9
FFFA
FFF1
FFF8
FFF9
FFF8
FFFA
FFF9
FFF7
FFF4
FFF2
FFF0
FFF2
FFEF
FFF2
FFF1
FFF7
FFF6
FFFA
FFF9
FFF9
FFF7
FFF1
FFF8
FFFB
FFFA
FFFA
FFFC
FFF5
FFF8
FFF6
FFF4
FFF7
FFFC
FFF8
FFF0
FFF6
FFFF
0000
0003
000A
0008
0001
FFFC
FFF4
FFFB
FFFA
FFFD
FFF4
FFFB
FFFF
0002
0007
000E
000C
0008
0007
0005
0003
FFFB
0002
0003
FFF1
FFFF
0003
0008
0006
0009
0007
0008
000D
0010
000D
0006
000B
FFFE
FFF3
FFFD
0001
FFF6
FFEF
FFF7
FFF6
0009
0017
0015
0010
000C
000A
FFFE
FFF7
FFF1
FFEB
FFE3
FFDD
FFEB
FFE0
0005
0015
000A
0007
000B
000F
0005
FFF7
FFF0
FFF3
FFFF
FFEF
FFE8
FFE7
FFFB
0007
FFFE
FFF5
FFF5
FFF7
FFFF
FFF6
FFF3
0001
000F
000D
0017
000F
FFFC
FFF3
FFEE
FFEC
FFF0
FFF7
FFF9
FFF4
FFF8
0003
0007
0013
0029
0015
FFF9
FFF0
FFF4
FFF7
FFFB
FFFB
FFEF
FFF6
FFF2
FFF7
FFF3
0012
001C
0012
0005
000B
0008
0005
0000
0003
FFED
FFF9
FFED
FFDE
FFED
0002
0005
0002
0011
0013
0008
0009
0003
FFFB
FFF3
FFFC
FFF0
FFED
FFEA
FFE3
FFEA
FFFC
0009
000A
0007
0009
0001
FFF7
FFF5
FFFC
FFFB
FFF8
FFEE
FFE5
FFE8
FFED
FFED
FFF4
FFF9
FFF9
FFF3
FFFA
FFFD
FFFF
FFFB
FFF9
FFF9
FFF5
FFF4
FFF5
FFF3
FFF3
FFF2
FFF4
FFFB
FFFA
FFFF
FFFC
FFFC
FFF5
FFF6
FFF8
FFFD
0002
0000
FFFE
FFFD
FFF8
FFF9
FFFB
FFFB
FFFC
FFF5
FFFC
FFFB
0004
0006
0008
0006
0005
0003
0005
0000
FFFE
0006
FFF9
FFF8
FFFD
FFFF
0006
0006
0003
0007
0008
0005
0002
0003
0005
0004
FFF6
FFFA
0003
0005
0001
0005
0004
0001
0003
0000
0007
000B
000C
FFFB
FFF5
FFFE
0000
0003
0005
0005
0002
0003
FFFD
0005
0007
0008
0009
0004
FFF9
FFF9
0000
0001
0002
0001
0001
0007
0009
0006
0005
000C
0008
0001
FFF6
FFF2
FFF5
FFFF
FFFB
0001
0006
000A
0005
0000
FFF7
FFFA
FFFA
FFF7
FFF6
FFF0
FFF9
FFFD
0004
000B
000B
0007
FFFC
FFF7
FFF9
FFFA
FFF8
FFF3
FFF6
FFF1
FFFB
0002
0006
000D
0008
FFF6
FFF7
FFF7
FFFB
FFFD
0001
FFEE
FFF7
FFEE
FFF9
FFFF
0002
0004
0001
FFF8
0000
FFFA
FFFE
FFFF
FFFC
FFF1
FFF8
FFF0
FFFA
FFFA
FFF6
FFF9
FFFB
0004
0006
0004
0000
0003
FFF6
FFF6
FFFC
FFF3
FFF4
FFFB
0000
0003
000E
000B
0006
0005
0008
FFFB
FFF7
FFF9
FFFA
FFF7
FFF1
FFEF
FFEC
FFF0
FFF4
FFFB
FFFD
FFFC
FFF6
FFF5
FFF9
FFFF
FFFC
FFFE
FFFD
FFFE
FFF6
FFF2
FFF4
FFF7
FFF2
FFF2
FFF6
FFF8
FFFE
FFFB
FFFF
FFFA
FFF6
FFF7
FFF8
FFFF
0003
0003
0001
FFFD
0000
FFFB
FFFD
FFFE
FFFE
FFF4
FFF8
FFFF
0002
0007
0007
000D
0008
0008
0000
0002
0003
0000
FFFC
FFFB
0002
0006
0009
0002
FFFE
FFF8
FFF6
FFFA
FFFF
0005
0003
FFFE
FFF3
0001
0006
0008
000B
0004
FFFB
FFF8
FFFE
0004
000B
0009
FFFE
FFFB
FFF7
FFFD
0003
0005
FFFE
0001
0003
0003
0006
0007
000C
000F
0008
0007
FFF7
FFF9
FFF8
FFF6
FFF0
0001
0008
0005
0000
0001
0003
0004
FFFC
FFFC
FFFA
FFF4
FFF2
FFF4
FFFF
000D
0005
FFF6
FFF4
FFF4
FFF8
FFFA
0001
FFFB
FFFD
FFF0
FFFC
0008
000B
000D
FFFE
FFEB
FFF0
FFF9
FFFC
0001
FFFB
FFEB
FFF9
FFF7
0000
000E
000A
FFFB
FFEE
FFEF
FFFA
FFFC
FFFD
FFFD
FFF8
FFF0
FFF9
FFF6
0008
0002
FFFE
FFFB
0007
0009
0008
0006
0003
FFFA
FFF1
FFF4
FFF9
FFEE
FFFC
FFFA
FFF8
0002
000F
000E
0010
000E
0006
0001
FFF6
FFF5
FFF5
FFEE
FFEE
FFEA
FFED
FFEE
FFF7
FFFB
FFFC
0002
FFFA
FFF7
FFFB
FFFE
0002
FFF6
FFF2
FFEF
FFEE
FFEB
FFF1
FFF7
FFF3
FFF8
FFF7
FFFE
FFFD
0002
0000
FFFE
0001
FFFF
FFFC
FFF4
FFF9
FFFD
FFF5
FFF7
FFFA
0001
FFFC
0002
0001
FFFC
FFFC
FFF6
FFF5
FFEC
FFF0
FFE7
FFEA
FFF0
FFF4
FFFA
FFF9
0000
FFFF
FFF2
FFE9
FFEA
FFF1
FFF6
FFF8
FFED
FFE8
FFEA
FFEC
FFF1
FFEE
FFF6
FFFA
FFEE
FFEA
FFED
FFF1
FFF3
FFFB
0011
000E
0003
FFFA
FFF4
FFE7
FFED
FFF1
FFEA
FFF0
FFF2
FFF0
FFF1
0000
000B
000C
0006
0000
FFF9
FFEF
FFE9
FFEF
FFF1
FFFA
0002
0003
0006
0005
FFFC
FFFD
0007
0006
FFFF
FFF2
FFEE
FFF8
FFF6
0006
000C
000A
000A
FFFF
0005
0006
000F
000C
000B
FFFA
FFEF
FFFA
FFFC
0009
000B
0008
0007
FFFC
0005
0001
0008
0009
FFFF
FFF0
FFF7
FFFA
FFF9
0002
0007
000D
0007
FFFC
FFF7
0003
0008
FFF9
FFF6
FFEF
FFF4
FFF4
FFF5
FFF6
FFFB
FFFD
FFFA
FFF1
FFF7
0004
0000
FFFC
FFF7
FFEE
FFF6
FFFC
FFF8
FFF5
FFF7
FFF8
FFF0
FFF5
FFFC
0000
FFF6
FFFA
FFF7
FFFB
FFFD
FFFB
FFF4
FFF7
FFFA
FFFB
FFF7
FFF6
FFF8
FFF9
FFF6
0000
0004
0003
FFFB
0001
FFFC
0000
0005
0002
0005
0004
0000
0001
0009
0007
000D
0007
FFFD
FFFE
0004
0004
000C
0009
000C
000E
000D
0007
000E
000B
000C
0001
FFFE
0001
0000
FFFE
FFFC
FFFE
FFFD
0000
FFFC
FFFB
0000
FFFC
FFFD
0002
FFFE
FFFF
FFFC
FFFD
FFFD
FFFE
FFF9
FFFB
FFF4
FFF8
FFFA
FFFC
FFFE
FFFE
0001
FFFC
FFFE
FFFC
FFF9
FFF7
FFFE
FFFE
0004
0000
FFFE
FFF8
FFFB
FFFE
0001
FFFF
FFFC
FFFA
FFF7
FFFD
0002
0005
0005
0003
FFFD
FFFC
FFF5
FFFA
FFFF
FFFE
FFFD
FFF9
0000
0002
0006
0001
0002
0002
0001
FFFB
FFFB
FFF9
FFFC
0000
FFFF
0001
0006
0006
0001
FFF9
FFFE
0002
0008
0004
FFFC
FFFB
0001
FFFB
0000
0008
0008
0003
0000
FFF9
0005
0006
0006
0003
0001
FFFD
0001
0000
0002
0000
0002
0002
FFFC
FFFB
0002
0009
0000
FFFD
FFFD
FFFB
FFFF
FFFE
FFFE
0000
0002
0001
0000
FFF7
FFFF
0008
FFFC
FFFB
FFF7
FFFE
FFFE
FFFC
FFFF
FFFC
FFF8
FFFD
FFF7
FFFD
0002
FFFE
FFF9
FFFB
FFFD
FFFC
FFFF
0000
FFFF
FFFE
FFFA
FFF8
FFF8
FFFC
FFFC
FFFC
FFFC
FFFB
FFFB
0001
FFFE
FFFE
0000
FFFA
FFFE
FFFA
FFFA
0000
0000
FFFE
0003
0001
0001
0001
FFFE
FFFF
FFFC
FFFC
0002
FFFC
0003
0000
0002
0004
0007
0004
FFFE
0001
FFFC
0001
FFFE
FFFF
0000
0002
0003
0003
0003
0006
0005
0003
FFFF
FFFE
FFFC
0001
FFFD
FFFE
0000
FFF9
FFF9
FFF8
FFF9
FFF4
FFF7
FFF4
FFFC
FFFA
0000
FFFF
FFFB
FFFC
FFF6
FFF6
FFF3
FFF3
FFF0
FFF1
FFF3
FFF1
FFF2
FFF5
FFFA
0002
FFFC
FFEF
FFED
FFF3
FFF8
FFF9
FFF6
FFF6
FFF2
FFF8
FFF4
FFF1
FFF6
FFFF
FFF4
FFEE
FFF5
FFF9
FFF7
FFFF
000E
000B
FFFF
FFFA
FFF3
FFEF
FFED
FFF9
FFF5
FFF1
FFF9
FFFC
0004
0007
0008
0006
0002
FFFC
FFF7
FFED
FFEA
FFF5
FFEE
0000
0005
000A
0008
FFFE
FFF7
FFFB
0008
0006
0001
FFF8
FFED
FFFC
FFF3
0007
0009
0007
0006
FFFD
0001
0009
000D
000C
0007
FFFB
FFF0
FFFB
FFF9
000A
0004
0004
0002
FFFE
0002
0007
000C
0002
FFFC
FFF6
FFF5
FFFC
FFF8
FFFD
FFFB
0000
0005
FFFB
FFFB
0003
0003
FFFB
FFF7
FFEE
FFF4
0000
FFF4
FFFA
FFFA
FFF8
FFFA
FFF8
FFFF
0003
FFFB
FFFD
FFF5
FFF0
FFFA
FFFF
FFF8
FFF6
FFFB
FFFB
FFF8
FFF9
FFFA
FFFF
FFF7
FFFA
FFFB
FFFC
0000
FFFE
FFFA
FFFB
FFFC
0000
FFFB
FFFC
FFFA
FFFA
FFFE
0000
0004
0001
FFFC
FFFE
FFFB
0002
0008
0004
0006
0006
0004
0004
0006
0009
000F
0005
FFFD
FFFE
0005
0006
000B
0008
000C
0008
000B
0009
000A
000B
0008
FFFF
FFFD
FFFB
FFFB
FFFE
FFFC
0001
0000
0001
FFFF
FFFD
0001
FFFF
0001
FFFF
FFFE
FFFE
0001
FFFD
FFFE
FFFC
FFFB
FFFC
FFFB
FFF8
FFFD
FFFF
0001
0001
0000
0000
FFFE
FFFD
FFFC
FFFD
FFF9
FFFE
FFFE
FFFA
FFFC
FFFC
FFFE
0000
FFFD
0000
FFFE
FFFA
FFFB
FFFE
0006
0004
0008
0001
0002
FFFD
FFFA
0000
0001
0001
0000
FFFE
0005
0004
0003
FFFE
FFF9
FFF7
FFF7
FFFA
FFFC
0000
FFFC
FFFD
0000
0002
0007
0005
FFFF
FFFB
0001
0002
0001
FFFD
0000
FFFE
0001
FFFC
FFFF
0005
0003
0003
FFFC
0002
0003
0000
FFFC
FFF8
FFFE
FFFB
FFFC
FFFC
0003
0000
FFFF
FFFD
FFFE
FFFC
0003
FFFF
FFFA
FFFD
FFFA
FFFF
FFFF
0000
FFFD
FFF9
FFFE
FFF9
FFF6
FFFD
0005
FFFB
FFFD
FFFA
0000
0000
FFFE
FFFE
FFFD
FFF9
FFFC
FFF6
FFF5
0003
0003
FFFF
0001
FFFD
0002
FFFF
FFFF
0001
FFFC
FFFB
FFF8
FFFC
0001
0004
FFFE
0000
0002
FFFF
0000
0000
0000
FFFD
0001
FFFD
FFFB
0002
0002
0005
0000
0002
0003
FFFD
0000
0000
FFFF
FFFF
FFFF
0002
0002
0005
0007
0004
0006
0001
0002
0000
0000
0000
FFFC
FFFF
0001
0000
0000
FFFF
0001
0004
0002
0003
FFFF
0000
0001
FFFC
FFFE
0000
FFFF
FFFC
FFFC
FFFF
FFFA
FFFD
FFFB
FFFD
FFFD
FFFC
FFFD
FFFE
0001
FFFC
FFF9
FFFC
FFFC
FFF9
FFF9
FFFC
FFF4
FFF1
FFF2
FFF9
FFF5
FFFB
FFFD
FFFB
FFFF
FFFC
FFF7
FFF4
FFF0
FFF3
FFF1
FFEB
FFE9
FFE4
FFEA
FFF0
FFFB
FFFE
FFF3
FFED
FFEC
FFF6
000B
0014
001D
0015
0004
FFEC
FFE3
FFE6
FFEF
FFF8
FFEC
FFE8
FFE8
FFFD
000C
0015
001A
0016
0003
FFEC
FFE4
FFDF
FFE8
FFEF
FFE8
FFE9
FFEA
FFFE
000A
000A
0001
FFF8
FFED
FFEC
FFE5
FFE0
FFEC
FFF1
FFF5
FFFA
FFFA
FFFE
FFFE
0007
0019
FFFC
FFF6
FFF7
FFF8
FFEF
FFF1
FFF7
0000
FFFE
FFFA
FFFE
0007
001C
0018
FFFA
FFF2
FFF1
FFED
FFE7
FFF5
FFF3
0003
FFFF
0003
0005
000D
0010
000C
FFF9
FFE7
FFE0
FFE6
FFE7
FFEF
FFFA
FFF7
FFF8
0008
0010
0017
000E
0006
FFF7
FFE9
FFED
FFEA
FFE3
FFF5
FFF4
FFEE
FFF6
FFF9
FFF3
FFF8
FFFB
FFF2
FFEF
FFF0
FFF0
FFE6
FFF6
FFFE
FFF6
FFF4
FFF9
FFFA
FFF6
FFF0
FFEE
FFEB
FFE9
FFE5
FFEC
FFF7
FFFF
FFFB
FFFC
FFF4
FFFF
0001
FFFD
FFFB
FFF0
FFEB
FFF7
FFFF
0004
0009
0001
FFFD
0004
0000
0009
000B
000E
000C
0009
0009
000E
0013
0011
0008
FFFE
FFFB
0001
FFFD
FFFC
FFFB
FFF9
FFF4
FFF4
FFF1
FFF3
FFF8
FFFA
FFFC
FFFE
0000
0000
FFFE
FFF6
FFF2
FFEC
FFEF
FFE5
FFE0
FFE5
FFEB
FFF0
FFF2
FFFA
FFFC
FFFF
FFF2
FFEA
FFEC
FFF7
FFF5
FFFB
FFF0
FFE6
FFDE
FFDD
FFE4
FFEF
FFFA
FFF3
FFE9
FFF5
FFF9
0000
0003
0003
FFED
FFE8
FFE1
FFE4
FFE7
FFE5
FFEB
FFF1
FFF7
000E
0009
0010
0011
0002
FFF7
0001
FFF7
FFEF
FFF7
FFED
FFEC
FFF5
000A
000B
000C
0016
0012
0015
0007
FFFD
FFF8
FFFD
0001
FFF9
FFEA
FFF9
0003
FFF7
FFFF
0011
000E
0007
FFFA
FFE6
FFF9
0009
000E
0007
FFEF
FFF5
FFF9
FFE8
FFF7
0000
0001
FFF8
000F
FFF2
000E
000E
0009
FFF6
FFF0
FFFB
FFEC
FFE0
FFE6
FFED
FFE5
000F
0011
000D
0013
0007
FFFE
FFF0
FFEF
FFF4
FFEC
FFED
FFEA
FFE4
FFEB
0005
0009
0013
0006
FFFE
FFF8
FFEC
FFEF
FFFC
FFF6
FFF3
0001
FFF9
FFF7
FFFB
0007
0009
FFF8
FFF8
FFF8
FFF3
FFFC
FFFB
FFF6
0003
000A
0004
0004
FFFF
0009
FFF7
FFF4
FFF2
FFF9
0001
FFFE
FFFF
FFFF
000C
000E
000F
000D
000C
0002
FFF7
0001
FFFF
000B
0009
FFF8
0000
0001
FFFD
000A
000F
000D
0012
0011
0009
0010
000F
0012
0004
FFFE
0001
FFFF
FFFA
FFFA
FFF9
FFF9
FFF6
FFF4
FFF8
FFF7
FFF9
FFFE
FFFD
FFFD
FFFB
FFFF
FFFB
FFF9
FFF4
FFF1
FFF2
FFEE
FFF0
FFED
FFF1
FFEF
FFF5
FFFD
FFFB
FFF4
FFEE
FFF1
FFF2
FFF8
0000
FFFE
FFF5
FFF2
FFEE
FFF1
FFEA
FFF2
FFF7
FFF1
FFF3
FFF2
FFFE
0004
0005
0004
0003
0000
FFF9
FFEE
FFED
FFED
FFF4
FFF4
FFFC
0001
0007
0009
000C
000C
0009
0005
FFFF
FFF4
FFEF
FFEA
FFEE
FFFC
0004
0008
000A
000C
000B
0003
0003
0004
0007
0005
FFF3
FFEB
FFF2
FFFF
0009
0004
0005
0007
FFFC
0007
0003
000D
000F
0005
FFF5
FFF0
FFF6
0002
0000
0002
0002
FFFA
0006
000D
0005
000C
0004
FFFA
FFEE
FFF1
FFF7
FFF9
FFFB
FFFC
0003
0007
0002
0003
0008
0001
FFF6
FFF4
FFEB
FFF0
FFFA
FFF2
FFF5
FFFB
FFFF
0001
FFFC
FFFD
0003
FFF6
FFF7
FFF4
FFED
FFFA
FFF9
FFF5
FFF5
FFF9
FFF4
FFF8
FFF5
FFFB
FFF9
FFF4
FFFB
FFF5
FFFC
FFFD
FFFC
FFF9
FFFC
FFF9
FFF8
FFFB
FFF7
FFF5
FFF4
FFF8
FFFA
0000
0007
FFFA
FFFC
0000
FFFB
FFFE
FFFF
FFFD
FFF6
FFF5
FFFD
0004
000A
000F
0008
FFFA
FFFD
0003
0007
000C
0008
0008
0006
0008
000C
000E
000E
0008
FFFF
FFFD
0000
0001
FFFF
FFFB
FFF5
FFF4
FFF2
FFF1
FFF4
FFF5
FFF8
FFFC
FFFD
0001
FFFF
FFFA
FFF7
FFF6
FFF3
FFF6
FFF5
FFF1
FFF2
FFEE
FFF1
FFF1
FFF3
FFFA
FFFC
FFF3
FFE7
FFF2
FFF5
FFFB
0002
000C
000A
FFFE
FFF7
FFED
FFE9
FFF3
FFF6
FFEE
FFF3
FFF4
FFFD
0004
000F
000C
000B
0004
FFF6
FFEE
FFE9
FFED
FFF2
FFF5
0000
0005
0009
0009
0001
FFF5
FFF4
FFFA
FFF9
FFEF
FFED
FFEC
FFF0
FFFF
000A
000B
000A
FFFC
FFFC
0008
000F
000E
000E
0000
FFF8
FFEE
FFF3
0009
000A
0009
FFFE
FFF9
0008
000E
0010
0002
FFFC
FFF2
FFE7
FFF5
FFF1
0006
0000
FFFF
FFFA
0001
0003
0000
FFFD
FFF7
FFEE
FFE4
FFE6
FFF0
FFF4
FFFB
FFFB
FFF2
FFF7
FFF9
0002
000A
0000
FFF9
FFF0
FFE5
FFEA
FFF3
FFF1
FFF7
FFF7
FFF4
FFEE
FFEF
FFFC
0006
FFF9
FFFA
FFF3
FFEE
FFF3
FFFE
FFF9
FFF5
FFF6
FFF8
FFFA
FFF8
FFFA
FFFD
FFF5
FFFA
FFF4
FFFE
0001
FFFF
FFF8
FFF4
0001
0004
0007
0003
FFFE
FFF8
FFFA
0003
FFFF
0004
0002
FFF8
FFFB
0000
0008
000B
000C
000C
0009
000A
000B
000C
000E
0002
0007
0000
0003
FFFF
000A
0009
000B
0006
0008
0008
0009
000F
000D
FFFF
0002
0000
